#version: 0.2
a n
e r
Ġ d
Ġ Ġ
e n
a r
Ġ m
a t
Ġ p
an g
i n
a l
Ġ s
a h
a s
Ġ t
a k
u n
Ġ b
Ġ k
ĠĠ ĠĠ
Ġd i
e m
a m
a d
s i
e l
en g
k an
Ġ y
t u
Ġy ang
o n
Ġd an
e b
y a
i s
i k
a p
i l
o r
Ġ S
Ġ P
a i
e s
e k
Ġm en
Ġ l
e t
o l
i t
Ġb er
in g
a g
u t
ad a
u r
Ġt er
ĠĠĠĠ ĠĠĠĠ
u s
u m
ar i
as i
Ġ M
Ġ A
u l
Ġ (
Ġp er
ak an
ar a
Ġ K
u k
Ġ B
Ġ in
un g
Ġm em
n ya
i d
e p
i r
Ġ h
eng an
t i
tu k
Ġ I
Ġ D
o m
Ġm eng
Ġ 1
al am
Ġ T
Ġd engan
Ġd ari
Ġ un
Ġ j
e d
g a
r o
Ġp ada
e h
Ġs eb
Ġun tuk
i a
i m
Ġ r
Ġ 2
am a
at a
i an
a b
Ġ R
al ah
u p
em b
Ġin i
Ġd alam
an d
Ġp en
Ġ n
Ġk e
Ġ C
u d
a w
i h
e g
Ġ J
Ġ g
ag ai
u h
t a
Ġ N
t r
Ġ ad
a y
Ġ H
ad i
at an
Ġm er
o k
t er
Ġ2 0
e si
a in
ah un
ol eh
a an
ĠI n
Ġ L
Ġad alah
a c
u b
Ġ c
ap at
Ġ oleh
Ġ G
Ġ1 9
Ġt ahun
Ġ f
Ġseb agai
an t
a j
Ġs e
ang an
en t
ata u
Ġp eng
Ġb ah
id ak
Ġ atau
u kan
en d
i si
as a
Ġ W
at i
Ġm el
eb ut
j adi
o g
p er
Ġ w
Ġmem b
Ġ E
Ġ F
o t
Ġt idak
am p
w a
an ya
ah an
Ġ U
i c
u si
g un
el ah
o d
i tu
at u
s ebut
ik a
i p
ang g
i b
Ġ "
Ġ o
Ġd apat
u ga
Ġmen y
ĠĠ Ċ
0 0
or ang
o s
Ġj uga
u an
h e
â Ģ
is t
u a
Ġmen jadi
Ġp em
am b
a ya
al i
Ġp ro
Ġs ep
ang k
an a
ĠĠ Ġ
eb ih
Ġ O
Ġs el
r an
Ġs er
Ġk ar
o p
) .
e f
em p
Ġter sebut
ĠIn d
ĠĠĠĠĠĠĠĠ ĠĠĠĠĠĠĠĠ
i kan
gun akan
en si
y ak
ek a
er ti
Ġl ain
Ġl ebih
il ik
o si
ĠP er
an j
Ġk on
Ġ v
on al
Ġ itu
en a
Ġdi b
e c
Ġk em
in d
e w
Ġdi k
in t
Ġbah wa
ar an
ap a
Ġ ak
esi a
ing k
o b
) ,
u ar
on esia
es ar
om p
eb er
ung an
on g
Ġsep erti
r i
al a
Ġk ep
ilik i
Ġper t
Ġ20 1
Ġber b
ing g
ing ga
c ara
g r
as an
am an
Ġs ek
Ġmer eka
ĠInd onesia
eg ara
Ġse cara
Ġmem iliki
a f
Ġo f
Ġ Y
as il
u ah
u j
Ġt elah
ar t
ir i
ap i
s t
Ġ ant
Ġ V
Ġ akan
ag ian
Ġs et
it as
Ġmen d
up akan
o ta
ol og
eber apa
Ġmer upakan
al u
Ġs atu
Ġm as
e j
n i
Ġp emb
a at
l e
Ġdi t
ĠD i
Ġs em
âĢ ĵ
Ġ20 0
o h
ur an
l ah
1 9
Ġ al
Ġkar ena
Ġk el
Ġk er
Ġ orang
Ġdi s
Ġ at
ĠĠĠĠĠĠĠĠ ĠĠĠĠ
Ġk et
Ġb an
ik asi
u at
c h
s a
v er
in ya
Ġmen c
g an
Ġt et
Ġdi p
as ar
Ġ as
Ġdi l
Ġp r
Ġ an
en tuk
Ġ 3
Ġb esar
im p
er i
ag i
Ġpen d
or m
is m
ak ukan
ĠA n
ĠA m
Ġseb uah
ul a
h ad
Ġdi gunakan
Ġb eberapa
# #
ek s
m as
tu r
Ġber k
al an
e v
Ġb ar
um b
d uk
ar ah
usi a
Ġter b
Ġse j
i g
ang kan
ĠP ada
Ġn egara
uh an
h ir
u tu
on s
Ġs u
s es
emp at
2 0
o v
Ġb i
er ensi
Ġk es
j a
un an
ud ian
ĠĠĠĠ ĠĠĠ
od e
ter n
in e
Ġant ara
ĠA l
ti f
ingk at
olog i
t or
r a
m an
ung k
asi onal
er int
ul an
r e
ism e
on t
Ġp el
Ġban yak
Ġmeng h
Ġm an
um um
un c
Ġt an
it a
Ġt he
ĠP r
si p
u g
ĠS el
el um
Ġ and
= =
us ah
ay ah
Ġ ada
ef erensi
Ġbah asa
had ap
a ik
ing an
Ġ ia
ut an
Ġkem udian
Ġl uar
Ġpert ama
Ġs aat
p a
o c
il m
en al
Ġh ar
Ġat as
Ġter d
ist em
i f
ent ang
en tu
t an
Ġmeng gunakan
en c
ĠAm er
aj a
ai r
Ġh ingga
emb er
Ġter hadap
ul ai
it ik
d i
Ġtet api
ingg i
er ah
Ġk eb
ap an
and a
l i
id up
Ġser ta
un d
ĠA r
Ġmem per
ungk in
Ġs ed
or i
Ġk ed
Ġs eh
un ia
Ġke c
ar ak
Ġt angg
Ġb agian
Ġdi m
il ayah
g gr
ĠC h
ut ama
Ġlain nya
ggr is
u as
um lah
ac k
it ar
P ada
Ġdi per
Ġ umum
ih at
ter i
o w
am un
Ġber s
si t
is asi
ang at
un j
Ġ 4
Ġpen y
Ġp ol
ĠĠĠĠĠĠĠĠ ĠĠĊ
ac h
ĠP ro
ĠM ar
ak s
ĠU ni
Ġ aw
t ar
ĠĠĠĠĠĠĠĠ Ċ
ag a
ĠAmer ika
ĠĠĠĠ Ċ
Ġkep ada
Ġh anya
aw a
er ik
Ġ ag
Ġ19 9
er a
alu i
Ġk omp
im a
Ġ or
Ġm et
Ġs istem
mas uk
Ġtangg al
em en
Ġkon s
Ġp ara
I n
Ġset elah
ar d
an c
es t
Ġk om
i ga
Ġter l
Ġs en
Ġdi d
Ġd ua
a v
Ġk ek
Ġmen j
Ġs p
ak a
ai tu
er b
" .
ar at
Ġbar u
Ġt entang
a ut
Ġy aitu
Ġ -
is a
Ġter k
ed ia
Ġs angat
en is
Ġmel alui
Ġ 5
im b
on om
ib at
an an
Ġdi r
Ġm usi
Ġdi sebut
n a
es k
Ġ1 8
ak si
Ġaw al
ar kan
u i
ati f
il an
Ġs ama
ati on
ud ah
el it
in i
ub l
Ġs t
Ġpem erint
ent ara
Ġter jadi
Ġw ilayah
ĠT he
Ġ ar
usah aan
Ġr es
Ġp as
Ġsu atu
d a
Ġseh ingga
us tr
Ġs es
ek n
er n
Ġ air
Ġse orang
eb ab
Ġs amp
Ġper m
at akan
Ġ20 2
Ġter masuk
Ġw ak
aw ah
un ya
Ġd a
in a
Ġn ama
Ġs alah
Ġber d
um p
er ikan
ak ar
ang s
ar ang
uk um
Ġman usia
ed a
p l
Ġber t
ik ut
Ġp ula
u al
Ġg en
Ġseb elum
ur uh
uk a
Ġt inggi
Ġh al
Ġb ulan
ĠI s
is tr
ĠB el
ĠĠĠĠ ĠĠĊ
d en
u c
i ap
Ġberb agai
Ġ ek
p r
er s
Ġak hir
Ġpeng gun
il ih
ar sip
al ing
Ġd unia
ver sit
ĠA g
u ang
Ġb agi
Ġsek itar
emb ali
asi h
osi al
f orm
ar is
ah kan
arsip kan
Ġper s
Ġsel ama
e tu
ek si
y arak
ĠM en
ĠP em
i j
Ġmel akukan
al ia
Ġpro duk
ĠDi arsipkan
ir an
Ġm asa
ek er
ĠS t
e kan
end iri
em ukan
Ġk ali
ak u
yarak at
Ġ ab
an y
Ġdil akukan
ran ala
ew an
ti v
it er
anj ang
Ġk h
angk at
Ġ angg
Ġm od
ĠP en
up un
Ġber l
ĠM ach
b ack
Ġwak tu
Ġ 6
2 00
Ġmemb uat
er t
Ġb isa
ĠW ay
h an
or t
Ġ 9
ĠP eng
Ġ ap
ĠIn ggris
ebab kan
Ġper usahaan
m i
1 0
Ġb awah
Ġter t
ĠMach ine
in an
P ranala
Ġ {
ĠD alam
ur ut
asar kan
ĠWay back
Ġhar us
uk u
Ġber h
Ġmem p
Ġk embali
Ġk eh
umb er
Ġm ulai
id e
ĠĠĠĠĠĠĠĠ ĠĠĠ
aw an
Ġber p
om b
as al
ar uh
Ġ Z
Ġdik enal
es s
Ġser ing
eng ah
ap kan
ep ang
Ġs tr
Ġt r
R eferensi
t ing
Ġs endiri
il ai
ah asa
u atan
as anya
si a
id ang
Ġ19 6
t e
asil kan
Ġan ak
Ġ âĢĵ
ak i
ran s
g i
uk kan
erik at
omp ok
00 0
ĠUni versit
onom i
ĠB r
r af
o f
Ġket ika
Ġ eks
Ġo b
Ġj enis
Ġor gan
Ġ19 8
Ġ utama
Ġk r
ĠU n
Ġsem ua
ar k
ul is
ĠS erikat
Ġ19 4
er d
Ġm il
Ġb aik
e a
alam i
angk a
Ġk ota
ung si
er al
er si
el l
art ai
Ġmas yarakat
Ġt empat
Ġm ana
ti kan
ro pa
Ġ 7
ĠJ epang
il ah
Ġda erah
Ġh idup
or d
an k
af tar
ol ah
esi den
f r
ti m
Ġm asih
ur ang
Ġmusi k
Ġ ==
ĠS eb
u ari
Ġb entuk
anj ut
emb ang
ĠT im
Ġper n
ĠI a
ingg al
ĠĠĠĠĠĠĠĠĠĠĠĠ Ċ
on d
emb angan
us us
Ġp aling
il l
Ġh ari
ub ah
1 8
Ġdi h
ĠE ropa
et ah
Ġm at
Ġpro ses
ubl ik
Ġb el
Ġs osial
l am
ep at
Ġ1 0
angs ung
ai an
Ġked ua
al nya
ĠA d
ub ungan
ip un
Ġbers ama
Ġ Ċ
Ġ 8
Ġangg ota
um ah
ĠI S
it an
Ġh ukum
Ġ19 7
Ġd em
h a
angg ap
i al
ung g
i et
Ġt ekn
ĠN amun
ran c
P er
Ġk ap
Ġsamp ai
eg eri
Ġkec il
gr am
esk ipun
Ġter p
ĠA s
Ġsp esi
t h
e i
Ġsel uruh
er man
isi k
Ġmemb erikan
Ġber ada
Ġbi asanya
l u
Ġ a
ap ai
Ġm in
at ur
et ak
ag u
as kan
ĠBel anda
ĠP ol
Ġl aut
w an
eng g
Ġs udah
us at
m in
us t
Ġpol itik
ĠS o
Ġp es
Ġin tern
utu s
ĠS ep
et elah
ti tu
Ġberb eda
Ġd ata
ing in
l as
per asi
Ġj umlah
itu s
m a
Ġ ef
Ġp un
id ikan
ai kan
eng k
Ġmen unj
Ġin d
et er
Ġ ro
ĠIn tern
Ġmeny ebabkan
Ġper b
um i
ĠD es
l in
an i
Ġseb agian
Ġsej ak
Ġ â
ut a
Ġ en
Ġmen ingkat
ul tan
ar ga
un i
Ġ el
Ġm a
yak it
ad ang
Ġl ingk
ai t
ul kan
Ġdi ri
Ġt el
as is
Ġ z
ĠE n
B N
Ġm ungkin
in asi
an tu
ĠS p
o ur
Ġ 0
ul ang
Ġterd apat
" ,
um en
Ġmeng en
ĠĠĠĠĠĠĠĠĠĠĠĠ ĠĠĊ
ĠR eferensi
e y
akar ta
Ġdi g
it al
Ġmend apat
ol a
ĠH al
op ul
Ġset iap
aj aan
Ġper k
ul i
ud i
ud aya
Ġ ilm
ĠM al
ont oh
Ġkel uar
Ġres mi
Ġpen ting
} }
tu s
Ġ âĢ
1 1
i z
Ġr e
h t
ĠO r
ĠI I
Ġkh usus
Ġt iga
Ġab ad
l an
Ġdi a
Ġp ut
Ġs umber
entu kan
Ġter s
et a
il is
Ġd in
Ġt ak
ol usi
at or
up a
ub ahan
Ġper j
ak hir
Ġt im
Ġd e
ĠB arat
Ġmengh asilkan
Ġpemerint ah
ad an
Ġdi tu
Ġpen c
eker ja
as e
Ġtan ah
Ġant ar
. .
amb il
ang sa
5 0
Ġt e
Ġtert entu
at en
Ġt rans
ung ai
Ġg r
ar ingan
t ik
ir ikan
ĠIS BN
Ġm akan
og raf
d is
ab il
Ġh asil
ĠU t
ar ti
Ġmeny atakan
ak teri
ĠA b
Ġc ara
ati onal
ut i
Ġg el
Ġber j
ĠK om
ud a
ĠK ar
ga b
ĠI t
imp in
. ,
ara an
Ġmenunj ukkan
Ġdit emukan
Ġb idang
uk tur
end ah
Ġber asal
id a
Ġses u
Ġd ek
er an
L ihat
Ġdi ter
ĠM an
ĠJ awa
Ġkel ompok
ir us
unc ul
form asi
ĠJ akarta
Ġterd iri
ĠSel atan
Ġkom un
y at
Ġmeng g
ĠJ erman
ĠM as
Ġr umah
Ġdi anggap
1 2
Ġh ak
Ġj ika
Ġek onomi
en ar
t on
at as
Ġ{ \
ĠS em
ĠA k
at h
Ġmen er
Ġlingk ungan
a z
ĠM er
y ah
ĠĠĠĠĠĠĠĠ Ġ
ar u
ad e
Ġtan pa
uk ung
Ġtet ap
Ġberd asarkan
an nya
ĠR ep
ĠK er
emb angkan
Ġt ingkat
ed i
N A
at ang
Ġg er
er l
Ġm uncul
Ġpenggun aan
Ġber g
ĠS h
Ġper d
Ġbah an
k r
in ta
ar na
l is
un ung
Ġmeng alami
and ing
ĠĠĠĠĠĠĠĠĠĠĠĠĠĠĠĠ Ċ
et ika
or k
an yak
osi si
m en
elit ian
Ġd asar
Ġpern ah
ĠK ab
al l
ur a
i v
ab at
ur kan
us an
ud uk
Ġmenc apai
am i
idup an
ĠN ew
Ġpemerint ahan
is alnya
Ġn amun
Ġ i
Ġl ay
Ġd ep
en s
Ġpen yakit
ang un
anj ian
Ġdi c
Ġk al
Ġber n
Ġef ek
ĠK ep
uk aan
l ikasi
il i
ain an
m b
amp ak
or e
c i
u f
P eng
Ġma upun
Ġp opul
uj uan
g en
ic h
ĠO l
ĠSel ain
Ġmengen ai
Ġw eb
d ang
ang unan
ĠA c
P en
b it
l at
aw at
t as
ada an
ĠAn g
Ġj aringan
Ġm engan
at ian
1 7
Ġ ot
19 9
ip t
up aten
ant ai
ranc is
Ġ X
ĠJ an
Ġf ilm
Ġ is
ej arah
1 6
g e
Ġter utama
Ġ1 3
osi s
it y
ur un
Ġ1 7
ud ara
. "
ur at
Ġj uta
Ġsebelum nya
Ġs ub
ro p
ĠO k
Ġsem entara
m p
aw asan
Ġkon t
ot o
ĠTim ur
f at
ul u
r om
t ob
Ġt umb
ir im
eh atan
ih ak
ro s
at eg
Ġ ist
Ġl ap
Ġr endah
ul it
u angan
Ġl angsung
l o
ak yat
A n
er ita
ĠM us
Ġ &
ut er
ĠIs lam
ĠT i
t ember
Ġspesi es
is an
om or
ĠIt alia
adi si
Ġ =
Ġdi j
Ġl agi
Ġ1 2
Ġs eg
Ġpen j
Ġl ok
ĠK r
eb r
Ġm aka
ej a
Ġpeng h
Ġh ewan
ĠPr esiden
Ġ1 6
ĠĠĠĠĠĠĠĠĠĠĠĠĠĠĠĠ ĠĠĠĠĊ
D i
l and
si k
In ggris
Ġper angkat
etah ui
eng aruh
D alam
y le
Ġmemb entuk
s p
Ġmil iter
Ġb akteri
j ata
Ġag ar
ro duk
ĠN asional
1 4
isi s
tob er
ĠS y
um at
ĠSep tember
a uh
is ti
uk up
Ġm ak
Ġl alu
P R
ĠĠĠĠĠĠĠĠĠĠĠĠ Ġ
Ġpas ukan
Ġ19 5
ti on
ĠH ind
Ġp anjang
Ġker ja
ungkin kan
Ġt ub
Ġh ubungan
Ġkar ya
pl ay
d isi
ong k
Ġk ol
im ia
1 3
tu di
p ada
Ġper ang
ĠN ov
ant ung
Ã ©
ĠT r
and ar
Ġke j
Ġberh asil
ilih an
ĠT h
Ġpro gram
Ġn ilai
Ġt o
Ġber ikut
Ġ on
Ġper ubahan
Ġn uk
us tus
7 8
s tr
Ġmeng ak
r at
er g
ĠS ek
ĠK es
Ġf or
ĠRep ublik
e orang
Ġp an
Ġsu ara
Ġd es
Ġk ata
ek tr
et ik
ĠĠĠĠĠĠĠĠĠĠĠĠĠĠĠĠ ĠĠĊ
ĠS etelah
alam an
l ir
ĠUt ara
ung kan
Ġsej umlah
uk uran
Ġintern asional
Ġber si
emb aga
Ġk ab
b an
e x
ak tor
em at
Ġk l
Ġakhir nya
Ġl agu
Ġb ukan
Ġf ungsi
Ġ ib
Ġmen inggal
1 5
ist ik
un t
Ġilm u
Ġc ukup
st yle
ĠP artai
Ġk as
Ġsej arah
usah a
ustr i
Ġ ut
Ġpenggun a
ĠS ur
Ġ1 5
Ġmas alah
ĠUniversit as
Ġ ac
Ġv ersi
Ġdib uat
q u
Ġl uas
Ġber m
ik ian
dis play
asi kan
Ġr el
ov iet
display style
j ek
Ġr ek
U n
c e
Ġtr adisi
Ġak ibat
f ikasi
o u
ĠT ahun
ok si
Ġ alam
es in
ĠK h
at atan
ev olusi
ĠAg ustus
ĠOk tober
ant an
Ġkeh idupan
Ġmer ek
Ġmem ungkinkan
end er
tiv itas
ograf i
o y
eb ar
ĠP rancis
it i
Ġumum nya
ĠDes ember
Ġâ Ī
el uar
ay u
s on
o id
Ġ up
el aj
Ġin formasi
ĠG r
am atan
en tr
c aya
l im
Ġs at
Ġb ekerja
ĠA ustr
Ġn asional
m ent
i ode
ar l
as t
ur u
ur n
Ġbern ama
K I
f er
ĠJ uni
Ġ ik
Ġtan aman
ĠA S
Ġmeningkat kan
ĠK e
Ġsed ang
ĠS oviet
Ġsesu ai
am anya
Ġd aya
ĠJ uli
Ġmakan an
D aftar
ar n
Ġperm ukaan
Ġp ihak
am in
ĠM ah
ĠMen teri
ĠPer t
Ġob at
al ik
v id
Ġl og
âĢ Ŀ
ibat kan
Ġ19 3
utus an
Ġmet al
Ġmas uk
ari an
Ġin t
Ġkeluar ga
ĠG o
s k
Ġmem as
Ġkap al
ĠKab upaten
if at
_ {
tr a
aks an
uas aan
ĠNov ember
Ġdari pada
Ġmend ukung
Ġad anya
ĠUniversit y
y ata
ĠR om
Ġt ujuan
ĠB er
h i
ang ga
ĠK ota
ĠĠĠĠĠĠĠĠĠĠĠĠ ĠĠĠ
Ġ em
om m
ingk atan
Ġag ama
Ġterk ait
ĠJan uari
er v
ĠA sia
Ġpen elitian
aman an
Ġberk embang
roduk si
l ob
ak in
Ġist ilah
at us
Ġ '
it e
ong an
T he
Ġb ur
b ahasa
i ah
ĠB eberapa
Ġbah kan
en uh
pr il
Ġ x
ar ik
ikut i
Ġmendapat kan
n is
ef in
Ġtub uh
ĠD engan
' s
r y
Ġk or
amp u
Ġtekn ologi
ide o
f aat
amp ir
at uran
ĠMer eka
ĠP h
Ġj auh
istr ik
a is
angg uan
ĠPer ang
titu si
ĠMar et
Ġd ok
ad ilan
amp uan
a u
Ġ +
ĠA fr
i um
al ur
or y
Ġin f
b on
ĠK em
ĠN egeri
v in
Ġ )
ĠF ebr
oh n
ĠE k
Ġstr uktur
ik el
oc k
k l
Ġin di
Ġper iode
Ġkon disi
st em
S ejarah
c he
at e
Ġperm ainan
ar y
anding kan
r on
ĠD unia
ij akan
Ġorgan isasi
Ġv irus
Ġterl etak
s ur
Ġper l
Ġc epat
Ġ ga
Ġb udaya
Ġ Q
ahan an
Ġproduk si
t o
Ġt ok
Ġb in
ĠA pril
ĠM ei
f f
y ek
Ġ1 4
ac a
Ġber upa
Ġf il
atu an
amb ahan
enc ana
unya i
b um
Ġter akhir
oh on
r asi
ĠT er
am m
Ġter us
en n
Ġp usat
Ġt ah
Ġsed angkan
m ana
Ġkon tr
d e
i e
Ġb elum
Ġl ama
Ġpend idikan
Ġ empat
Ġk amp
ĠB ank
Ġdek at
Ġal at
as s
on tr
amb ar
ind akan
Ġindi vid
Ġber arti
ag angan
Ġsek ali
Ġmemp unyai
Ġmener ima
k ir
Ġk aki
us h
ipt akan
^ {
aj ak
Ġb eb
ĠR e
Ġp asar
os t
Ġkes ehatan
l d
u anya
as ti
ĠR aja
ĠL e
Ġan ti
Ġkomp uter
Ġkas us
uk ti
Ġk urang
ĠN egara
Ġ3 0
p en
ia ya
ud d
ib usi
Ġap likasi
In d
P ro
ĠD ia
Ġmod ern
isti wa
3 0
ab el
mas ing
Ġdem ikian
Ġs k
Ġ uj
Ġp and
ĠD e
ic al
Ġs aja
ĠS M
un uh
and i
enc e
Ġsek arang
am at
aj ar
ĠK or
ĠAfr ika
al kan
Ġk imia
Ġj am
olog is
engaruh i
ik it
Ġperj anjian
Ġ apa
Ġd r
Ġkek uasaan
r es
ung i
erint ah
ĠFebr uari
ag e
Ġmeny el
Ġ201 2
Ġses eorang
ak up
ongk ok
ĠP end
Ġin ter
ĠPr ess
Ġr adi
art ikel
p or
s e
ĠâĢ ľ
Ġnuk lir
ĠA p
Ġind ustri
Ġs in
ot or
ĠB and
og en
Ġ .
ay at
Ġs ifat
efin isi
el i
ol ak
ĠA t
w ak
ĠR usia
ĠIn i
Ġter j
ri g
d ung
is h
u asa
er ang
Ġn egeri
aw ab
esi s
Ġmeny ebut
âĢ Ķ
Ġ200 8
Ġel ektr
2 5
Ġm eskipun
amb arkan
ĠAr ab
A S
ih an
Ġ201 0
ak ai
ĠD r
Ġr aja
ĠU m
M en
er gi
Ġk eber
el as
it h
Ġmemb antu
ĠE x
Ġc ontoh
ic k
Ġsed ikit
Ġbersi fat
r ik
aw i
amp il
Ġmod el
edi akan
Ġm esin
em a
ol l
ain kan
or ld
f ik
ec t
P em
S eb
) :
Ġ uang
Ġ200 9
j i
Ġm ampu
at at
ah am
ĠG er
Ġdib erikan
Ġ201 1
ul asi
Ġh id
an ita
Ġm udah
ad ar
Ġdik etahui
Ġpend uduk
ĠD a
Ġin v
Ġbi asa
c k
ĠĠĠĠ Ġ
ya wa
n egara
om at
uj an
Ġdim ulai
Ġk am
Ġmen ulis
n e
Ġte ori
Ġ e
ist en
S el
r esi
an s
ĠS tr
Ġo p
Ġsek olah
ĠD NA
h kan
Ġf isik
Ġsem akin
ĠTi ongkok
at er
Ġmas ing
Ġmeng ambil
Ġmen emukan
19 8
end eral
Ġdid irikan
Ġs ungai
gan tikan
lob al
ek tor
unan i
em uan
il angan
Ġter c
Ġm ata
ĠE d
Ġs al
Ġmen urut
Ġkem ampuan
ar g
ak ni
ap or
Ġg ag
Ġpeng embangan
etu a
Ġh ampir
ama an
ĠIntern ational
I I
Ġm ul
ĠG e
ar e
itu r
ĠY ah
Ġ200 7
Ġlay anan
vin si
Ġindivid u
c o
Ġm ed
ic e
ĠC o
as h
ĠR es
ĠIn s
Ġ [
ula u
Ġo perasi
Ġ200 6
Ġy akni
on e
at ar
Ġp asi
ĠĠĠĠĠĠĠĠĠĠĠĠĠĠĠĠ ĠĠĠĠĠ
r et
Ġpend ek
2 3
Ġ ,
et apkan
Ġmet ode
ah ir
an ak
Ġp et
Ġber w
ĠY unani
Ġpem ain
eluar kan
ir ip
c a
v e
ah aya
is ah
ac e
ĠInd ia
Ġh i
Ġ9 78
end ali
2 1
Ġn on
Ġdib andingkan
c om
ĠS ec
um an
ĠT engah
Ġkons ep
r is
Ġr uang
ob il
imp i
ar m
i ar
er ak
y ang
Ġser angan
Ġkel as
Ġkep ala
2 4
ad em
ĠJ ohn
ok us
ip uti
Ġpr ib
Ġs itus
Ġ201 4
Ġm ah
as k
em ent
Ġ angk
at asan
Ġ udara
ak ang
ej ak
eker j
ĠS en
ĠK ons
gan ti
Ġsen jata
er ta
Ġt indakan
Ġv ideo
Ġterb esar
ĠAustr alia
Ġm edia
ĠM ic
Ġg angguan
Ġ im
er asi
Ġp artai
ak ter
ek tur
ed aan
ev isi
h y
Ġk ita
ad akan
Ġj alan
Ġ202 4
il ang
Ġ201 7
Ġker ajaan
ĠK ed
ĠD ewan
al is
ag n
Ġg e
un o
Ġk uat
Ġk awasan
Ġseb esar
Ġf r
an ian
ai m
ob a
ĠUn tuk
ol d
Ġkem atian
un ak
ĠS e
ur uhan
Ġmel iputi
Ġdiper l
Ġmenc akup
ungkin an
isik o
h o
Ġ ed
Ġh ujan
ac am
Ġw anita
l m
Ġp at
ĠP ang
a ul
Ġr ep
Ġm on
Ġbar at
ĠS ultan
ur i
ĠT el
R I
Ġdir ilis
ĠSeb agai
Ġm isalnya
ĠP el
Ġas li
Ġmusi m
Ġber at
ĠK on
Ġt imb
Ġber f
ĠI r
imp inan
Ġ2 5
Ġ201 6
ekan an
Ġt ip
ter ian
Ġf orm
end a
il aku
l ik
ĠS w
Ġt angan
Ġb and
ĠI b
ab atan
tif ikasi
ĠP l
ug as
ĠMen urut
ĠKer ajaan
tu mb
ir a
ĠT an
ĠYah udi
o perasi
un tu
el ih
ĠS ch
Ġ201 3
Ġterk enal
b i
en ang
est asi
Ġib u
al isis
urang i
Ġkeb ijakan
ĠBr itan
s ek
Ġpen er
ak it
Ġb angsa
am e
id en
Ġsel atan
Ġkar akter
tu g
il a
ĠK al
ĠK eb
Ġg ambar
Ġperk embangan
kan nya
emat ika
en aga
ĠM eskipun
Ġ1 1
Ġmel ihat
Ġ201 9
Ġditu lis
Ġmengan dung
0 2
Ġp osisi
ĠY ork
Ġpemb er
Ġh utan
Ġker as
Ġpan as
ĠB l
Ġak tif
ĠN o
ĠD em
Ġal iran
ĠK ec
Ġ es
ĠP emb
Ġelektr on
0 8
{ \
or gan
ĠH ar
Ġkon f
ar atan
Ġs up
Ġmeng ubah
ĠR aya
or ong
ĠM in
ĠD ep
utu hkan
Ġl ahan
ĠA ir
ĠP T
ĠB o
Ġn e
ĠC l
Ġas am
Ġm ik
int ang
Ġp ar
Ġ2 4
Ġ200 5
impi ade
A N
Ġb uah
Ġbel akang
Ġperd agangan
us un
Ġas al
0 4
Ġl unak
ul uh
ĠĠĠĠĠĠĠĠĠĠĠĠĠĠĠĠ Ġ
Ġban k
i o
Ġt itik
el a
Ġdig ital
angg ung
ik at
ĠS al
Ġsep anjang
Ġsat elit
s al
Ġ ur
Ġp sik
Ġb uku
2 2
uh u
Ġdik embangkan
ĠC omm
in sip
ak sa
el ompok
Ġ20 00
ĠG unung
emp uan
A r
Ġter g
um si
ĠAn d
Ġgel ar
Ġ et
Ġ20 20
Ġkek uatan
Ġ194 5
etah uan
min istr
Ġl istrik
Ġawal nya
Ġger akan
tumb uhan
ĠB umi
angan i
Ġbeb as
Ġal bum
uk ungan
Ġmeng embangkan
I D
at uh
Ġs isi
Ġmeng atakan
ec h
ow s
Ġk m
ĠP as
uk si
eg i
Ġke gi
Ġkegi atan
emp uran
Ġgr up
at in
Ġb is
Ġper an
Ġmel awan
Ġket iga
Ġut ara
Ġb adan
Ġl ima
anjut nya
Ġkem ungkinan
Ġl embaga
ud ul
Ġper istiwa
Ġmeny ediakan
Ġmenc iptakan
ĠJ enderal
Ġpemb angunan
0 5
a um
v ensi
ĠKar ena
ad ian
ĠS am
Ġun it
Ġr akyat
ab or
ob atan
Ġ201 5
und ang
ic a
Ġga ya
in c
it asi
Ġban tu
Ġterb entuk
l er
is s
ĠS umat
Ġter tu
Ġ202 1
Ġob jek
ĠAng k
Ġtradisi onal
ak ses
Ġber ubah
or n
Ġm ew
ĠM el
ĠM et
Ġke adaan
Ġmemb angun
amb at
Ġpert anian
utu han
aks in
Ġkomun ikasi
Å į
Ġke amanan
j uan
Ġd arah
Ġs tudi
umum kan
of t
p ek
ĠS ul
ĠW il
Ġst andar
A l
Ġr asa
ĠBritan ia
Ġw arga
ĠSem entara
ĠD PR
b o
Ġp ed
on a
ĠP an
O S
Ind onesia
ĠC on
eg ang
Ġg as
Ġmemb awa
te in
Ġper lu
Ġberl angsung
amm ad
kir akan
un a
0 3
ĠT uhan
ot al
ev el
m er
ĠP al
ol ek
ĠN omor
Ġpeng aruh
Ġpula u
er it
in al
em an
it is
Ġ200 4
Ġkes el
gab ung
angk ap
Ġ /
Ġ ukuran
ĠE l
s y
Ġt ambahan
el askan
ĠL ib
Ġtim ur
0 6
l or
Ġprib adi
s el
Ġpopul er
ti c
and ang
Ġg aris
enal kan
Ġ202 2
Ġs i
ĠL aut
aj ib
Ġpr ak
Ġk ode
or itas
ĠHind u
Ġm ilik
ĠM on
r am
Ġs y
or g
ver si
ampil kan
Ġ ah
Ġk ulit
enc an
Ġmat eri
Ġ1 00
Ġpes awat
ultan an
Ġters edia
d alam
emen terian
Ġsen yawa
Ġre aksi
Ġt engah
ĠW orld
0 9
ir ing
Ġmemper k
Ġt inggal
Ġb y
Ġtumb uhan
Ġ :
Ġ ikan
Ġs ik
eng ahan
ap un
ĠB aru
Ġhar ga
r al
ĠS alah
ag am
uk i
Ġmeng urangi
alah an
ĠH e
Ġdir inya
Ġberw arna
al ang
ind ows
asi a
ĠM usi
Ġpen ingkatan
2 9
ai tan
ĠAg ung
Ġen ergi
Ġup aya
al on
Ġ ingin
aj aran
anj utan
Ġdis ebabkan
i wa
Ġkomp l
Ġz aman
al ian
Ġt ugas
ip si
Ġdep an
g er
Ġ ide
ai ran
ek u
Ġak tivitas
unc ak
Ġ ang
h er
Ġk ayu
ĠP ut
ekerj aan
Ġpro yek
Ġterb uka
ual itas
Ġm aj
ep erti
is aran
ati ons
Ġtekn ik
engg ara
arga an
2 8
ic s
l uk
Ġd ukungan
Ġs urat
ungg al
Ġper ilaku
ala upun
Ġmin yak
olek ul
ĠS up
Ġper tumbuhan
Ġber isi
amb ang
Ġtumb uh
en e
Ġs uku
eb asan
ay sia
ĠBand ung
l et
ĠS oc
Ġj awab
Ġbar ang
S etelah
e an
Ġp ublik
Ġ201 8
uj u
ĠV ol
udd in
Ġ \
ĠP ulau
ep atan
Ġs uhu
am ah
is ata
ĠO b
Ġ ulang
Ġper empuan
ĠK etika
Ġun sur
Ġm uda
ik iran
Ġber per
er h
Ġk ur
ĠM o
Ġmem ilih
and ia
t s
Ġs aya
ĠR akyat
Ġdib entuk
Ġmet er
at asi
amb ah
Ġsel alu
ab ang
eg ah
Ġlok al
m al
ĠB i
ĠR ob
w w
ak il
ĠM aj
unc urkan
Â °
Ġp ad
Ġmen arik
Ġper h
ĠT ekn
Ġn eg
Ġmenj abat
Ġm us
ed akan
Ġf aktor
ĠOl impiade
esi r
st an
Ġdih asilkan
Ġac ara
i us
Ġpr esiden
Ġtok oh
ĠUm um
2 6
ar ing
Ġmeng irim
Ġmeng ikuti
Ġpeng g
Ġdib angun
s u
Ġk o
si r
Ġl anjut
ĠB esar
ĠKor ea
iden tifikasi
Ġah li
ĠC ar
ot ensi
Ġin s
aw esi
p e
âĢ Ļ
u ali
y o
ari asi
im an
Ġpen ulis
Ġkeb utuhan
enuh i
0 1
Ġmer ah
Ġda un
Ġbantu an
0 7
en ti
ĠS a
Ġpem impin
19 6
tu al
ter oid
19 7
ond on
Ġt epat
Ġb l
ĠS ungai
ung a
any akan
is k
ĠS aat
ĠM uh
olog y
s at
ĠT e
Ġsen i
land ia
l y
Ġb iaya
ĠM ak
etu s
en j
Ġp ohon
ut r
ĠKr isten
Ġb atu
ro k
Ġr isiko
Ġw arna
.. .
r id
ar akan
Ġt entara
ĠC en
Ġb enar
ĠP ara
Ġl ahir
Ġj alur
Ġberb entuk
Ġm ur
Ġt ua
Ġmen uju
ĠG u
Ġpro f
omb ang
Ġperb edaan
l ine
t ok
en z
Ġp ajak
ahan kan
ĠOr gan
apor kan
on en
ĠC omp
gun aan
Ġdin am
Ġberg erak
ah atan
ĠD ir
Ġs ig
Ġg unung
Ġdip impin
ĠĠĠĠĠĠĠĠĠĠĠĠĠĠĠĠ ĠĠĠ
ĠâĪ Ĵ
P emb
T P
w ard
y an
Ġd om
Ġt otal
ĠK an
ĠB ar
Ġmend irikan
ĠK ap
im er
Ġk ini
ĠAc eh
Ġlok asi
ĠS ing
ĠB ahasa
ĠH ist
Ġmel ibatkan
Ġmemper oleh
ĠIns titu
C atatan
s ol
ĠP or
ĠM ed
Ġberb asis
Ġdiperl ukan
Ġ alami
Ġb umi
ĠS et
p ort
Ġp ak
Ġs aham
ur unan
s h
Ġ oksi
Ġm irip
ĠP et
Ġpopul asi
S itus
ul us
Ġpeng etahuan
ej ala
und a
t ahankan
si s
ap ura
ĠK etua
ud ukan
Ġt ekanan
Ġantar anya
Ġradi o
Ġp osi
S t
asi un
eka isaran
ĠIntern asional
Ġditer bit
Ġd o
Ġat om
ĠMal aysia
a us
ĠM at
ok rat
e ar
ã ĥ
Ġs akit
ĠM esir
ain ya
ant or
Ġbis nis
Ġ id
ĠM a
ĠD ata
Ġterl ibat
aksan akan
Ġmemb eri
ĠPem erintah
abil a
af at
Ġ198 0
ĠPang eran
ĠSul awesi
k e
Ġc erita
Ġ arah
ĠH ukum
Ġmenc ari
ag aman
Ġditerbit kan
aw anan
eg un
ent itas
N I
d er
y c
Ġd ag
ĠB adan
Ġmat ematika
t is
Ġb angunan
Ġ2 2
Ġpen uh
Ġpen erb
ĠL ondon
ĠF r
Ġmengg ambarkan
Ġ ep
Ġ usaha
ak ul
ep as
Ġ199 0
ĠHind ia
P D
Ġ art
Ġseb anyak
lan et
Ġkam era
Ġmen olak
ĠC r
Ġ202 3
b er
ĠB ur
eg itu
E S
j o
al e
ek aan
Ġber gabung
Ġmenj alan
P r
or o
Ġj abatan
er angan
ed y
asil itas
in k
Ġke w
ĠM od
Ġmeng had
ĠJ ika
Ġg lobal
uj uk
ĠPer s
Ġkhusus nya
ent asi
ni f
at kan
Ġpem ro
Ġkar bon
enar nya
wak ilan
K ar
Ġ am
Ġ imp
at is
Ġmen entukan
ĠK ementerian
iz in
faat kan
Ġtip e
Ġp antai
ĠF ilm
ig ht
j u
us kan
Ġv aksin
elit i
T A
r ap
it am
Ġ2 3
aj ukan
Ġilm iah
ĠAb d
ĠAngk atan
2 7
ĠP ap
Ġpro tein
elih araan
Ġ ul
es aikan
Ġter h
Ġdib eri
Ġg ug
Ġmenc egah
p h
r ata
anjut kan
Ġd aftar
in et
on i
Ġf oto
ĠĠĠĠĠĠĠĠĠĠĠĠĠĠĠĠ ĠĠĠĠĠĠĊ
Ġdis el
Ġput ih
Ġs uk
Ġk aum
ĠM e
ĠK at
ok ok
Ġd er
Ġb al
and ingan
asis wa
Ġ usia
ar ta
em i
om un
Ġj arak
ĠL atin
Ġ api
Ġd el
Ġs a
ĠD ari
Ġj elas
and at
ĠPer d
erd ekaan
Ġm olekul
Ġp l
Ġt unggal
il ip
ay ar
ĠG ro
amp ilan
aya an
Ġro ck
d o
l asi
or a
k ar
Ġm ekan
Ġb ukti
Ġpemb entukan
o us
Ġf itur
I S
aj emen
ĠRom awi
Ġbur ung
P P
ĠC S
ub ern
ent ingan
art emen
Ġterl ihat
Ġ ayah
ĠP ar
Ġp ekerjaan
in f
in j
Ġt ampak
ĠS ol
Ġterb atas
on o
ĠP ak
ur us
art o
Ġpol a
) ;
j anjian
Ġr ata
ok s
u w
z im
or an
or al
ari a
ĠU U
os a
e um
ar anya
Ġb ola
ja u
Ġpeny el
Ġb atas
ing s
ĠSec ara
Ġdi si
ad ai
Ġmem ulai
Ġj angka
Ġc m
amb ahkan
ind ah
ump ulan
lin k
Ġsig nif
A M
el ola
ab uhan
ust aka
utus kan
Ġd atang
ek ar
Ġmem an
Ġmeng eluarkan
aw arkan
alan an
it ab
Un dang
Ġb en
am es
ung e
Ġ2 6
ĠW indows
ĠU S
anj ung
ĠMuh ammad
ubern ur
ĠK enn
Ġstr ateg
ah ari
Ġb agai
ut asi
ro gen
aksan aan
Ġkesel uruhan
Ġang in
ĠP i
ĠE ur
Ġv ol
Ġtah ap
ak ah
Ġk en
Ġmen urun
Ġter n
Ġ2 8
Ġmil iar
Ġberikut nya
Ġlap isan
Ġrel atif
Ġlog am
Ġsignif ikan
p ro
al ih
ĠS an
Ġper p
our n
yata an
ip ta
ra el
en angkan
ĠD av
Ġberl aku
ĠKem udian
Ġkompl eks
Ġh ad
g us
ĠK ong
utu p
Ġberp end
Ġinf eksi
Ġberf ungsi
ay anan
Ġkep utusan
Ġal asan
Ġkomun itas
ontr ol
b a
Ġt h
Ġk and
Ġc amp
Ġpert engahan
Ġ200 3
Ġorgan isme
Ġposi tif
I A
r ah
t p
ul tur
Ġmem inta
Ġmeng gantikan
Ġj iwa
ĠC ontoh
ind ungi
elaj ari
us ak
ĠI m
Ġ2 7
ĠR o
ic an
ĠPend idikan
i ew
k h
Ġ2 1
erah kan
av a
any ol
Ġtel evisi
lm u
Ġtimb al
er caya
Ġb egitu
osi asi
Ġak ses
Ġterl alu
Ġst atus
Ġtert inggi
m e
Ġseb enarnya
im antan
Ġdip akai
ĠGer eja
at al
in er
ĠT ur
Ġpem ilihan
aks ud
en om
Ġdi ambil
ĠS osial
aj ah
ingg u
ula uan
ĠS ed
es u
ut h
Ġmenj elaskan
Ġefek tif
k u
Ġm isi
at o
ak tif
ac aan
ĠE r
uj i
imb ol
Ġkej ahatan
Ġdan a
um e
ta f
Ġkep entingan
eku ensi
f ord
as inya
Ġt ulang
Ġb ir
ari er
ari kan
ok rasi
Ġbert ahan
erh ana
t asi
ik si
it kan
ĠL a
uj ian
Ġmemper l
Ġdim ana
d us
i es
Ġs ulit
em u
ĠS tudi
Ġmen imb
Ġber akhir
Ġkep em
ĠPen y
Ġdes a
Ġgen etik
ĠKec amatan
P T
ĠS ci
om et
Ġmeng atur
ĠDi akses
ĠUn dang
ĠEn g
Ġsesu atu
k i
r ush
Ġmen t
Ġmen ik
ĠB anyak
Ġmeng umumkan
ant ara
ent al
P A
Ġl eg
Ġmem enuhi
om o
og le
ali f
st ilah
tur unan
Ġst abil
Ġ Î
Ġm ati
Ġt enaga
ĠA da
om an
Ġn omor
ĠC or
Ġsel anjutnya
Ġberk aitan
ĠKom un
akul tas
o ol
Ġ ata
al in
ak aan
le y
Ġsekali gus
Ġt anda
ĠT ok
ed ung
empat kan
if ikasi
Ġem as
s en
Ã ¡
Ġm obil
as aan
Ġber tu
Ġj atuh
Ġn an
ĠW ar
che v
u e
ĠT inggi
Ġdes ain
ĠK et
unc i
k o
ir kan
amp ung
angk ah
ĠâĢ Ķ
Ġpasi en
Ġdis tr
ros oft
4 5
c ore
l ar
n am
Ġ $
Ġm it
ah ulu
ĠD is
Ġr ef
ĠIs rael
Ġkor ban
Ġl ar
Ġser upa
tim b
ĠDa erah
o x
as aran
Ġk end
ur uan
ant ik
Ġsed erhana
Ġdiper k
ĠKenn edy
rush chev
um a
Ġsamp ing
Ġpes an
gab ungkan
egun ungan
B eberapa
el an
ur angan
Ġmem utuskan
ro w
ministr asi
Ġmas sa
Ġmemper tahankan
ori um
t y
Ġn orm
Ġo per
ĠSp anyol
ektor at
h al
r aga
er ing
si st
Ġmen ampilkan
Ġmemb utuhkan
ĠMar x
ĠB e
Ġkons umen
o kan
ĠT rans
ay ang
ĠS ang
and ai
Ġas teroid
ĠII I
erl ukan
rop is
Ġmeninggal kan
O r
u z
Ġd ew
ĠP usat
Ġpr insip
Ġp lat
Ġmem erlukan
Ġke uangan
Ġdit etapkan
Ġm m
Ġb uatan
Ġberj udul
ĠP asal
id ik
ĠW ilayah
Ġdiper kirakan
Ġ5 0
Ġsal uran
k ota
ah ami
tu p
on is
ab it
Ġeks tr
Ġput ra
Ġgel ombang
ais ar
Ġfil s
efinisi kan
ĠKal imantan
A T
ap atan
ĠD an
Ġata upun
ol ar
Ġr ib
Ġkomp onen
Ġt eks
ol i
ab i
alah kan
Ġs us
ow n
anc e
Ġen am
Ġprak tik
i w
Ġ er
as tra
Ġmeny erang
P end
k adang
Ġs ar
Ġt eg
ig h
r ib
in o
Ġl em
ul er
Ġper c
Ġperj alanan
un y
ĠS c
ĠM ad
ul at
Ġpel angg
o od
ĠA y
ul ar
tern atif
li am
ĠUn it
Ġmenimb ulkan
Ġs aling
us ul
Ġh ip
Ġc h
ip il
g n
Ġl a
Ġseb elah
Ġv an
Ġked uanya
ad en
tr uktur
ĠG en
Ġf asilitas
amb ut
ĠO n
Ġpemb uatan
uas ai
T M
Ġ evolusi
an kan
Ġmer ujuk
anj ar
ind ak
Ġkh as
uk ul
Ġh ati
ok asi
Ġf rom
ig i
Ġberj alan
B B
C h
at ed
Ġin str
ĠT enggara
Ġpeng uasa
ind ungan
Ġdim iliki
ĠKh rushchev
Ġgag al
sol ini
an ia
Ġb ay
ĠS im
ĠS ub
ot ik
Ġker us
Ġpers en
arn o
Ġk uno
eb aran
ĠS i
ĠK omp
ĠF ran
ĠHist ory
Ġd ampak
Ġp ej
it if
uk ur
unj ukan
A d
o und
Ġs itu
int ah
ĠPol andia
Ġdok umen
Ġmik ro
ech n
in s
Ġk ualitas
ek at
ab u
Ġ200 1
Ġket idak
ĠDes a
Ġger eja
Ġmemb uka
ĠPro f
Ġditer ima
ak aran
Ġdi adakan
ĠK ekaisaran
Ġc abang
ow er
Ġberpend apat
ercaya an
k et
Ġt op
Ġke turunan
ent eng
jadi kan
ĠPem eliharaan
arg et
Ġberper an
ad inya
Ġpr ia
Ġor bit
erd apat
ekar agaman
Ġbagai mana
u ara
Ġb akar
si l
ik sa
ĠS istem
Ġl aki
Ġke tu
ĠW akil
Ġ199 9
Ġres p
ateg ori
ang e
un uhan
tu m
ol ik
ol ongan
um ur
ep end
Ġ2 9
Ġc ahaya
Ġas ing
esk i
erd asarkan
Ġmengak ibatkan
Ġm alam
Ġdi jadikan
ĠR p
ĠF or
ib a
Ġst asiun
ĠSeb uah
Ġkal angan
m at
Ġdi am
ĠP at
Ġber usaha
ud ut
Ġ200 2
Ġar ea
Ġ196 0
ĠMus lim
4 8
ĠPro vinsi
engg arakan
Ġar us
udaya an
unt ungan
Ġpand angan
Ġp ekerja
el ar
Ġc ender
Ġmend orong
Ġkeb ebasan
Ġd ingin
on er
aj i
gr aman
ĠY ang
Ġberh ubungan
Un tuk
Ġuj ung
Ġterc atat
i el
en angan
Ġp uncak
om a
ac u
Ġberg antung
Ġt emp
Ġmen awarkan
ep ak
ir o
ĠD ar
Ġmeng anggap
ab rik
ĠR I
ac ara
Ġker eta
esk r
y e
ĠP asi
Ġsel ain
Ġdik irim
Ġsek s
Ġperh atian
l aki
Ġt ab
Ġmer asa
Ġ197 0
Ġcender ung
P I
i yah
Ġ Ã
en tikan
ud ra
Ġgen re
Ġneg atif
ourn al
/ /
6 0
a il
er k
Ġk adang
it ung
om inasi
ĠT idak
ub ungkan
angk aian
ĠAl lah
Ġs emb
el is
eng ar
ĠS k
az i
ĠGo ogle
ĠMic rosoft
Ġt ulis
Ġh ilang
Ġun i
Ġkonf lik
s eperti
t le
an n
Ġt emb
ĠP ark
ĠK o
Ġg itar
Ġdin y
Ġ istr
Ġs ana
Ġl emb
Ġdip roduksi
ĠRob ert
" )
4 0
: //
A k
ĠB h
ĠB at
Ġin ti
gun a
Ġmeny er
ĠSel ama
u x
ik al
ai h
ist an
ĠY og
inta an
Ġb unga
Ġdi ikuti
ab aya
os fer
int esis
Ġ199 8
S ek
Ġdi f
ĠB anjar
ĠC ir
ingg ian
ump ulkan
Ġpember ont
sat unya
S p
k a
Ä ģ
ek tif
Ġpro p
yak arta
Ġdib agi
Ġ4 0
Ġs is
ant o
op si
ind ari
uj ud
ĠPro gram
Ġmenj aga
A R
Ġdi ak
ĠS m
ĠJ os
Ġg ejala
tr uksi
aj ian
Ġap abila
ĠMus solini
Ġkeber adaan
ĠKed ua
Ġ end
ĠT V
ub ung
g ota
Ġ era
at orium
Ġs ur
un ing
Ġk u
ĠC ol
etu j
tok ol
C O
D ir
e in
er o
at ihan
Ġp artikel
Ġs imbol
on ia
le x
Ġkec epatan
Ġseg era
Sel ain
ask ah
l a
ah a
Ġk unci
Ġorgan ik
engk ap
ĠSy stem
4 7
5 9
f ek
i at
l es
Ġh itam
Ġal ternatif
Ġberd iri
ĠOl eh
Men urut
ĠPor tug
l us
n u
Ã ¼
Ġ us
er j
si on
ĠP KI
Ġr eg
Ġw ith
Ġuj i
ĠPap ua
p eng
s or
Ġp al
ak l
is e
ĠP D
ep h
ir asi
ĠN ama
Ġad at
Ġmeny imp
ĠPer janjian
Ġas pek
Ġelektron ik
Ġ angka
Ġp lanet
ah l
il e
ĠM isalnya
uk it
uh kan
ĠH ol
ĠIn t
Ġpeng obatan
erint ahan
ersi al
Ġinv estasi
Ġangk asa
ĠOrgan isasi
andat angani
is ahkan
ĠK am
ir ian
ĠC O
uj uh
if e
Ġterp ilih
Ġel emen
f a
ĠS ejak
ep on
Ġmeng kl
ic ara
Ġkeh ilangan
ranc ang
Ġmak na
ĠKan ada
Ġk os
Ġdi rancang
ĠS ri
ĠM eng
ĠK el
ĠN us
ay akan
ikasi kan
k er
Ġdit entukan
Ġkeb anyakan
las ik
ĠCen ter
abit at
etuj ui
Ġ _{
Ġm otor
ĠI lmu
ĠD in
ug h
Ġhar d
Ġz at
Ġot ak
Ġpemro graman
O C
t op
Ġdi ubah
entr asi
ĠYog yakarta
c al
as ta
on f
Ġper caya
Ġr encana
Ġn aik
any e
ĠSed angkan
P S
ĠP ur
ĠB ali
ed it
aw ar
ati kan
Ġmemb unuh
Ġdil ihat
Ġv ari
Ġpeny ebab
Ġbel ajar
Ġik lan
ang i
ĠP aul
ĠN ational
ok ter
Ġperm intaan
s ch
in ter
ak uan
Ġb atang
Ġmen emp
Ġ( "
Ġn y
ok o
Ġ19 50
Ġap akah
Ġkab ar
Ġterg antung
t en
z i
an ekaragaman
Ġm antan
ĠF ir
Ġpas angan
Ġmat ahari
Ġmenghad api
3 8
h ari
k amah
er us
Ġt iba
on y
il ing
ĠS er
ut e
ul lah
eg r
ĠG re
Ġf ot
Ġpeng el
B ahasa
ad ah
Ġmem ainkan
Ġket inggian
unj uk
ĠSur abaya
Ġdr um
C A
l av
Ġs w
Ġan alisis
3 7
b erg
d an
h ak
Ġs udut
ĠK ej
ga w
Ġpro dus
Ġkem erdekaan
Ġseg ala
Ġmenyel esaikan
il u
Ġmen etapkan
Ġper al
Ġpro vinsi
ĠIntern et
Ġbertu juan
M A
l op
Ġp otensi
Ġt ropis
or ge
ĠA h
Ġk il
ĠM il
ingin kan
iv e
ĠEk onomi
ĠSumat era
rid ge
Ġid entitas
Ã ¶
Ġd arat
Ġf okus
li en
anc asil
aris an
ĠSek olah
b ur
Ġmen engah
ĠU s
Ġsep enuh
erik ut
Ġbur uk
Ġdi gantikan
il asi
ĠB al
Ġkom ersial
ha el
ĠWil liam
ĠGro up
w al
ã Ĥ
ĠS at
ĠP ubl
Ġmen ekan
et eksi
ĠB agian
ĠN e
ĠN azi
Ġser i
ĠSing apura
Ġsitu asi
S em
t es
Ġp ilihan
or is
im e
ĠU d
Ġv ir
Ġkep ercayaan
fr ac
ĠKep ala
Ġkend araan
r it
Ġk ub
Ġmeng etahui
Ġun dang
Ġmel anjutkan
I N
Ġs h
ĠS in
uk ai
ebih an
int as
Ġmemp roduksi
Ġmemp elajari
Ġkontr ol
rig ht
Ġhad ir
Ġkerus akan
Ġdi angkat
on ial
ind ing
gab ungan
Ġdok ter
ĠSup er
Ġt ep
Ġmer ilis
Ġkec uali
arti sip
Ġi alah
An g
Ġgag asan
Ġmenjalan kan
l l
or it
Ġr antai
Ġc atatan
ĠF in
embang unan
Ġterp isah
ĠSo ek
ancasil a
Ġsepenuh nya
K ep
y al
Ġs empat
Ġmen teri
up ati
ĠPer m
ĠPer aturan
Ġbert anggung
Ġbersama an
Ġform at
5 7
9 9
E T
ĠB ers
om eter
Ġr um
ĠJ ournal
ist al
Ġintern et
ĠKes ultanan
ret aris
ĠDav id
Ġ ikut
Ġp abrik
Ġs ang
Ġs il
eb on
Ġper gi
Ġpeng alaman
itu al
Ġmenc oba
Ġ199 7
versit as
Ġmah asiswa
Ġdew asa
A s
E k
Ġs emp
ak nya
am il
ĠS uk
Ġj asa
Ġj arang
Ġc alon
ic u
ala u
Ġspesi fik
engk api
eskr ipsi
er ia
it or
ĠT aman
Ġmel indungi
Ġpend apatan
Ġkek er
Ġmekan isme
en akan
Ġt urun
il angkan
ing ton
Ġj ari
ĠIn v
Ġpert empuran
Ġne ut
as asti
ut ar
Ġmem enangkan
angk it
Ġak si
ĠAmer ican
Ġmenik ah
j ana
Ġk ategori
emp atan
Ġdiper oleh
Ġ199 6
Ġdid asarkan
Ġpendek atan
etus an
B acaan
Ġt ahanan
Ġb us
ĠS itus
idak nya
og rap
Ġmeny ebar
Ġpel unc
iet y
Ġlay ar
5 6
o ok
an ti
Ġs ipil
Ġk antor
et w
Ġmeng gabungkan
ab ah
ĠKes ehatan
Ã Ń
ek as
ĠĠĠĠĠĠĠĠĠĠĠĠĠĠĠĠ ĠĠĠĠĠĠĠĠĊ
ĠAg ama
arl emen
alik nya
8 0
M an
u isi
Ġp ustaka
ro f
im en
Ġsep ak
ew as
Ġmew ak
M eng
an am
Ġt ujuh
Ġber operasi
ag an
Ġkap as
Ġp esi
am s
ĠS unda
ĠM ul
ĠM aka
om e
ĠĠĠ Ċ
Ġseh ari
er m
and o
od i
Ġilmu wan
Ġdag ing
omun ikasi
em ahan
ĠS ar
ĠP e
ag ar
ĠM art
ĠT echn
ab is
ĠPer usahaan
Ġak adem
Ġef isi
Ġterj adinya
Ġplat form
e al
Ġ umat
Ġm acam
ep t
ĠT erb
Ġman ajemen
ait kan
4 6
ek t
ol ong
ĠM ac
ĠB erb
ĠI ran
eg al
ay ati
Ġc ur
ĠF ilip
uti on
Ġperl indungan
ĠKons titusi
Ġmateri al
g as
en sa
ing at
ĠT a
ĠH ak
angg u
Ġmod al
ĠSeb agian
Ġkont eks
. )
K ons
P U
h luk
j id
r ia
s aan
Ġp ec
Ġp impinan
Ġt ewas
om as
Ġw isata
ont on
Ġprof esi
3 6
S P
e z
ing inan
ĠC amb
Ġat uran
erb itkan
ij aya
encan aan
ĠUU D
ir k
Ġmeng k
Ġmeng acu
ĠN or
ind ahkan
gr asi
Ġas et
ĠPro ses
ĠMah kamah
ĠSumat ra
h argaan
Ġ olah
Ġper g
ĠG ubernur
Ġpend ukung
Ġgr unge
mp an
. ;
Ġb enda
Ġdi atur
it ra
ĠK ol
ep askan
ĠD en
ĠD ip
Ġn amanya
ĠG al
ot e
entu an
Ġmemp engaruhi
sek arang
tug as
Ġcamp uran
c r
s ama
Ġdi duk
Ġh ist
Ġpen urunan
od a
Ġsel es
Ġdik eluarkan
Ġak ar
Ġpemb unuhan
Ġpel aksanaan
aik o
Ġbert emu
Ġdep resi
entr al
Ġdiduk ung
b ar
b in
ĠJ alan
ay an
ĠE c
Ġmenjadi kan
angk al
Ġstr es
Ġkr itik
Ġhi jau
ĠDep artemen
enom ena
Ġmewak ili
k op
Ġ artikel
si da
Ġr ah
ĠE v
}} }
3 9
T e
Ġber v
ĠK ek
ĠD o
Ġmeng adakan
Ġpeng adilan
Ġdip ilih
Ġterb aik
Ġdig ambarkan
Ġpenerb angan
epend en
g o
Ġm oral
Ġt on
eh arto
ab le
ok al
Ġpem an
osi stem
K em
y d
Ġt angga
ĠP o
Ġl ebar
ara wan
Ġke g
ank er
Ġberm ain
c aman
t ahun
Ġd ahulu
Ġs ul
Ġk endali
ad opsi
ĠM c
Ġmemb ah
Ġgen erasi
Ġmed is
Ġb aw
Ġb esi
ad u
Ġl engkap
ed er
ay aran
amb angan
Ġmenyebut kan
ĠCamb ridge
l og
u el
Ġdi al
is ual
Ġr esi
Ġg uru
Ġkons titusi
j ect
ĠM ay
Ġr ingan
ĠR ec
aw atan
ain a
ec ara
ĠAl am
Ġmengh indari
3 1
I V
b aik
Ġ ex
Ġm agn
Ġb ila
Ġk re
Ġh alaman
ĠW eb
uj ukan
anc urkan
Ġ18 9
ĠOr ang
port asi
b il
Ã ³
Ġke untungan
ensi f
Ġdip engaruhi
Ġmengak ui
iti on
Ġik lim
ĠUd ara
t ai
u alan
Ġm inggu
ĠB en
3 5
O M
T V
as ang
es ta
ĠIn f
Ġpert unjukan
ĠSeb elum
Ġbel as
Ġlap angan
Ġmemas tikan
Ġpad at
ĠEur op
ĠSoek arno
s eb
w are
Ġ aman
Ġber agam
Ġmeng arah
ew at
Ġpel abuhan
oc ok
Pen y
Ġpengh argaan
ĠTan ah
Ġmemperk enalkan
Ġben ua
3 2
7 9
p ut
Ġb ilangan
Ġmen erbitkan
Ġl and
it z
ĠM em
ab a
Ġdil uncurkan
Ġtel epon
ĠTekn ik
Ġmeman faatkan
Ġberv ariasi
Ġper intah
Ġpen eliti
Ġf ase
Ġ199 5
Ġditer apkan
ĠMas s
ĠKep ulauan
in es
is ode
Ġdil aporkan
Ġters ebar
Ġlap oran
elaj aran
Ġmengkl aim
at es
al at
Ġs ah
Ġber usia
ĠA v
ara f
Ġmer aih
Ġpeng ujian
Ġpert emuan
ĠCh ris
ha il
endali kan
ĠSet iap
Ġdiperk enalkan
ĠFilip ina
m ar
y n
Ø §
ah ap
et h
and an
Ġke anekaragaman
ĠW al
Ġset engah
Ġberk el
any i
kr aina
K om
M as
Ġb et
es tiv
ing atan
ir ik
amb an
Ġdim aksud
ĠCh r
ho a
ĠSoc iety
Ġseles ai
i x
l ement
n o
Ġ Ð
Ġm e
Ġber ukuran
ĠPer sia
ong hoa
Ġtel ur
e wa
am aian
ĠP ancasila
Ġmen eg
istr ibusi
Ġmemas uki
M S
s er
Ġb alik
ag o
ain s
Ġde wa
ĠInstitu te
i on
Ġ u
ah ter
ĠP embangunan
ĠK amp
Ġmem pr
eh idupan
eg rasi
ĠCh arl
ĠPem erintahan
Ġpern yataan
Ġmak hluk
Seb agai
ĠPasi fik
e e
Ġk lasik
et isi
Ġber c
ĠK ur
Ġin duk
ĠD h
Ġset idaknya
orm asi
Ġpeny imp
ĠAs s
Ġpun k
Ġre al
Ġdiny atakan
artisip asi
Ġolah raga
s ed
an si
ar us
ak t
Ġb ud
Ġk iri
es ter
ol aan
it o
Ġr ilis
Ġc air
Ġmenc atat
iet nam
ida e
Ġdo i
Ġseks ual
estiv al
I T
Ġs im
Ġb oleh
Ġmen ambahkan
Ġl ip
Ġh abitat
ĠT entara
ab ol
Ġg raf
ic ation
Ġal ih
ov el
Ġperal atan
I P
ar am
Ġl el
ol ahan
Ġr evolusi
Ġn it
ĠL aw
lah ir
Ġ18 6
Pro f
} ^{
at ih
Ġp o
Ġb atuan
Ġper aturan
om osi
ĠR ef
os h
Ġpert andingan
Ġpenj ualan
Ġkl or
uny i
b enar
h iri
es an
og n
ot op
tur e
ra v
Ġkarakter istik
izin kan
Ġstrateg i
4 9
8 6
M od
l ing
l ain
Ġk aya
ur asi
Ġun ik
Ġr em
ahan a
Ġdik aitkan
Ġpert amanya
Ġmend ek
ĠAn tar
Ġdisebut kan
Ġsk ala
Ġ Â°
Ġt ant
ur e
Ġper airan
ĠD j
im al
tr ans
ĠH at
isi an
pr esi
Ġ6 0
ĠMic hael
Ġdistr ibusi
Ġpej abat
r us
Ġp egunungan
Ġb ag
Ġk anker
em ahkan
ap aran
ĠA ward
ĠB angsa
ĠR ed
ĠE m
ĠU kraina
Ġal k
ĠAr ch
Ġ199 4
Ġtekn is
ĠSo eharto
Ġneut ron
Ġp engan
in y
Ġs am
Ġb es
Ġl ensa
Ġmem engaruhi
Ġmem egang
ĠI stilah
ati c
ĠU r
Ġpem ikiran
Ġsem acam
Ġ199 2
sp irasi
Ġsik ap
7 5
A mer
p em
Ġ ajaran
ia an
ĠF akultas
ot ong
ĠAr t
Ġeks p
Ġnorm al
ĠFran k
R T
r il
er min
Ġmeng al
aj u
elah iran
ungk apkan
ĠAk ibat
ger akan
Ġment al
Ġfils afat
b el
b ert
Ġ Â
ub ang
Ġc iri
Ġmemb eli
Ġar sip
ell a
Ġput ri
Ġmener apkan
ĠTi onghoa
ĠPh il
ĠMusi m
Ġhard core
5 00
D engan
Ġ aut
Ġt ahan
ari f
ĠM edia
Ġmem impin
Ġf lu
Ġsebagai mana
end ak
ot el
ĠPer b
ĠPer wakilan
Ġberb ahaya
ont al
eluar ga
Ġfr ekuensi
ww w
m isalnya
o ut
em uk
Ġl angkah
ent angan
amp aikan
Ġpem ilik
Ġberk as
sit ektur
unj ungi
etu juan
ark i
ear ch
Ġpesi sir
m osfer
en jata
ak al
is ang
ĠI V
Ġmeng umpulkan
Ġkons entrasi
Ġterk adang
omat is
abor atorium
ajib an
Ġsa udara
F A
r as
Ġd efinisi
ak ta
Ġk ak
on j
ap ol
ĠD ua
ĠL iga
ĠW h
ĠW ik
ĠV ietnam
Ġ3 1
Ġdek ade
ĠKep utusan
Ġpet ani
Ġayah nya
n er
w eg
Ġm ay
Ġp os
ad ari
Ġan caman
ĠPen elitian
Ġrek aman
Ġhi per
G e
M eskipun
Ġp id
ah aman
it s
ĠC oll
ri v
Ġsek tor
Ġ199 1
Ġ199 3
ht tp
ĠKom ite
Ġkej adian
PD F
K e
K eb
z h
Ġk uning
Ġmeng uasai
Ġdik atakan
ĠV ik
ons umsi
Ġmengh ubungkan
Ġ196 9
ĠMan usia
Ġmemas ukkan
ĠDem okrat
ĠUnit ed
K r
P el
T h
e aksi
ar apkan
ag ang
ut aan
Ġdalam nya
ay asan
oc i
ust akaan
bo ard
Ġsuk ses
4 4
5 5
C andi
G KI
m ad
et akan
Ġber ita
Ġh ib
adi o
ĠL uar
ew ati
edia an
Ġantar iksa
Ġpak et
ĠCir ebon
ĠPortug is
etw ork
S D
Ġt eb
Ġter si
us ulkan
ir e
Ġmeng alahkan
ed ak
Ġmel ainkan
Ġmel aksanakan
yak ini
ĠKom isi
ĠPert empuran
Ġkur si
A da
C L
ah at
Ġt api
Ġk lien
Ġl ib
ĠB ek
ĠT or
ĠT et
Ġmel aporkan
Ġker ing
Ġas asi
ĠAn da
ĠGe orge
ĠTok yo
Ġs eng
ah u
Ġj adi
ed isi
ĠR ev
ĠJ ames
Ġw alaupun
uan tum
asil an
ej ahter
Ġdem i
Ġnuk le
Ġmengirim kan
ĠKat olik
iw ayat
3 3
B ank
E n
b e
d uc
r ec
u aran
v a
Ġd aratan
il d
ĠS u
ĠP BB
ĠM os
ĠB an
Ġn o
ĠIn ter
ac un
angg al
angk ut
Ġdib awa
Ġpert ahanan
unj ung
of f
Ġkl ub
Ġsin yal
Ġkepem impinan
C l
y ub
er c
Ġp las
Ġb ekas
Ġk adar
am en
ad aran
is ensi
ap tasi
ai d
Ġper ingkat
Ġmem ahami
ĠT ro
and iri
ĠC ap
ĠY ou
erv asi
ĠLib ya
yc lop
Ġvol ume
epak atan
M et
v isi
z o
Ġk anan
es a
ĠJ ava
Ġmel uncurkan
ses an
Ġind ependen
Ġkont en
Ġmemperk uat
Ġm i
Ġmen it
Ġf isi
ĠF ac
ĠF re
ĠO ff
Ġan al
ĠAl l
TM L
hail and
A b
} \
on ik
es ti
Ġl intas
ol asi
Ġdit angkap
Ġdil engkapi
Ġterb uat
Ġar ti
Ġen zim
ĠKar ya
Ġinter aksi
Ġoksi gen
inf eksi
Ġkeker asan
G en
et an
et as
anj ir
Ġdib utuhkan
Ġkes alahan
ĠPro duk
Ġek osistem
uduk i
Ġdij ual
ĠAt l
ĠTekn ologi
Ġmenurun kan
p el
s um
ad er
et ri
Ġber tugas
Ġh ayati
ĠT ak
ĠY o
Ġsem uanya
ĠAl i
Ġag en
200 9
orn ia
1 00
Ġd inding
Ġt i
Ġb adai
is in
ĠM y
ind ahan
ĠAn ti
ump ang
Ġbert indak
Ġhal us
lam asi
Ġsub jek
Ġprodus en
A L
K etua
S h
ik ir
ag ama
Ġter m
Ġmeng ajukan
Ġg edung
ĠW alaupun
ĠO x
Ġdil aksanakan
ig asi
pl or
Ġ196 5
ĠEn c
ograf is
Ġkol onial
Ġik atan
Ġint el
alif ornia
Ġ ev
Ġk ami
Ġl ewat
Ġbi ji
anc angan
Ġkr istal
Ġmul ti
Ġangk atan
Ġdisi mpan
5 8
K es
r ed
s c
w in
er ahan
en aran
Ġdi eks
ab r
Ġn ot
Ġg olongan
Ġc airan
angk apan
Ġset ara
Ġset empat
ori al
200 5
ĠPert ama
Ġtah u
ĠKon f
iel d
Ġpemberont akan
Ġprofesi onal
Ġp uluh
Ġt ran
el asan
ĠK uno
ant e
Ġsosial is
ĠMas yarakat
Ġperd ana
Ġut amanya
ĠSw edia
Ġur utan
Ġsis wa
- -
S ub
v ia
Ð °
Ġp op
Ġt ata
am ai
ek atan
ĠA z
ir m
esi es
Ġser ver
Ġat mosfer
erik saan
200 4
encan akan
m isi
Ġl ambat
om end
ĠR os
aw al
Ġker angka
Ġmin eral
abil itas
ich ard
D ari
I C
P ers
b y
d y
at aran
Ġp in
Ġp indah
Ġb r
Ġdi masuk
ur uf
us uf
ul itan
Ġmeng identifikasi
ĠT erdapat
ati ve
Ġberp engaruh
Ġintern al
ĠAy yub
Ġkil ometer
em ar
il le
ĠS ab
ag ram
ro versi
ot t
Ġpas ti
Ġgen us
200 8
kr ipsi
ĠMus eum
e ur
s inya
Ġm aksi
ap us
ĠS un
ag amaan
ur ung
ĠB ush
Ġmem ang
Ġn yata
Ġdib uka
anc arkan
Ġsamp el
ij i
ĠSem ua
ĠOb at
Ġketu a
okter an
E R
c ess
Ġs imp
ya w
ĠD el
Ġmeng aku
emb ak
and angan
aw as
adi on
ĠW est
amp ing
Ġpro tokol
Ġdid efinisikan
Ġ202 5
ort h
ĠRom a
Ġkamp anye
Ġinstr umen
K etika
S S
S istem
b es
el ang
ir u
ĠT w
ĠJ o
ĠG lobal
ot h
os p
Ġkes empatan
Ġmengh ilangkan
Ġ5 00
imb ah
Ġmus uh
ĠAbd ul
K ed
l ang
as akan
ĠM ag
Ġg anda
alu asi
Ġdit andai
Ġdir ek
ump ul
uc i
ĠAp p
evel op
B i
i er
ã ģ
Ġp e
Ġb end
Ġdi man
am akan
ĠR umah
Ġpen emuan
ĠC alifornia
ĠĠĠĠĠĠĠĠĠĠĠĠĠĠĠĠ ĠĠĠĠĠĠĠ
Ġkeb udayaan
200 6
Ġpelunc uran
Ġkapas itas
B erikut
M ar
S ecara
at on
Ġt ema
Ġb asis
Ġb intang
Ġdi ant
eb at
ĠM obil
ĠB os
ĠB upati
ĠL i
ĠPer ubahan
Ġ18 8
atur al
Ġpak aian
Ġresp ons
ĠNor weg
ĠCharl es
I M
K omp
Ġ ...
ĠP aris
ut ip
ĠB idang
ĠB udd
ia u
Ġn ada
ĠL in
Ġf enomena
ĠMar os
form ation
200 7
ord inasi
ungg u
Ġro ket
sed ur
7 0
P C
b and
Ġs astra
Ġt iap
Ġt arget
am kan
il ikan
asi fikasi
ĠK u
ĠB ab
Ġr ekan
ĠR atu
ĠG or
end alian
Ġmemb ayar
umb u
ĠAr g
ĠPeng adilan
ass ar
ash ington
ĠPerd ana
Ġdiak ui
c us
m ark
Ġk elahiran
am u
Ġmem akai
Ġse iring
angg ar
Ġkon vensi
Ġ198 6
ord in
Ġtrans portasi
AS A
operasi kan
S aat
r ef
ar ut
em aat
si al
ĠS il
ĠP C
ĠP op
Ġl evel
ay ani
adi um
Ġmer ebut
Ġc ocok
ĠAn t
Ġaw an
Ġhal nya
qu e
Ġs ingkat
is ar
ĠP art
ĠP adang
ol an
ĠD ana
ĠR ah
ay asa
ons tr
Ġbi ologis
Ġkons truksi
embali kan
ĠUt ama
Ġmemperl uas
Ġtulis an
Ġmen andatangani
ol o
ĠB ulan
ĠT hailand
ĠR evolusi
ta u
ĠO p
yak inan
Ġberk urang
Ġman faat
ekn ologi
Ġon line
ĠTur ki
Ġdimasuk kan
D A
d t
or f
ĠS um
Ġj antung
emb atan
Ġke empat
ĠL ong
Ġtahun an
anya an
op h
Ġker tas
imb angan
ĠAd ministrasi
Ġkomun is
Ġist ana
Ġsaya p
Ġart inya
ĠEc onom
J enis
c ode
e o
Ġ }
Ġp arah
or s
ĠS atu
ep si
ĠD arat
ĠT anjung
Ġn askah
aj uan
Ġdik ar
Ġdit empatkan
Ġdim ainkan
Ġkom b
Ġwak il
urn al
Ġmaj u
ĠOx ford
U S
ak e
Ġb as
Ġb uruh
ad o
ĠD aftar
ĠD ingin
ĠH o
Ġdid uga
ĠSep erti
Ġot omatis
Ġkab el
Ġmed an
Ġgug us
Ġdisel enggarakan
sist en
% .
s in
ah it
un e
ari o
ĠK aisar
Ġmeng in
tr i
adi ah
Ġc ok
angan an
Ġmel ewati
Ġw ajib
ensi s
ri um
Ġ3 2
Ġpend iri
Ġ9 0
Ġpes erta
Ġperb ankan
Ġperj uangan
Ġkal inya
Ġhid rok
Ġpasi r
A g
K ab
Ġm al
un tuk
Ġmen entang
ut l
ĠR i
ĠU p
sit e
fr as
ungg ung
Ġdic iptakan
oksi da
Ġtok o
erit akan
Ġmaj alah
Ġtern ak
Ġekstr em
ĠNus antara
, "
r ich
w ira
ak ti
Ġk arier
em asan
ĠS umber
Ġl ang
ari at
ĠI T
ĠE s
anj i
imp unan
Ġkes adaran
Ġsp ir
200 3
Ġ198 9
Ġhidup nya
Ġim un
ĠSosial is
Ġuni versitas
d ari
j an
k el
p o
an o
Ġm ode
ik e
Ġber guna
um ent
ĠB u
Ġseb utan
ay am
ĠH id
angk alan
egara an
ch ange
Ġterb ang
min al
ĠBek asi
7 6
m eng
w ay
Ġ Ï
ad angan
it ungan
Ġper si
ĠC ity
aks ana
Ġmenj ual
Ġperb atasan
Ġberf okus
Ġberkel anjutan
Ġdiant aranya
. ).
K er
S eperti
j ukan
Ġ il
Ġp etu
id ur
ĠT ujuan
Ġn ovel
ĠL et
ant inya
os om
Ġkes epakatan
Ġbukan lah
Seb uah
4 1
g asi
z a
Ġd ar
Ġp ew
Ġt eman
Ġper wakilan
ĠR el
ĠĠĠĠĠĠĠĠĠĠĠĠĠĠĠĠ ĠĠĠĠĠĠĠĠĠ
Ġdib unuh
ind a
Ġpend apat
Ġberl anjut
erd asan
Ġmengak hiri
Ġsin ar
ĠKon vensi
esu aikan
K B
Ġm ag
Ġdi inginkan
Ġl anjutan
Ġseb ag
ĠC E
ĠE fek
angk ai
Ġsekitar nya
ĠKer ja
Ġkand ungan
timb angkan
ĠVik ing
Ġp ul
Ġp ubl
al s
Ġk ogn
am ilan
ad ing
or si
Ġl ulus
Ġmeng ungkapkan
eh i
Ġr ump
os en
Ġpem ul
Ġser angkaian
ĠDi g
Ġked alaman
Ġkew ajiban
lasi fikasi
Ġpelangg an
ĠEnc yclop
A D
C ontoh
M D
w i
à ¤
ĠS amp
Ġl etusan
it r
ĠW e
ĠF l
Ġv ulkan
ota an
Ġbi ologi
Ġpener apan
4 2
B A
B S
C D
H P
Ġp ort
ak h
Ġdi w
il ia
ĠS ej
et is
ĠA kan
Ġmem akan
ro id
ĠR NA
tr on
ĠH ari
Ġv ariasi
ob aan
Ġmas sal
Ġpemb elajaran
Ġdip andang
Ġpr ed
Ġres ep
Ġditu jukan
ĠTel uk
ĠIb nu
egi onal
Ġtertu lis
ĠSci ence
evelop ment
8 8
p i
v en
Ġ izin
Ġp isang
el s
Ġter api
ĠA lex
Ġke agamaan
eg ahan
Ġg ame
ec tion
Ġsej enis
ĠPem ilihan
Ġ196 6
mb ol
Ġup acara
Ġkontr ak
ĠMak assar
ĠInstitu t
Ġbir u
Ġsar ana
Ġlem ah
Dir ektorat
Ġpenyimp anan
4 3
T r
Ð ¸
Ġk umpulan
Ġdi an
am ina
ag en
Ġper gerakan
ĠB a
ĠB og
ĠB lu
Ġh e
Ġh uruf
ĠD asar
Ġg igi
ub e
angg il
und er
tiv asi
Ġeks per
ungg uh
Ġkap ital
ĠRes earch
ĠMaj elis
ejahter aan
m ath
} {
Ġ ;
as ama
Ġt ik
Ġk lin
es tor
Ġmen empatkan
Ġl imbah
ur usan
ĠK ub
Ġr as
ĠH en
ĠW ali
Ġmemb atasi
Ġkar tu
Ġdis etujui
orm atan
Ġmengh entikan
Ġag ak
tiv e
Ġ196 4
ais al
Ġtimb ul
Ġpember ian
ĠKomun is
Ġsw asta
S umber
o ver
x t
Ġ ir
Ġ ungg
ing a
ĠK eh
im aan
ĠH asil
ĠW ashington
Ġdis ingkat
Ġdis ert
tan ian
Ġpas ca
ers on
Ġ8 0
Ġz ona
udi o
Ġgel ap
Ġkont ak
ĠBl ack
Ġmembah as
Ġbes erta
S ejak
b ase
t idak
y aratan
Ġp p
Ġp angan
in ja
Ġl iar
it amin
Ġper awatan
uk tikan
ian o
up si
ĠL ife
ent ina
Ġpem asaran
ĠV al
arak ter
Ġdid apat
Ġap apun
Ġpand ang
ĠIr landia
ĠSam udra
Ġtampak nya
Ġmenekan kan
Ġkomb inasi
B C
S M
U ni
s ter
ê ¦
Ġ isi
Ġs ini
Ġt un
Ġb aja
Ġl atar
ol k
Ġber api
ĠM is
ĠK l
ĠK as
ir inya
Ġh el
Ġmeng angkat
eg an
Ġmend erita
Ġsatu an
erint ahkan
Ġberp artisipasi
Ġdag ang
baik i
P h
T idak
h atikan
j ah
m um
Ġb ulat
or ta
Ġmen angani
ol f
ag alan
ur it
us ti
ti ons
Ġmeng eks
ĠT enaga
Ġseb ab
ĠJ aya
ĠN as
ĠIn c
ind ung
ĠY usuf
Ġsej arawan
Ġpers etujuan
ĠAng gota
Ġmur ni
Pend idikan
m et
n y
n an
Ġt a
Ġmem ori
Ġmem erintahkan
Ġpem ak
Ġkep ad
Ġkes ultanan
Ġpel ayanan
ilai an
Ġde ath
Ġte ater
Ġgr atis
ĠSem arang
ros kop
Ġtertu tup
Ġbay i
Ġmenyimp an
D E
k as
y mp
Ġp ukul
in ci
Ġs isa
am ili
ol itik
Ġper ak
Ġj udul
ĠR RI
20 10
angs awan
200 2
Ġterh ubung
Ġdiman faatkan
k es
l ad
Ġk uantum
ik ahan
ĠS eh
ĠM oh
ul l
ĠR ichard
aj at
ĠO perasi
ĠInd ustri
art h
ons el
Ġpas al
Ġdih arapkan
Ġdr ama
untu tan
Ġdel apan
Ġistr i
ĠAkibat nya
fras truktur
Ġsebag ainya
N ama
P ert
l ima
p u
Ġ gabungan
at ik
Ġs araf
Ġt omb
ak tik
el iling
is l
Ġl aboratorium
Ġmem uat
Ġpeng irim
ĠF ed
Ġberb icara
ĠPro yek
200 0
Ġem osi
Ġhid rogen
untu t
Ġmengal ir
G er
S i
T TP
c ong
Ġk op
Ġk ajian
ag ung
ur na
Ġmeng ab
Ġmeng atasi
and er
eg angan
Ġpeng embang
os o
Ġsep uluh
oh ol
Ġpol isi
Ġkek ayaan
Ġkek urangan
Ġdasar nya
ĠSch ool
ĠSa udi
I s
T ahun
Ã ¤
Ġm o
Ġs ay
Ġt urut
Ġper ek
id at
ĠN g
ĠH er
Ġmel epaskan
ĠE ff
Ġser ius
ob ati
Ġberb agi
ov asi
Ġkes ulitan
aka u
Ġ196 3
Ġ194 2
ĠPol it
Ġ195 7
Ġperl awanan
Sel ama
bi otik
utr isi
emuk akan
S alah
n ilai
u aca
Ð ¾
Ġd osis
Ġp aruh
Ġdi umumkan
Ġmen angkap
Ġl abel
Ġl epas
Ġin ilah
ĠC ina
ĠF lor
Ġpro sedur
ew i
int asi
ĠV en
Ġterb aru
Ġmengh ancurkan
Ġkons umsi
eksi ko
omb a
ĠTim or
uli ah
Ġot oritas
ĠEx change
B M
G r
J ika
i asaan
Ġ af
Ġd aring
ak kan
Ġdi akses
ĠS eri
ĠS ejarah
us n
ĠM uda
ti pe
ĠI d
ĠD om
Ġmeng unjungi
ĠT o
ĠT NI
Ġr at
ĠC an
aw ai
ent ar
usi f
ĠV OC
ch i
Ġterb ukti
Ġtrans aksi
Ġpat ogen
ĠSw iss
iner ja
ĠCor por
Ġtep i
Ġkogn itif
9 0
F ilm
k ap
w e
Ġk ot
Ġl irik
ĠB as
ud al
Ġmemb edakan
tur ut
ĠAc adem
Ġfungsi onal
ĠAustr ia
Ġop si
ĠPl ay
Ġur usan
abor asi
Ġefisi en
ref our
d engan
Ù Ħ
ar itas
Ġdi ab
il s
Ġl e
ĠK a
ĠK i
ir aan
ĠT ri
ĠR am
Ġke yakinan
ĠC ons
ĠG ame
per ti
ind rom
Ġ3 5
ism a
anc ang
Ġdem okrasi
Ġis otop
omat ik
Ġsy arat
omet ri
Ġvir tual
A P
B r
B anyak
b ah
ar gan
in aan
Ġb enteng
em ui
ĠR at
up u
ĠH an
Ġpeng awasan
ic o
20 11
enc y
ern akan
Ġberl ebihan
Ġberh enti
Ġ197 9
ĠDin asti
Ġmay oritas
ĠNorweg ia
D em
M em
g anya
g orit
v ir
al y
Ġs api
on el
es or
uk lir
Ġmem icu
Ġad ministrasi
ot esis
od o
Ġmeny erahkan
Ġdis k
asih at
ĠContoh nya
Ġpengel olaan
S T
j emahkan
m uka
Ġd ewan
ad is
ĠS ir
ĠP enc
ol isian
Ġber sa
ut if
Ġmeng elola
Ġg ender
ant h
od ifikasi
Ġpem ahaman
Ġar sitektur
Ġkr isis
ĠSp ace
Ġberj umlah
Ġmengg anggu
kir a
agn osis
Ġdimaksud kan
Ġmendek ati
6 6
K ehidupan
u araan
er at
at istik
Ġt uan
Ġb ab
si c
is et
Ġl ubang
ing kan
ĠM or
ĠM atar
Ġke inginan
ĠG uru
ic ial
Ġpemb el
Ġpend irian
Ġterb agi
und ur
ĠPro t
Ġpers amaan
Ġa orta
ĠSek utu
lar asi
rib adian
ĠMobil e
e en
i arkan
s esi
w ar
Ġt ur
et apan
Ġper encanaan
ĠB udaya
ĠL ang
end ek
Ġberb ahasa
Ġbi j
ij en
Ġ7 0
ĠâĢ ĺ
Ġperd amaian
ĠQ u
Ġne ur
ĠComp any
Ġdinam akan
ĠMod el
Ġcur ah
tai re
ĠChris ye
Ġmeneg askan
Amer ika
S e
c am
j en
l on
n g
n ama
t ika
Ġ amb
Ġb anjir
Ġk isah
ĠP ad
es m
ĠM PR
ĠK ode
ĠC amp
ĠN ASA
Ġf l
ĠO pen
ĠPer k
Ġv okal
st ensi
Ġdit unjuk
Ġdip l
20 14
Ġpeny ebaran
ĠUni on
ubl ikasikan
ĠAk adem
Ġi on
gaw ai
B erdasarkan
h am
y u
Ġm is
ah ul
eb alan
ĠP ember
ĠM eksiko
Ġr angka
Ġmer usak
ĠF ound
amb u
emp lat
ĠV ersi
ver sal
Ġmet abol
Ġab u
ĠPeng embangan
sk i
ĠSM A
Ġform al
Ġkonf erensi
ĠMatar am
3 4
C H
u tur
Ġd ll
Ġm uatan
in n
as on
Ġt aman
Ġh lm
om en
ĠW i
amb angkan
erti an
onal d
st ein
Ġpend erita
Ġsu ci
ond isi
Ġte or
ĠTh omas
Ġsat unya
Ġjam ur
Ġradi asi
ĠAyyub iyah
. :
5 2
B angsa
s et
at angan
Ġt idur
ap p
ol it
asi r
ĠN etwork
ĠW is
ĠF aisal
ob i
pl ikasi
Ġpers yaratan
ĠTerb aik
T I
Ġp ang
al k
Ġs iap
un k
on im
ek tar
Ġmen utup
et on
ada ban
ĠM ur
ĠM erah
ĠB us
ĠB erdasarkan
ĠT ai
ia wan
Ġc uaca
Ġmel arikan
ĠU N
Ġpem eriksaan
ong g
tern al
man n
sit as
Ġek or
ĠBr asil
ĠOl ymp
elaj ah
Ġkepem ilikan
abis kan
Ġbaw aan
5 1
P artai
U N
f i
en alan
al id
Ġdi ajukan
ĠS emen
ol e
om i
ĠT ata
ĠR ek
eg e
ĠJ ul
ĠJ enis
ta in
tr in
ĠH a
ĠG ar
Ġse tu
Ġser angga
Ġdik elola
aran kan
Ġker j
Ġdim ensi
Ġkomp osisi
Ġâ Ĩ
ĠMas ehi
Ġhak im
Peng gunaan
Peng hargaan
ontr ibusi
ĠMel ayu
Ġsus u
Ġmenemp ati
Ġu ap
B adan
s o
Ð µ
er ap
Ġm undur
Ġp onsel
si si
es e
ĠM ada
Ġmem erintah
emb ah
Ġpen onton
Ġc omp
ĠG ol
isi si
ĠW id
Ġmel intasi
Ġket entuan
Ġ3 00
ĠAn ak
Ġberk isar
Ġpel atihan
imb ang
Ġmusi si
Ġgen om
Ġgen etika
Ġeks pl
ma il
ĠSek retaris
ganti an
Ġsik lus
ĠSoc ial
Ġstrateg is
bil itas
Ġpin tu
A I
C E
t il
Ġp ep
kan d
ĠB uruh
ĠC he
Ġc ac
ib atan
ĠV an
Ġpr im
erik atan
Ġ198 3
Ġ194 0
Ġ197 7
Ġkl asifikasi
ĠKe amanan
Ġinv asi
Ġbl ok
ous e
Ġvulkan ik
O R
a o
b eda
c el
l inya
y anya
Ġp sil
Ġt aj
es ain
it ch
ĠK art
ĠI C
ĠH AM
Ġdit ambahkan
ori entasi
sk y
ĠBer lin
ĠStr ateg
ĠComm un
ĠCar refour
ahl awan
ĠPubl ish
Te ori
Ġbud ak
5 3
A p
u y
â Ī
Ġ <
ar ahan
Ġp uisi
al as
et asi
Ġter tar
ĠM id
Ġr uangan
ĠR eg
ĠC D
uh ur
ĠN uklir
ĠH am
ter s
ĠIn formasi
ĠL and
ĠF estival
Ġpert anyaan
olog ical
Ġpemb akaran
Ġdit anam
mas alahan
tor y
Ġkec amatan
Ġpelangg aran
ĠUs aha
7 2
T er
c es
at alkan
Ġp ikiran
Ġb e
Ġb it
es p
ĠB ol
Ġj a
up an
ĠL ingk
aj ang
aj urit
Ġmel ayani
oh an
orm ati
ĠAl g
ĠCh em
Ġpeny anyi
Ġterk ena
Ġ196 7
Ġ197 5
ĠMal uku
Ġput r
Ġdep rec
Ġfisik a
II I
kar ya
Ġdeprec ated
r en
Ġd uduk
Ġb ot
Ġdi identifikasi
ĠM ong
Ġmem ec
Ġh om
Ġr usak
ĠC ur
Ġc er
ĠE p
Ġmeny adari
Ġberk uasa
ov a
Ġked udukan
ĠMar s
Ġar g
ustr ial
Ġ196 1
Ġ198 7
Ġ197 8
ĠKe uangan
Ġkamp ung
Ġed isi
ĠAnd roid
Ġtertu a
enz a
Ġrib u
bur g
ĠDig ital
ĠBog or
6 8
m ada
Ġm ark
Ġb encana
eb askan
ĠP ort
es h
ol id
us unan
ĠK elompok
ĠB ro
Ġmeng und
ĠR adio
Ġn utrisi
ĠH uman
ĠL embaga
aj arkan
Ġpeng ec
Ġkeb enaran
Ġseh at
Ġterl ebih
Ġsen tr
etak kan
Ġinf lu
Ġge ografis
ĠCl ark
Ġistr inya
Ġdikar enakan
I stilah
Ġp il
as ari
Ġt urunan
Ġk at
si den
ap ahit
ĠS l
ĠS tan
it ter
ĠB ay
Ġin ang
ĠR ock
ĠC had
od itas
Ġsel uas
ĠSt alin
ĠPeng gunaan
eli op
ĠGer akan
Ġop tim
Ġmenjalan i
ĠEng ine
Ġoper ator
ĠGre en
oci ation
ĠArg entina
D ep
T ube
m el
m on
o per
r ama
s us
y p
Ġm uka
am eter
ik u
it im
Ġmeng endalikan
up ai
up aya
Ġmer okok
ac ter
Ġc o
Ġc on
ĠV ic
tiv is
iter ia
Ġpenc ipta
ĠAb ad
Ġide al
Ġrib uan
Ġrem aja
7 3
l agu
Ġ ayat
Ġp adi
Ġp unggung
Ġs ultan
Ġs olusi
ĠS ud
Ġl uka
ari ah
ĠA f
ĠK os
Ġmeng ingat
Ġg una
Ġpeng as
amb atan
Ġdis usun
Ġpr imer
20 19
Ġkec erdasan
Ġdiper caya
Ġkek h
Ġkeh amilan
Ġeks ek
ea e
Ġ197 6
Ġpenc arian
ĠAb u
Ġdij elaskan
Ġmed ali
arm asi
Ġpener ima
ĠHar v
ĠVol taire
ĠÃ Ĺ
ĠChr ist
Ġpetu gas
G unung
b agian
n ey
Ġb angsawan
is ahan
ĠP eter
Ġmen et
Ġl emp
ĠB ad
ĠI tu
ĠD ur
ĠR aden
ĠL agu
isi t
ĠF orm
ot an
ĠU l
st al
Ġpemb ayaran
Ġpel uruhan
Ġmuncul nya
lo e
apor an
elih ara
Ġpsik ologi
ĠMaj apahit
ĠBers ama
Ġkeg agalan
6 9
M el
b l
b u
Ġd ef
Ġm ar
al eri
Ġs ambil
as ana
Ġk an
em uka
si fat
Ġper wira
ĠR oy
Ġpeng olahan
end o
ip e
amb aran
ĠO S
ĠV er
Ġdip indahkan
ĠAn ton
20 15
ĠSel anjutnya
unj ukkan
Ġangg aran
han us
Ġ196 2
Ġ198 4
ill a
Ġ197 3
Ġkl aim
âĢĿ .
ĠGe org
ĠTe ori
Ġtern yata
P as
g ia
Ġk ud
ol et
Ġber ulang
Ġmem f
ĠJ apan
ĠL ap
Ġf akta
ĠO per
osi bin
Ġsem i
ĠAl bum
uc k
ĠKab inet
Ġis u
Ġkont roversi
akl ukkan
arus nya
ĠBudd ha
Ġsetu ju
6 4
K arier
M er
P L
T el
T rans
W akil
o a
Ð ½
Ġs int
Ġt em
Ġt ampilan
Ġb asa
ĠP M
ĠP il
ĠK ata
ĠB ata
ab ut
ay ak
ĠH igh
ent ing
Ġkem enangan
ĠY ayasan
20 12
20 13
ĠAmer ica
Ġsen sor
Ġ198 5
Ġ197 1
Ġdij alan
Ġ193 9
ĠPan as
Ġsi aran
Ġmur ah
ĠPi ala
Ġklin is
ĠCorpor ation
ĠâĨ Ĵ
5 4
T emplat
l ia
am er
am ar
si an
el akaan
ĠP es
ĠB ahkan
ir as
Ġpen umpang
Ġg aram
ĠL istrik
Ġc oba
ĠPer tanian
Ġas linya
ov e
ĠCh ina
Ġkomp utasi
Ġ194 8
Ġperb aikan
antu m
Ġditu tup
ili un
ĠAng el
Ġkab inet
adar ai
Ġseng aja
7 7
P erb
S et
h asilan
s erv
ar ap
Ġp arlemen
al isi
Ġs c
Ġdi had
Ġl isensi
ĠK en
ĠB ant
ĠD aya
Ġmeng izinkan
ro b
eh an
ĠH ingga
Ġsem esta
Ġdis ediakan
Ġkes ejahteraan
erik sa
av y
tim ewa
ĠPol itik
ĠAk hir
Ġkab upaten
unt ungkan
ĠGr up
utr adarai
ĠKong res
Ġlar utan
isl atif
eliop hanus
H eliophanus
f or
o ot
Å «
Ġp anggung
ad iran
ol ution
ĠB uku
Ġr egional
ab ad
and e
ĠC al
ĠH TTP
ĠE mp
Ġmeny ampaikan
amb ilan
atif ikasi
ĠPen yakit
Ġkr edit
ell o
Ġdem okrat
Ġantar muka
Ġdic apai
Ġem isi
Ġmah al
akl ukan
Ġrah asia
B I
B el
M us
Ġp ulang
eb unan
is ter
ik i
it te
Ġper ingatan
ĠB ah
Ġmem andang
and ard
Ġg ula
ĠH el
ic ations
Ġkep ribadian
ĠV ir
Ġmend efinisikan
20 18
Ġbers enjata
Ġsen iman
Ġbert ambah
ĠBr it
Ġperb uatan
ĠSp ec
Ġot ot
Ġko in
Ġep isode
Ġtant angan
ĠFound ation
k ata
Ġd etik
ah nya
Ġk asar
ĠS erv
ari w
Ġper asaan
Ġmeng adopsi
ĠT ex
aw aran
ĠN ag
ĠG K
ĠO t
Ġser at
Ġv itamin
Ġset ahun
ug u
Ġag resi
Ġpers egi
Ġ198 8
ord s
Ġmin at
Ġins titusi
ĠDir ektur
Ġsemb ilan
Ang gota
onj ol
6 5
H O
Ġd ataran
Ġm am
as y
ĠS yah
ĠP lat
Ġl urus
ĠJ umlah
Ġad ministr
ĠG ajah
Ġmel arang
usi k
ensi tas
Ġsek under
Ġal gorit
Ġ194 9
amat kan
Ġet nis
ĠPerd agangan
Ġla utan
ĠPerm ainan
âĪ Ĵ
F i
R L
h ta
m y
r eg
w alnya
Ġd olar
Ġm eski
ĠS tu
ĠA ri
ul ator
aw ali
ent ik
Ġpeng aturan
Ġw ajah
ĠU E
Ġmenjadi kannya
Ġkem ajuan
Ġket erl
umb ang
ĠMar k
aks inasi
In tern
Ġterk emuka
Ġsamp ah
ump ur
Kar ena
Ġkre atif
akt at
c epat
r aja
Ġ Ø
Ġ umur
Ġm ula
in um
Ġs ing
Ġb ukit
Ġk itab
eb atan
ĠS tar
ĠA ug
ul in
Ġmem aksa
Ġmeng obati
ĠT op
Ġr ambut
ĠH TML
ĠG ran
Ġf amili
ĠF e
anj a
Ġdib edakan
Ġpend udukan
ingkat kan
Ġkeb iasaan
onom ian
Ġkr om
Ġ194 4
Ġpern ikahan
Ġro k
ĠMal aka
organ isasi
Ġvari abel
Ġbend era
argan egaraan
L A
V ID
e am
k itab
n d
o is
Ġd ebut
ak at
Ġdi as
ul t
ĠB et
ĠB ul
ĠB akteri
ro t
ĠL og
ant is
ist is
amb i
ĠĠĠĠĠĠĠĠĠĠĠĠĠĠĠĠ ĠĠĠĠĠĠĠĠĠĠĊ
uar y
Ġmend arat
ug ian
enc es
Ġdiper b
ĠPro ject
ustr u
ĠSt ock
ĠSt ates
Ġkr im
Ġ194 6
ĠSeb aliknya
Ġanti biotik
Ġpand emi
ĠSal ib
ĠSalah uddin
Ġperc obaan
lav ia
itr aan
cong loe
ĠAkadem i
ariw isata
O N
Ġp ir
Ġt engg
Ġt ampil
Ġk aisar
el ing
ĠK ing
ĠD evelopment
ĠR us
ter masuk
ot ongan
Ġo ver
os of
Ġsel uler
st ana
Ġket at
oc a
Ġseh arusnya
Ġtangg apan
ekn ik
istribusi kan
ĠTet api
Ġrat usan
A A
A m
K omb
P ara
r ary
Î ±
Ġ emp
Ġk inerja
es aan
ĠM eski
ĠB atu
ĠT ar
im at
Ġpen ilaian
ĠF rancis
amp ur
Ġv isual
Ġpr ajurit
re e
Ġdir encanakan
Ġbert entangan
ĠSt atus
Ġberp indah
Ġkr itis
Ġma u
ĠMil iter
ograp hy
plor asi
D a
E l
N amun
P enc
T erdapat
m ati
Ġb abi
ĠS and
ut on
ĠB ak
Ġin frastruktur
Ġr it
Ġr asi
Ġr apat
Ġr eferensi
Ġg ua
ĠH it
Ġmel ebih
Ġmel uas
Ġw ahana
ĠF ri
ib er
Ġdil anjutkan
Ġpr asasti
Ġpel ajaran
Ġ4 5
Ġberd ampak
Ġ198 2
}} \
iz i
Ġkal ender
ĠIr ak
ĠMart in
ĠMos k
irm asi
Ġlang it
E E
I a
S N
Ġ nya
en o
Ġs o
Ġs ir
is olasi
Ġmen ilai
Ġmen untut
ĠM organ
ĠB ern
Ġh amil
Ġmeng kr
ĠC atatan
ĠJ on
ĠN i
Ġpeng ertian
Ġmemb aca
emp or
Ġmembuat nya
epat itis
Ġre zim
Ġpenj ara
Ġkurang nya
ku it
Ġkub is
inja uan
Ġinflu enza
9 6
9 8
S C
m o
m em
r ic
s che
Ä «
Ġm andiri
as tr
un kan
ad aptasi
ap ak
Ġber alih
Ġper ut
Ġj ustru
ĠN ik
ĠH y
amp a
Ġpro perti
ec ahan
ri x
gr esi
Ġdit ampilkan
Ġmemper kirakan
aks asa
ĠTim es
ĠSo ya
Ġpenj elasan
Ġkarya wan
iti es
ĠPas ukan
ĠBi asanya
Ġnan o
Ġtomb ol
7 4
F F
en i
Ġs l
Ġt untutan
un sur
Ġk uliah
eb ook
is ta
ur uk
Ġmeng enal
Ġr i
Ġpeng amatan
end emen
ati v
ĠE th
ind o
Ġmend eteksi
man en
Ġmemper baiki
Ġkomp etisi
est ik
uc u
ort s
Ġ194 3
Ġbersi h
Ġpsik ologis
ĠDPR D
yan ogen
ĠMod ern
ĠPak istan
Ġer at
Ġpe gawai
ĠLin ux
N egara
d ik
g et
en ian
Ġt ra
Ġk ul
Ġdi yakini
em ia
ut o
um or
ĠM ik
ĠI k
Ġr udal
ian si
emb al
ac y
ot s
Ġpem egang
Ġkel amin
Ġmengh abiskan
Ġked okteran
ĠAd ams
Ġmin uman
Ġpun ah
Ġmengen akan
erl uan
Ġlog ika
Ġkesel amatan
ĠMon congloe
Ġdinam ai
Ġdom ain
Ġmit ologi
eskripsi kan
S tr
as hi
Ġmen ya
Ġmen ambah
ing er
ut in
us ta
ĠM ont
akan an
ung utan
ĠD ek
ĠD id
Ġpen utup
ĠN ur
ĠG i
Ġbah aya
usi aan
Ġpr a
Ġberk ontribusi
ig n
Ġsu asana
Ġhar ta
Ġberh arga
tim urung
Ġi OS
199 9
Ġ195 6
se ud
Ġinv estor
Ġkam ar
Ġmul ut
ĠSen i
Ġterg olong
Ġpsil osibin
itte e
Ġmelebih i
E disi
P M
j uk
er apan
Ġp okok
ĠB ukit
Ġpen ambahan
ĠN at
ĠH i
Ġ19 20
Ġpeng urangan
Ġmel ambangkan
ĠU K
op hy
Ġv ert
Ġmend uduki
Ġdit ambah
Ġker ap
Ġpr es
Ġkeb akaran
Ġked aul
Ġtangg ung
200 1
Ġ198 1
Ġhukum an
199 7
Ġdom inan
ĠKet iga
ĠCO VID
ĠEff ect
Ġmengund urkan
Ġkedaul atan
M asa
b ital
Ñ Ģ
Ġp ur
Ġb at
Ġk g
Ġmen onjol
ĠK op
ĠB ill
Ġh ektar
Ġj urnal
ĠH ong
oleh kan
Ġmeny usun
osi da
Ġkon eksi
ind er
Ġkep erluan
Ġket er
ine a
ug at
iz ation
Ġtak ut
ros s
kl usif
Ġmenyel enggarakan
Ġped agang
Kar ya
Ġfils uf
erj akan
Ġperg uruan
omosi kan
Ġlib eral
ĠBan timurung
eliling i
E C
N ew
t in
Ġp riv
un ahan
ad d
or ak
ĠP and
ol akan
Ġter minal
ĠA I
ul osis
Ġmem isahkan
Ġr ute
ĠC re
Ġw arisan
ĠF ar
angg api
Ġpem ilu
Ġkar b
asil itasi
Ġpemb agian
Ġsej auh
unc ulan
anc ar
ump ai
angs aan
Ġ196 8
Ġsosial isme
opul er
men ia
Ġmak in
Ġtemb akau
Ġsemp urna
Ġgraf is
h ip
k ol
t d
Ġp ip
Ġp aru
Ġs and
Ġb eta
ĠS ah
Ġber upaya
ĠK antor
uk unya
tuk aran
ĠD ok
Ġmeng ukur
Ġpen angkapan
Ġc inta
ĠG l
angk itan
emp ah
Ġdib awah
eri al
ĠAm bon
Ġberk ata
ĠPem ilu
Ġtak hta
Ġtrans fer
Ġ195 8
ĠEk s
ret ariat
fa atan
ĠFin landia
Ġdar urat
ĠSeh ingga
Ġtaj am
ĠBata via
J ohn
P K
k eb
Ġm utasi
Ġp ita
al um
Ġs ab
Ġdi ganti
eb arkan
il er
ol eran
it men
ĠM otor
Ġper masalahan
ĠD ec
ata an
ud ang
aw ak
ĠN a
tr y
ĠH ard
aj er
Ġpeng endalian
Ġmel ahir
os ok
emp a
ensi al
Ġdip asang
Ġdil arang
Ġpel aku
Ġdiper d
Ġberp otensi
ĠAd am
Ġ197 4
ment asi
Ġbeb an
Ġsi apa
Ġbl ack
Ġul asan
ĠJos eph
ĠAss ociation
Ġsam udra
Ġtran sisi
Ġrump ut
Ġketerl ibatan
Komb es
Ġmelahir kan
' ,
E fek
K on
K ec
o ter
an in
at eral
Ġp apan
ak na
Ġl antai
ĠM i
ara ja
Ġmeng untungkan
Ġr aksasa
Ġad il
Ġc ipta
Ġpeng akuan
Ġmeny etujui
int endo
utu b
Ġhar apan
Ġdim akan
ihat kan
Ġweb site
Ġcontoh nya
Ġtip is
Ġsa ud
ĠStudi es
Ġmempr omosikan
Ġmaksi mum
ĠLingk ungan
D e
S I
k on
m ah
w ell
z u
} =
Ġ uran
an aman
Ġp ant
ik s
ĠS urat
Ġl awan
ĠB ung
Ġr ed
Ġr up
ĠC entr
ĠL ebih
ĠU g
os e
Ġsep eda
Ġdik onsumsi
unj ungan
anc am
ea u
Ġrek ayasa
Ġfil osof
ĠLe e
ĠComm ittee
ĠMusi k
Ġkand idat
Ġresp on
ĠHat ta
ontal o
ĠYou Tube
bes aran
ĠDana u
ĠEncyclop edia
ĠSemen anjung
Ġdijalan kan
d om
o e
w ijaya
Ġ ok
ar uan
Ġm utl
Ġp h
in spirasi
Ġs taf
Ġs intesis
Ġt arik
um ahan
Ġper manen
ĠT iga
Ġun d
Ġr et
atan ya
ĠW es
osi t
Ġpemb uat
Ġbanyak nya
Ġkeb un
Ġkom andan
Ġmat emat
isik a
Ġro b
Ġre aktor
ĠOr de
Ġters endiri
ĠNew s
Ġseg i
ĠPh ilip
Pro gram
utr ad
Ġoksi d
cr ipt
Ġalk ohol
ĠColl ege
A c
K el
L atar
P N
W ilayah
h at
p s
r eh
Ø ±
Ġ emb
Ġ etika
Ġd ulu
at ukan
ak o
ak tu
Ġb om
Ġb ass
ap as
ĠS us
ĠS id
Ġper adaban
ĠL eg
ĠL uc
aj ikan
ĠF rom
ĠU RL
ĠV ill
Ġdis utradarai
umb uhan
utan asia
Ġmeningkat nya
erl akukan
Ġ195 9
Pro ses
ĠMet ode
inj al
Ġmenyer ap
CL C
Ġkonvensi onal
D r
R ep
e or
j uga
l ok
m od
t he
Ġ iri
Ġp angg
un ingan
Ġb ip
Ġk otor
el at
Ġber ganti
ĠM end
ĠB or
Ġmeng usulkan
ĠT ingkat
Ġseb aliknya
Ġr entang
Ġn il
ĠJ ac
ĠL ou
ĠL td
ent an
ĠW ah
ĠW ill
ip ati
Ġdis erahkan
Ġdip ahami
Ġkes et
Ġmemper timbangkan
Ġpol imer
Ġdir ektur
ĠBel alang
Ġberp ikir
Per k
engg araan
Ġtrans misi
199 2
Ġib unya
Ġfil e
Ġder ajat
Ġtersi sa
ĠApp le
ĠAcadem y
Ġsentr al
B erb
M at
O n
S A
S ep
n et
r ay
t empat
v al
Ġp ingg
al ai
on isasi
ĠS ik
Ġmen ang
ag es
ĠB andar
Ġh any
ĠD AS
om er
ro ses
Ġg injal
ĠH asan
ĠH ow
ĠL os
Ġpeng ikut
Ġw afat
Ġv arian
ec iras
anc uran
Ġ194 7
Ġperk ebunan
ĠKar l
ĠGr and
ĠMah a
ĠRe al
Ġleg islatif
Ġpid ato
ĠOlymp ic
Ġmenet ap
" ).
F C
K ol
b aru
l ef
Ã ¨
al em
Ġb ut
Ġk aca
am inasi
ung un
ir is
ed ge
Ġr itual
ĠR ama
ta ur
ĠH anya
per ial
Ġmemb er
ĠO c
Ġkar yanya
Ġpemb ukaan
Ġsem angat
Ġmenc eritakan
re en
Ġkec emasan
Ġob l
Ġ197 2
ĠAs osiasi
Ġgr am
Ġmengan cam
Ġint eg
Ġkamp us
ĠDe ath
ĠPut ih
Ġsus unan
ĠTechn ology
7 1
H ak
M L
P ol
S c
V ersi
an usiaan
si um
ĠS D
ĠP ost
Ġl ink
ol lo
it ia
Ġter ikat
ĠM ich
ĠB entuk
Ġh antu
ĠR aj
and akan
Ġn et
ĠC om
ĠW ork
Ġmemb ran
Ġak un
Ġ3 3
mas alah
Ġterb it
20 20
est ina
ĠPen erb
ĠSo ep
Ġkontr ibusi
Seb elum
Ġsup er
enz e
ĠPers erikatan
Ġment ah
Ġrum it
ograp h
Ġdisert ai
Ġarg umen
ĠVic tor
Ġkrom osom
R ujukan
S o
w ara
Ġ ayam
Ġs ains
is aris
ĠP asar
ĠP egunungan
uk iman
Ġmeng embalikan
Ġpem uda
angk utan
emp urn
Ġkon stan
Ġdik uasai
duk tor
Ġkes atuan
esk top
Ġpas ang
Ġtr iliun
Ġeks ternal
angka u
Per ang
Ġmin im
Ġel ekt
Ġkeluar ganya
ĠMan ag
Ġlay ak
oy ang
ĠGr am
Ġlog o
iaya an
co in
organ isme
egi atan
ĠEl ec
Ġmenyer upai
Ġkos ong
A t
R aja
b arang
k ons
n el
o o
u age
w ang
y l
Ù Ĭ
en ek
ar um
at ch
Ġp ay
Ġs idang
Ġt ek
Ġk ira
ap asan
ĠS astra
ek omunikasi
ĠB ib
Ġh adiah
ĠD on
Ġmeng am
ĠT j
Ġr angkaian
ĠN orth
Ġad ik
aj ahan
usi r
ĠInd o
ilik on
ĠPer g
af i
Ġpemb atasan
Ġkel ima
Ġpend erit
Ġkom ik
av e
esk op
Ġar ke
ĠBr ah
199 3
Ġmengak ses
ĠSek itar
ĠPert ahanan
ĠPert engahan
Ġpet ernakan
ĠKeb ijakan
Ġgug atan
Or gan
AT O
Ġmag ma
ungguh nya
Ġpengirim an
esm ikan
Ġuran ium
D ewan
E D
E x
P l
P et
P usat
k elompok
v o
Ġ |
ar p
ĠP os
ek tual
Ġmen u
Ġl iter
et t
uk ar
ĠT ab
ta y
esi um
ant ungan
Ġpeng ukuran
Ġpeng ambilan
Ġmeny erah
ec il
ingg alan
re a
Ġ4 00
ĠSo uth
Ġperk ara
eta il
inc in
oft ware
pek tif
inj aman
Ġref ormasi
ĠFir enze
Ġnit rogen
ĠGor ontalo
Ġspir itual
6 3
G aleri
M I
O L
O l
S aya
U r
l angga
Ġ anj
Ġd en
Ġp ost
Ġp aparan
in ia
Ġt ambang
Ġk amb
ad el
is nis
Ġmen andai
Ġter infeksi
ung aria
aw asi
Ġg ubernur
Ġc itra
Ġf olk
ant asi
Ġpeng ganti
isi tas
Ġmel anggar
ebut an
od er
ist s
Ġres olusi
Ġeks presi
Ġa udio
An d
ĠKeb udayaan
ĠLib rary
stan si
Ġlem ak
Ġtop ik
Ġkos m
Ġhist oris
ĠIT B
ĠKub a
C o
R A
S ungai
T im
m us
o j
Ã §
Ù İ
Ġ q
Ġm g
Ġp iano
Ġt ali
Ġb ulu
ad ana
ĠP arlemen
es ak
ĠB oy
ti ba
ĠI l
ĠG un
ĠW an
Ġo ut
Ġpem enang
ĠPer p
Ġker ugian
sa ingan
Ġpeny edia
ump an
Ġbert ahap
Ġperk iraan
199 8
Ġpener imaan
Ġstudi o
Ġoksi da
Ġoper asional
Ġhilang nya
Ġpec ahan
Ġhib uran
ĠMong ol
ĠBant en
% ,
8 7
E A
L e
O ff
T C
b old
m ata
Â ²
en anya
ar tikan
Ġs end
em ah
el ai
ĠP ed
ur ity
us a
Ġmeng ikat
ĠC ard
ĠJ am
ĠJ oh
ĠN intendo
ĠH ip
ub arkan
ĠW right
Ġpem as
ikan an
Ġdib antu
Ġmengh ambat
Ġmenj amin
erb ang
Ġpas c
ĠIs mail
Ġpes at
ĠEn ter
ĠSp esies
az z
ender ungan
ĠEd uc
ĠDir ektorat
Ġdom estik
ĠAh mad
ĠDen mark
Ġdial ek
duc tion
omend asikan
eur isma
Ġkud eta
Ġmengkr itik
b or
Å ¡
Ù ħ
Ġd amai
Ġb ukunya
em ik
am era
ĠS S
um entasi
ĠA tas
ĠB ag
Ġh endak
ĠT al
Ġr aya
Ġpen anganan
ac teri
ent s
ĠO CLC
Ġv on
Ġak urat
uj ung
Ġmend engar
20 24
ach us
ĠPro tes
av i
ĠBel gia
ĠPen j
ert akan
Ġ194 1
ath er
199 5
Ġ193 0
ĠKem erdekaan
Ġmenyimp ulkan
Ġperek onomian
ĠTai wan
" ),
P os
d ip
e imbangan
y ana
á ¨
in ess
Ġs uka
Ġs indrom
kan dung
ĠS K
ĠS uh
ĠS eorang
es tr
Ġl ambang
Ġh ulu
ti sida
ed ar
ian a
ĠR esi
Ġpen ampilan
aw in
ĠN H
ĠG h
ĠG edung
Ġpeng usaha
Ġsel am
ef f
Ġkon sisten
Ġdit andatangani
Ġdip ublikasikan
ev an
20 16
ĠSel andia
Ġkomp ati
pr es
ĠSt ev
Ġkr iteria
Ġpern apasan
Ġpolitik us
awat iran
Ġsk or
wak tu
ĠEd ward
Ġbl og
Ġradio aktif
ĠKomun ikasi
ĠOn line
Ġdiam ati
Ġdiam eter
Ġprop elan
ĠAv iv
ermin kan
ĠHen ry
ĠRat na
Ġpengas ingan
A sal
j enis
k lin
p arti
y s
en am
Ġp H
Ġt ayang
Ġt aiko
Ġber as
Ġter inspirasi
ĠM un
ĠB aik
ĠB intang
ti p
ĠI MD
Ġr ancangan
ab ar
ĠN ot
tr uk
Ġf os
Ġpro t
Ġsel amat
ĠĠĠĠĠĠĠĠĠĠĠĠĠĠĠĠ ĠĠĠĠĠĠĠĠĠĠĠĠĊ
Ġant ena
Ġmas k
Ġ3 6
ig ran
20 17
20 21
Ġek ologi
any ikan
Ġberp usat
omb inasi
ĠDe ep
Ġop tik
Ġperh itungan
Ġsuk ar
Ġny eri
ĠHid ayat
ĠAlg eciras
Ġputr anya
ĠGran ada
utrad ara
' .
8 4
K ek
O H
y pe
ar ch
Ġk alau
Ġdi tur
ad at
is en
ĠS aw
ĠS isi
ĠP lanet
et es
ĠB ang
ir ingan
up iter
ĠIn formation
end am
per s
osi l
Ġv eg
Ġat let
ĠAn n
Ġpel uang
Ġkom ando
ump ah
ĠZ ub
ĠAs asi
las s
Ġpenting nya
ograf er
Ġperd ebatan
Ġ195 5
Ġmerek am
ĠâĪ ĳ
Ġtab ung
ĠSm ith
Ġakadem ik
ĠEurop ean
Ġpengan ut
Ġteb al
Ġkot ak
B er
H al
R ob
c l
l ihat
m ur
p anjang
r ol
v ille
Ġ amat
at rium
Ġp agi
Ġs asaran
Ġk ala
ap e
Ġmen ahan
ĠK y
ĠB on
ĠD ante
emb ahan
ĠC ara
Ġg urun
Ġg rav
ĠN ATO
Ġf iksi
Ġsel eksi
Ġof f
Ġterd aftar
Ġkek alahan
pr insip
inan sial
Ġmenunj uk
ĠSh in
ĠIb u
ĠKec il
ĠPal embang
Ġprak tis
Ġsar jana
Ġpemberont ak
ĠMass achus
ĠAtl antik
Ġtertar ik
J epang
K h
N ya
U U
d ian
k tika
u ch
Ù Ĩ
Ġ amp
Ġ est
Ġm alu
Ġs aw
un ting
ĠS ap
es c
es er
Ġmen ara
Ġl edakan
Ġin tr
Ġmeng ej
Ġ1 50
Ġr entan
Ġn eb
ĠH IV
esi gn
Ġmel ancarkan
ot anya
amb ung
Ġkem anusiaan
Ġdip egang
ĠSel at
Ġkom oditas
aksi kan
da erah
ert o
te xt
ĠAs tr
ani el
erl and
ateg or
Ġkol eksi
Ġdisel esaikan
ultur e
Ġku ant
Ġkritik us
Ġrasi o
empor er
ĠProtes tan
9 5
l eks
p emb
á ¹
en ario
at uhan
Ġk alah
Ġdi alami
ĠS af
ĠP aus
ĠA gr
ul um
ĠB agi
Ġmem eriksa
ĠT om
Ġr utin
Ġf er
ĠW ir
Ġmemb agi
ĠF er
angg otaan
ib ut
angk atan
Ġbar is
ĠPr inc
Ġkeh adiran
atur e
engk apan
Ġpenc egahan
intang i
Ġtepat nya
isk in
ĠMa x
esu aian
Ġlar ut
Ġland asan
Ked utaan
H ukum
P ang
P asal
p aru
r ak
v iew
an ah
an aan
Ġs it
Ġk unjungan
Ġdi ukur
et ts
ol os
Ġber umur
ĠK awasan
ĠD ik
Ġj antan
Ġr ev
Ġke adilan
ĠL im
ac eae
ub ur
Ġc ap
od y
he imer
ri o
ĠY as
ĠV o
Ġdit olak
Ġmenc erminkan
Ġdip elajari
ĠAl bert
man faat
Per usahaan
Ġmin imal
ĠTan aman
sy mbol
Ġdinam is
Ġimp lement
Ġhip otesis
ĠOff ice
Kab upaten
ĠSej umlah
ĠHit ler
B ur
E N
S y
f ungsi
k y
k ah
Ġ it
Ġb aku
ad ir
es aian
Ġh t
ĠD im
eh er
im i
Ġr iset
ac t
Ġf inal
ĠE st
ĠF ort
ip ulasi
ĠO ne
ĠPer l
ob e
ob el
ĠDi visi
Ġkec elakaan
Ġkek ebalan
ers ediaan
ĠSt ate
ĠAd apun
ĠKons ep
ĠPal estina
Ġide ologi
ĠTe ater
ĠMed an
Ġid entik
Ġpal adium
onf irmasi
anth us
bold symbol
ĠIMD b
ĠMassachus etts
8 5
9 4
I t
M al
R C
b ahan
g askan
o tr
Ñ ģ
Ġp aksa
as it
Ġt abel
Ġdi adopsi
Ġl angka
it ed
it orial
ĠA th
Ġper tukaran
ĠB ir
Ġmem indahkan
id emi
Ġj enderal
Ġj amban
ed ral
Ġr ec
ĠR as
Ġn om
ĠC y
ĠC ek
ĠC ont
aw akan
eg oro
Ġad egan
ĠL ayanan
ac ak
anj angan
ena z
ingg inya
Ġdil etakkan
Ġpr esi
ra z
Ġar mada
Ġditer jemahkan
az im
urn amen
ĠCl ub
Pemb entukan
Pemb angkit
ĠSin ode
Ġlip at
ĠRev iew
Ġintel ektual
Ġeksper imen
Ġmetabol isme
yanogen Mod
Ġiri gasi
Ġpenderit aan
Ġneb ula
8 2
A ir
B e
R eaksi
a e
k em
Ġ umb
in am
ak tur
Ġk ekaisaran
ĠS ama
ek or
Ġber eaksi
Ġmeng isi
ih kan
ĠH on
ĠL ew
amp i
Ġmeny ukai
Ġkep ulauan
Ġdit unjukkan
uran si
lah raga
Ġberk omunikasi
ug erah
if t
ori z
Ġdim inta
Ġdim odifikasi
ow o
Ġmenj alin
ill us
Ġditu gaskan
199 6
sp edisi
urn ian
Ġpenulis an
Ġmur id
Ġstabil itas
ĠSim al
Sem entara
Ġsemp it
oca ust
Ġbip olar
. âĢĿ
D M
M in
M ic
b ag
j am
p ulau
r ab
z e
Ġd eb
al itas
ak angan
Ġb atasan
em as
ya ir
ĠS aya
Ġber inter
ĠA yah
ĠK ampung
ĠB enteng
Ġmeng operasikan
and u
ĠJ adi
Ġg am
ĠN O
ĠN ic
Ġad ap
ĠL ock
ac he
Ġdib atasi
int egrasi
Ġak tor
ri jadi
Ġsek elompok
ĠY ear
ch en
Ġmenc etak
Ġberk umpul
re at
aks aan
Ġor bital
tiv isme
ĠZ h
Ġanak nya
ĠPol da
ust in
}} _{
Ġtrans l
ĠGr eg
ast is
Ġint egrasi
ĠGo wa
Ġjabatan nya
idik i
Ġtemp ur
ĠCol umb
erj aan
ĠPD I
Ġfot ografi
ĠPhil os
ĠGol kar
Ġditur unkan
+ +
I m
b as
f ield
i aran
s man
er y
er eng
en ya
Ġp unc
Ġdi st
on ya
ing u
ut ing
Ġter atur
ĠK us
Ġin siden
Ġmeng ganti
Ġj embatan
Ġpen si
Ġn asi
ĠH ouse
ĠG el
Ġw abah
Ġmemb uktikan
od on
ib u
ran i
Ġket ak
re am
ĠAr menia
Ġkec enderungan
ĠAd v
Ġlingk up
199 4
Ġseg ar
ektr um
Ġkab ur
ĠKh usus
ĠâĪ Ĥ
Ġsup aya
ĠAir langga
Ġsy stem
tok oh
Ġuni versal
tle e
Ġvari etas
erus alem
ĠAh li
Ġefisi ensi
Ġpo in
Ġeksp edisi
ordin at
Ġmemf asilitasi
Ġadministr atif
ĠMosk ow
ampa ui
parti al
Ġht tp
" ;
3 00
S L
i oid
p ura
r ut
s emb
al isasi
al th
Ġs ensi
Ġk uda
Ġl aju
us s
ĠM ari
Ġh orm
ĠN et
ĠH ubungan
ĠL it
aj akan
ĠPer angkat
Ġdib anding
ĠV irus
Ġket ahanan
ev aluasi
tor an
ug os
Ġses ungguhnya
istr y
Ġek onom
ĠPeng hargaan
Ġkr onis
Ġlingk aran
ĠEn d
ĠMal ang
Ġ195 3
Seb agian
uman ia
Ġed itor
Ġmon arki
Ġmik roskop
Ġperp ustakaan
ĠSim on
ujud kan
ĠJos s
ĠSystem s
ĠKej uaraan
ĠEurop e
ĠAntar ktika
Ġmengaku isisi
arakter istik
ĠZub air
Ġpunc a
K al
O b
R e
b alik
i od
k omp
o itasi
p es
r ida
w ilayah
en ter
ar bon
Ġp injaman
Ġt angk
Ġb unuh
ad asi
el am
el us
ĠP id
ĠP ac
ĠP ower
es eran
Ġl i
Ġl ong
ol ok
Ġter ancam
uk o
ĠB ob
ĠB atang
Ġr untu
Ġr iwayat
Ġke si
ĠC andi
ĠH end
ĠL alu
Ġpeng eb
Ġpem ungutan
op oli
ĠPer istiwa
Ġak ut
af t
art awan
Ġas as
Ġterl epas
Ġst atistik
omb ongan
ungg ulan
Ġdin ilai
tik el
ĠMan ajemen
Ġkont emporer
Ġseg men
Ġhid ung
ĠDa un
Ġpat ung
elompok kan
Ġped esaan
ĠPut ri
Ġpenerb it
Ã¡ n
ĠInf in
Ġbet ina
Met ode
Ġbas ah
Ġeksek utif
Ġhany alah
ĠSimal ungun
Ġberinter aksi
B agian
F ungsi
K eluarga
M on
R iwayat
e ed
Ñ Ĥ
Ġm iskin
Ġt ingkatan
ak ian
Ġb on
ad or
ĠS uku
ĠP HP
Ġber agama
Ġber manfaat
ag on
ĠB ola
Ġh angat
Ġmeng ontrol
ĠT ang
ĠT un
ĠR encana
ĠC entral
ĠJ alur
Ġmer ug
ok u
Ġf inansial
os in
Ġsel ada
op las
Ġdik enakan
ĠDi per
ĠAm ir
tur y
Ġkes uk
Ġbers ek
Ġkons ervasi
Ġsen ar
Ġsp ons
ini um
ĠIS O
Ġdem am
lis h
Ġbern ilai
Ġmengan d
Ġac ak
Ġ193 8
ĠHe alth
ĠBur sa
Ġpemro sesan
Ġgug ur
ĠSol o
Ġben ih
Ġmemperl ihatkan
Or ang
Ġteg angan
ĠDar win
ĠSebelum nya
Ġanal og
yaw arah
ĠHarv ard
ĠRoy al
9 7
A ustr
E L
S truktur
W indows
d it
f ur
k amp
v ei
ar o
Ġt apol
Ġdi sip
em is
am oto
on esi
eb as
is che
ĠS ya
ĠS es
Ġmen ular
Ġmen aklukkan
ĠK n
Ġmeng ajar
Ġj agung
ĠJ ack
Ġg ul
Ġg ro
Ġc adangan
Ġf ed
ĠW ina
Ġw ar
ĠF I
ic y
Ġv ektor
Ġdik lasifikasi
Ġdis ahkan
Ġdis ukai
utu h
Ġpel aden
if f
Ġdim ak
ĠCh ic
ĠMar y
ĠBr un
raf t
of il
Ġdin asti
ĠMas jid
uf aktur
ĠTh era
erv atif
ĠPl ant
ĠMusi c
ĠKap al
Ġpenyel enggaraan
ĠSci ences
alif ah
Ġklor ida
iny ur
Ġkekh awatiran
ĠSoep rijadi
Ġgrav itasi
A mar
F aktor
U M
c iri
l aim
y r
Ġp unya
Ġp akar
Ġb ambu
Ġk ac
Ġdi usulkan
Ġdi tay
ĠS ut
ĠP antai
Ġper saingan
ĠK ari
Ġh epatitis
ĠD ev
ĠD uta
ĠD usun
ĠT as
ĠC inta
ĠJ uga
ĠH ungaria
Ġf ac
end ela
Ġkep unahan
ĠV i
Ġpemb uluh
Ġdip as
ĠAl at
ĠAl kitab
Ġkons er
Ġ7 2
Ġdih entikan
Ġdij umpai
Ġkol oni
erak kan
ĠPel abuhan
ĠBo oks
Ġsi ang
ĠSol ok
Ġteg ak
bar ui
ĠFac ebook
ĠKonf erensi
Ġcok elat
math b
Ġbersa ing
Ġkerj asama
Ġso al
lef t
Ġnet ral
ugos lavia
Ġditay angkan
% )
d r
j e
p an
w ood
z er
en ing
at ing
in kan
on egoro
Ġdan au
or eng
Ġl ist
Ġl ini
ur ing
Ġter mal
ĠM A
ĠA walnya
ĠK amb
ĠK az
ĠI P
ĠD ewi
Ġmeng ur
ed ah
ed el
im inasi
ĠR ub
ĠC el
ud in
ĠN ilai
ĠL ab
Ġc omm
Ġc incin
per t
ic us
ran e
Ġv aksinasi
Ġdib intangi
Ġdit inggal
Ġker abat
Ġterb anyak
ig urasi
ĠAr sip
Ġ4 2
mi grasi
ĠAs h
Ġmin um
Ġro da
Ġperl ahan
Ġpasi f
ĠAnd r
Ġjangka uan
Ġnan op
row n
Ġnorm a
eder han
Ġresep tor
Set iap
Ġdisip lin
Amar anthus
% ),
) }
G angguan
K onf
N T
R D
T eknologi
b le
k ep
k om
Ġ entitas
Ġm andi
at tle
Ġt es
Ġb ib
ik atan
ĠS taf
Ġmen andakan
Ġl etak
Ġl eher
um uskan
ĠA D
ĠB CA
ĠD oc
ĠT s
Ġj ej
ed e
Ġke y
ĠH idup
ĠIn j
ĠG erman
ic i
ĠPer j
Ġbi as
Ġmengh ormati
Ġsed imen
Ġeks por
Ġterp aksa
ht m
Ġ193 6
Ġint ensif
Ġmah kota
bo x
ĠPut eri
atal og
ĠHol ocaust
Ġpep erangan
Ġmengand alkan
F akultas
H z
S at
d am
g ht
s umber
v an
Ġd ada
ar et
in ar
Ġs ter
ah i
is y
ĠB it
ĠD ay
Ġr ad
Ġr upa
ĠH or
ĠL or
ac illus
ĠF L
ĠF ungsi
Ġmeny emb
angk u
Ġitu lah
ec ah
Ġak tivis
ĠY ugoslavia
ĠV ideo
Ġmend alam
Ġterd ekat
Ġkons ol
anc ur
est arian
ual ian
Ġeks klusif
our ce
Ġhasil nya
Ġberg elar
199 1
Ġpan en
ce an
asti an
ĠMin ahasa
ĠMel alui
sir kan
Ġart is
ight s
alih kan
ĠNus a
egr adasi
Ġlel uhur
Ġhidrok sida
Perk embangan
Ġketak utan
B ahan
K ota
en in
ar uskan
Ġs andi
Ġdi oksida
em e
em aran
si apkan
ĠP in
Ġber acun
Ġter kandung
ĠA us
ĠI mp
ĠD ick
ĠT uan
Ġpen anda
ud h
ĠH il
ĠL at
ĠL uk
isi r
isi on
usi on
Ġ" ...
Ġpem isahan
Ġsep atu
Ġpert ambangan
ungk ap
Ġpel indung
ĠMar ch
Ġkomp et
av en
Ġind eks
ator y
dis ebut
Ġdic atat
âĢĿ ,
Ġbin atang
ĠAt las
ĠSen yawa
Ġge ometri
uali fikasi
Ġdif erensi
ĠInt el
ĠDip l
omend asi
Ġpersi apan
Ġdisk usi
ĠUg anda
Ġobl igasi
Organ isasi
Ġdiklasifikasi kan
I K
R S
S en
T ujuan
c an
i am
j angka
Ġs ilikon
Ġdi in
Ġdi operasikan
em ikian
ap ur
ĠS pr
ag ara
ur is
ĠM iss
ĠK ai
ĠK ast
ĠB erikut
Ġin tu
ir l
emb us
Ġn i
Ġn enek
ĠC arl
eg o
ĠJ emaat
Ġg l
ĠN av
ĠH ill
ĠL ama
ĠF ranc
Ġmend ominasi
Ġdit ahan
Ġal ur
Ġas tr
Ġas osiasi
Ġsen tim
uc apan
Ġpers pektif
Ġkeh endak
Ġdem onstr
199 0
Ġpasukan nya
ĠSur iah
Ġrel evan
198 8
ĠPas cal
ĠData base
Ġleg enda
log an
ĠAtl antis
Ġcok lat
ĠBrit ish
gresi f
E ur
J S
K as
r isten
s ara
Ð ²
Ġd u
Ġp angkat
Ġp angkalan
Ġs osi
Ġt amu
Ġb ara
Ġdi izinkan
si ran
on duktor
il in
ĠS erb
ag angkan
Ġter integrasi
ari um
ĠM ata
Ġper adilan
ĠK han
ĠK eluarga
ĠT am
ĠR umania
ĠN orm
ĠN atural
ĠH ab
ĠL aks
ĠL ima
Ġmel etus
Ġmel ampaui
ic tion
Ġmeny esuaikan
Ġmeny arankan
Ġmeny ertakan
Ġsek utu
Ġal um
Ġkel uaran
ch er
Ġpr omosi
ĠAl z
Ġ4 6
Ġdid ominasi
Ġmenj awab
imb ingan
Ġwak af
ĠPeng awas
erd as
Ġhari an
Ġspesi fikasi
all y
ĠPh y
Ġe utanasia
Ġpengg emar
Ġkew enangan
ph ia
Ġkabar et
ĠKu ala
kap al
endek iawan
Ġmam alia
oleran si
ĠPerg uruan
Ġpensi un
L a
h ar
l ahan
p os
s yah
Ġ usus
Ġ utusan
Ġk ok
ad ukan
el d
ya itu
ur utan
ĠM asa
ĠK ul
ung u
ĠI stana
ĠR ay
ĠR ujukan
up likasi
ĠC as
ud id
ĠN il
ok a
esi mal
ac akan
ĠG od
Ġser ial
op ia
osi klin
ĠPer h
Ġdik endalikan
Ġdis esuaikan
Ġket egangan
Ġtet angga
Ġpr as
Ġkes eimbangan
Ġmemper hatikan
Ġked atangan
ĠThe ory
ĠPem uda
Ġib adah
Ġstruktur al
Ġsk ema
Ġkekuasaan nya
por si
ĠAp abila
ĠAt tlee
Pem ilihan
sy ch
ĠAbd ullah
Ġmenik mati
Ġmit ra
ĠBerb agai
Ġbag us
ĠYo ung
Ġpemul iaan
ĠVen esia
Ġpembel ian
Ġkrim inal
9 3
E d
K ont
e et
k am
m m
r or
r ick
Ġp am
si d
ĠP ustaka
Ġl im
Ġl iga
Ġl azim
ĠK imia
ĠK itab
ĠB end
Ġmeng es
ed era
im ental
emb ar
Ġn a
Ġg izi
ĠH awai
og o
ĠO lahraga
int asan
Ġpemb awa
Ġkel ak
Ġdip isahkan
Ġberk omp
Ġterb akar
Ġterb unuh
oc r
Ġpers epsi
Ġmod ifikasi
Ġ6 5
Ġ7 5
Ġdih itung
ust ik
ens e
Pen yakit
Ġkol om
Ġint ensitas
ĠBer k
ĠĠĠĠĠĠĠĠĠĠĠĠĠĠĠ Ċ
Ġseni or
ĠHist or
ĠBur ung
ĠIm am
ĠSri wijaya
ĠPur w
Ġrum us
ĠEconom ic
Ġil egal
Ġpubl ikasi
Intern ational
risten an
D ampak
M P
N ET
T a
c ast
k ov
m is
u itas
Ġ amin
Ġ Ø§
an ta
ak m
Ġk ultur
ĠĠĠĠ ĠĠ
ad ik
ap h
ĠP uncak
it atif
ul uki
Ġin ovasi
Ġmem unc
Ġmeng hadap
ĠT umbuhan
Ġj ejak
Ġn ew
ĠC our
ĠC IA
ĠN ash
Ġmer d
ĠG ab
âĢ ľ
gr unge
ĠV ene
Ġdit angani
Ġdit emui
Ġdil indungi
Ġan eurisma
imp lement
if ic
Ġmemper cepat
Ġdiper tahankan
Ġ6 4
Ġberh ak
ĠAs uka
Ġpes tisida
Ġâ Ĥ
Ġpopul aritas
lo yd
isti an
Ġmenyel uruh
akup an
ĠSe attle
Ġpener us
atuh i
alang i
ĠPut ra
Ġprof il
Ġprof esor
Ġkew arganegaraan
Ġimp or
Ġpenyel esaian
omet rik
Ġdistr ik
timb angan
Ġtemp o
Ġus ulan
ĠCE O
Ġpemak aman
Ger eja
Ġkop i
Ġvert ikal
adel phia
ĠAlz heimer
- >
8 9
E ropa
R ek
s he
t ah
Ġ ali
Ġ ec
at ai
Ġs awah
Ġt ud
ad w
ap aian
ĠP ri
ai jan
es us
Ġmen unggu
ol is
ĠK eber
ĠB ug
Ġmem anggil
Ġh impunan
ti onal
ĠD aniel
ĠT erl
ro v
ud era
ĠN u
ĠL ac
Ġc ek
Ġtahun nya
Ġw adah
os an
Ġpem eran
ĠO s
op or
erti fikasi
Ġdib ebaskan
ĠY erusalem
Ġdil antik
ev al
20 23
Ġmengh apus
di al
teri or
Ġbers angkutan
Ġkons ekuensi
Ġpas okan
Ġberd irinya
ekan isme
omb ak
ĠZ ig
ĠAd ipati
ĠPol isi
Ġjumlah nya
ĠEn ergi
ĠKom ando
Ġ195 4
Ġindivid ual
res ent
Ġmenyel amatkan
Ġterj emahan
amah a
Ġken yataan
Ġpej uang
Ġmikro organisme
Sem ua
Ġbag inda
-- --
ĠTw itter
ĠBlu e
Ġhe avy
Ġsay uran
ils afat
ĠAngel es
ĠFri ed
Ġmengam ati
ategor ikan
Ġditinggal kan
6 1
6 7
= {\
B ab
K S
K et
e on
m emb
o ul
s w
y th
} +
Ë Ī
Ġd or
ar angan
Ġp eta
Ġp seud
Ġs ingkatan
Ġt embaga
ak um
ak iman
ap is
Ġber edar
ĠM es
ĠM ath
ul aan
Ġper ikanan
ĠK ir
ĠK ondisi
ĠD ib
Ġmeng apa
Ġ1 20
Ġj el
Ġj emaat
Ġj anin
Ġg empa
ant ing
Ġpeng unjung
Ġpeng enalan
Ġmel ekat
ic t
int ai
ong ga
le ar
Ġker ak
ch es
ch rane
tor i
Ġman ual
ĠPr esi
Ġdir esmikan
Ġst adion
ĠBel l
fr ed
Per ubahan
ens or
Ġkal imat
str ak
ex t
Ġuj ian
Ġinter vensi
Ġkeber hasilan
ajib kan
Ġjawab an
enj ang
ĠFr ont
ĠRec ords
ĠPerb edaan
Ġemosi onal
usn ahan
Ġpip a
Ġruntu h
I k
i ef
o ja
v el
Ġ identifikasi
Ġd esktop
Ġm alah
Ġp art
Ġs adar
as er
Ġt umor
si m
on an
ĠP am
ĠP impinan
ek usi
Ġber orientasi
ĠM ol
ĠM ID
ĠA ut
Ġh eter
ti b
om on
Ġ1 000
ga ya
ĠR en
Ġn as
Ġke anggotaan
ĠC orn
ĠIn st
ĠG a
Ġpeng gabungan
Ġdik en
int is
ĠV II
Ġpemb uangan
Ġpemb angkit
Ġdit ingkatkan
Ġal iansi
Ġket erg
Ġket erangan
imp ah
utu an
re y
Ġsed emikian
est arikan
ĠSt adion
Ġberl awanan
awan cara
Ġro ti
mp ulan
Ġrep likasi
Ġperlu asan
ES CO
Ġken aikan
Ġth at
ĠGre at
ĠBal ai
ĠBerb eda
Ġdemokrat is
ĠManag ement
Ġkamb ing
ĠSisi lia
Ġmerd eka
d aiko
h u
Ð »
Ġ ol
Ġd as
Ġm ayat
Ġm aksud
Ġb olak
Ġk ain
Ġdi gabungkan
Ġdi artikan
em in
el e
Ġl ava
it ah
ing atkan
ĠK ut
ĠD am
Ġj er
Ġr acun
ian us
and um
Ġpen is
Ġpen ambangan
ant aian
ĠW ijaya
Ġmel ioid
per usahaan
Ġpem eliharaan
Ġak al
ej o
Ġan ark
Ġberk at
Ġberk eb
ĠAl ban
aik kan
In s
In t
Ġbert ahun
Ġtr en
tim e
Ġ8 00
dis ingkat
ĠSy arif
Ġtub erc
fer ence
sk a
ohon an
Ġterj un
Ġberw enang
arm ak
Ġangk utan
Ġpar ameter
bo ok
ĠVol ume
Ġmus eum
ĠWar s
Ġpengel uaran
ĠPhil adelphia
Ker ajaan
ĠBus iness
ĠEngine ering
ĠLou is
Ġimplement asi
ĠChic ago
Ġketerg antungan
Ġmelioid osis
B idang
G urun
I B
K ata
K ementerian
b r
h um
l eksi
p on
p end
r t
w itz
an tikan
Ġd et
Ġd ev
Ġp i
al m
al anya
Ġs idik
Ġt ir
un try
ĠS on
ĠS entral
ĠM ill
ĠM esin
id in
Ġh erb
Ġh otel
Ġmeng emukakan
ro ugh
Ġn ol
ĠJ ambi
ĠN ug
ĠN ES
ĠH itam
oleh an
ĠL o
Ġc andi
ot landia
Ġkar enanya
ĠY am
Ġset inggi
Ġmend aftar
Ġmend esak
Ġsem ula
Ġket erb
eks adana
ov en
Ġkes amaan
ja uh
ĠAl iran
re ak
Ġtan am
oc ial
In ter
Ġgen osida
ĠRom an
ĠHindu isme
ĠBar b
Ġreg ulasi
Ġpec ah
ĠSu atu
Ġta utan
Ġpang eran
Ġekspl isit
ĠPublish ing
zu ela
Ġtuberc ulosis
9 2
E M
H id
K ej
L ap
W orld
d pl
l ebih
m ainan
r in
r ag
Î ¿
ak apan
ad y
ad ak
ap uskan
ĠS ay
Ġl umpur
ut ra
Ġter ang
Ġper ahu
ĠK im
ĠK re
ĠB uah
im ande
ĠR em
and uk
Ġpen aklukan
Ġpen olakan
ĠJ r
ĠJ al
Ġmer ancang
Ġc l
Ġc erdas
ĠG as
ant ang
ic es
Ġkar ang
Ġdik emukakan
Ġkel emb
Ġdil epaskan
oc ol
oc oc
li e
und ar
anc ah
Ġmenj elang
Ġangg otanya
ĠPol ri
Pen elitian
Ġrek omendasi
ĠMah asiswa
Ġbur sa
ĠLe on
Ġmenyebut nya
Pem eran
ĠDep ok
ĠCon c
lor a
isk inan
ĠPet ra
Ġlar angan
ĠBat ak
Ġme yakini
ĠÂ ±
zh ab
Ġlemp eng
ĠPM ID
ĠCentr e
Ġfilosof is
ĠVill ani
9 1
B H
B iro
H an
J umlah
K M
P o
T T
b uku
f t
j ikan
j awab
n ik
Ð º
Ġ #
Ġm oyang
at t
in jau
al isme
Ġb elah
ĠP anjang
Ġmen anggapi
Ġl o
Ġber turut
ĠM and
uk ang
Ġmem adai
Ġr un
and ian
ĠC ontrol
aw ati
ĠN on
ĠH and
ok imia
Ġc edera
ĠE arth
Ġmeny atukan
Ġpro k
ew askan
ew enang
ĠAn ang
man apun
Ġmengh itung
Ġsistem atis
Ġdid uduki
Ġterk endali
Ġwilayah nya
uc ing
ĠMen y
Ġ6 00
Peng embangan
Ġ195 2
Ġ193 3
ĠMet al
Ġberper ang
Ġins inyur
ĠMat ematika
Ġpenyel idikan
ĠGen eral
ahl ian
Ġmenemp uh
Ġpotensi al
seb elum
Ġflu or
Ġpul uhan
Ġkepad anya
Ġbab ak
Ġmis teri
ĠAkhir nya
ĠServ ice
Ġalgorit ma
Ġtengg elam
acteri um
B l
E I
E O
E IT
G o
S up
T ok
f ace
h ib
m u
r ad
r ek
v ey
Ã ¦
ang a
Ġs osok
Ġt ingginya
Ġb or
Ġk asih
am inya
ĠP ranala
ol m
ag asan
ur g
us uk
ĠM akanan
Ġper timbangan
Ġh ancur
ter utama
ĠG urun
isi a
ĠW in
per atur
Ġw ali
Ġw ujud
ĠE ast
Ġmeny ebarkan
angk itkan
ĠĠĠĠĠĠĠĠĠĠĠĠĠĠĠĠ ĠĠĠĠĠĠĠĠĠĠĠ
Ġdib erlakukan
Ġdik alahkan
Ġket ersediaan
Ġdip aksa
Ġpend eta
tur kan
ig er
Ġman ufaktur
Ġkeb aikan
imb al
Ġ9 8
Ġperb andingan
Ġtel ekomunikasi
Ġpemerintahan nya
ĠKep olisian
Ġmak am
Ġ195 1
Ġkol ektif
Ġac id
Ġkor upsi
Ġinter pr
ekerj akan
ĠSen at
Ġfr aksi
Ġkematian nya
St ation
ĠMat ahari
Ġcamp ur
kh usus
Ġteg as
ĠFor um
ĠInv estasi
ĠDh ar
Ġdiab etes
Ġmemec ahkan
Ġagresi f
Ġmenya jikan
Ġrob ot
Ġanj ing
It alia
Ġkesuk sesan
ĠHawai i
B ib
L embaga
R es
S ur
b ol
f aktor
f iah
h id
h ana
n ing
r itik
u is
Ù Ī
ä ¸
Ġp utusan
Ġs esi
Ġt entu
Ġt enggara
am ana
ad in
si f
eng arkan
Ġmen ewaskan
ag ing
ut kan
asi m
Ġper amban
ĠK ont
ĠB engk
ĠI de
Ġn atrium
Ġg ar
ĠN ick
Ġmer asakan
ain t
ĠL ampung
Ġse c
ĠE in
Ġpro porsi
ĠPer n
Ġkem iringan
Ġdis ajikan
Ġas umsi
Ġpend ahul
eks ual
20 22
ĠPr ab
Ġkons truk
Ġkom itmen
av ati
Ġperm ulaan
angs ungan
embang un
Ġdih ubungkan
Ġrumah nya
ĠKr is
ĠSur akarta
Ġberm ula
Ġberm akna
rik s
198 5
Ġsal inan
ĠRes mi
ĠBo ok
ĠComm ons
ĠGu ide
Ġpenerb itan
ĠSat elit
ĠPubl ic
Kep ala
Ã³ n
Ġplas tik
Ġbij ih
Ġdipl omatik
Ġdiperb olehkan
Ġsir kuit
Ġmemunc ulkan
B uku
D ia
D efinisi
E p
I lmu
P G
P ulau
a x
d u
f l
p ons
p ha
p roduk
ar nya
Ġp uc
Ġt ri
Ġk entang
Ġk uasa
Ġdi olah
ad wal
il itas
Ġmen anam
Ġmen iru
ol io
Ġber angkat
ur o
ĠM aria
ul e
ul angan
ul usan
ĠB P
ĠB in
ab ilan
ĠR af
Ġini si
Ġpen eg
Ġg ol
Ġg ambut
tr is
ay angan
ay yah
Ġc r
Ġc elah
ĠW eda
ĠF C
uga an
Ġpro tes
Ġser ikat
Ġkon versi
ec k
ec uali
Ġkem en
Ġsem en
Ġkel apa
Ġberk ualitas
da un
uc apkan
ĠMen engah
agu e
Ġind ustrial
Ġput aran
Ġters usun
An t
Ġrek sa
yata annya
ĠBer jangka
^{ -
ĠDe wa
ĠAp ollo
ĠIb rani
Ġkompl ek
enj angan
ĠCen taur
Pr esiden
Ġmenghad iri
oks in
aktif kan
Sek olah
Dir ektur
awar sa
olong kan
Kons ep
Ġpeman faatan
utip an
ĠWis nu
serv atorium
ĠGK PS
Ġinteg ral
Ġfed eral
ĠFI FA
Ġrad ikal
ĠVene zuela
implement asikan
A sia
B is
S ch
f ilm
f oto
k ins
u ens
Ġ Å
Ġ umpan
ar s
al us
Ġt urnamen
Ġb lu
Ġb akal
Ġdi lah
on ment
ik ulum
ap ar
ĠS ai
ĠS eg
ĠS akit
ĠP ag
et il
ada annya
ur ai
ĠM ov
ul ik
ĠK ah
ĠK end
ung sinya
Ġh ama
Ġh ambatan
ĠD y
ĠT um
Ġ2 50
ĠR h
aw e
aw inan
eg asi
ay angkan
ĠH us
ĠH ir
atan an
ĠL abor
ĠL aporan
Ġf osil
og er
amp ai
angg apan
Ġpro gresif
ĠĠĠĠĠĠĠĠĠĠĠĠĠĠĠĠ ĠĠĠĠĠĠĠĠĠĠĠĠĠĠĠĠĊ
Ġdib atalkan
ob ot
le i
Ġkel el
Ġdis ampaikan
Ġdip an
unc il
ĠCh ur
angs ang
pr ess
esiden an
ĠSep ak
Ġtel eskop
Ġdic etak
Ġ13 7
ast ro
atuh kan
Ġko ordinat
ĠPeny el
eph en
ĠFir st
Ġgraf ik
ĠAward s
ĠUr usan
Ġkarier nya
Ġungg as
Ġketer ampilan
Ġsaud aranya
Ġmerug ikan
6 2
H ubungan
H TML
I gn
P dt
b ul
c y
c on
c os
l embaga
m it
r m
v asi
Ã ±
Ġ *
an ai
Ġd ini
Ġm arah
Ġp ahlawan
Ġt ari
Ġb o
Ġb ub
Ġdi trans
is on
ik onduktor
ĠS T
Ġmem atikan
ĠT ub
Ġdengan nya
Ġj endela
Ġr adar
Ġn ar
Ġn ark
ĠJ ean
ain e
Ġc etak
ĠG ib
Ġ19 17
Ġse wa
ent ase
ot eknologi
op ter
int egr
ri e
Ġsek adar
ĠY osh
ni e
ĠAn alisis
ode Ign
Ġhar inya
Ġdir asakan
uc ut
ĠSt e
Ġangg ur
ĠPeng h
Ġkr ipt
Ġbel ahan
Ġbel iau
ungg ah
Ġtrans p
ĠUt sman
Ġkont es
Ġalam at
ĠâĪ ŀ
Ġ193 4
ock et
198 9
co ver
ĠCo chrane
ĠSec urity
ĠKed uanya
ĠMe iji
ĠSk otlandia
Gen us
Ġtik us
ĠMoh ammad
ĠFed eral
vir onment
Ġcac at
stal asi
Bel anda
ĠTex as
ĠInfin iti
Ġamin o
Ġdas awarsa
Ġkemen terian
Ġdilah irkan
odeIgn iter
. ),
8 3
F itur
K eter
S ej
Y ang
d uh
k ala
k uran
t od
Ġ eng
en ag
Ġp ik
Ġp ower
al el
Ġs um
Ġs irip
Ġdi visi
el m
ik awan
ai b
Ġmen eliti
Ġmen ampung
Ġl uk
Ġl isan
ari ota
ĠA plikasi
ul ingkan
uk un
ĠB oh
Ġmem elihara
Ġh y
Ġh abis
ĠD esign
Ġmeng ind
Ġmeng uji
Ġmeng inginkan
ro y
Ġr ub
Ġpen al
Ġke indahan
ĠC a
ĠH utan
ĠL ink
ĠL ive
Ġc endekiawan
Ġc akupan
ĠG usti
os hi
Ġsel aku
Ġsel ektif
int ar
Ġak u
Ġdit emp
Ġkel emahan
ch witz
ver n
Ġdip enuhi
Ġ3 4
Ġ3 7
Ġsej ati
ons truksi
Ġsu aminya
ja z
ĠSel uruh
Ġmelakukan nya
han i
ĠPeng etahuan
Ġkeh ormatan
Ġberp eng
ersi hkan
Ġberj uang
men erus
iv es
Ġpenj aga
sik ologi
qu es
Ġanti b
Ġsk enario
Ġprib umi
ĠBl ok
ĠPers atuan
rah man
ĠPortug al
Ġprodus er
cr ip
Ġmagn et
ĠChem ical
ĠFrancis co
Ġdiperd agangkan
Ġminim um
C ara
H asil
P KI
S F
S cript
T aman
b ola
d ia
g ar
h r
k ini
z y
ģ ¡
Ġm dpl
Ġp akan
Ġs tu
Ġdi agnosis
el uk
ĠS umb
ĠS erangan
Ġl olos
et to
ol at
ĠM ulai
ĠA ff
ul ihkan
ĠB lo
id es
Ġh as
ĠD eb
ĠD istrik
Ġj uara
im edia
emb unyi
Ġpen amp
Ġke gunaan
ĠJ aringan
ĠH ewan
Ġc angk
isi han
Ġw artawan
ĠF aktor
ot asi
ver se
ev ed
Ġpel ajar
Ġman ajer
Ġhar fiah
est e
Ġdid istribusikan
ern aan
Ġ8 5
Ġmengen ali
ĠMal aya
Ġkol am
Ġlog istik
Ġterj ual
ater ai
egun aan
ĠEr n
Ġpelunc ur
ĠTechn ics
Mod el
Ġtant alum
Ġkapital is
Ġdihad iri
Ġrup iah
ĠEduc ation
akm uran
ococ cus
EIT s
I R
K amp
O K
W F
d ent
l ak
s uku
Ġ ]
er na
Ġm uk
Ġp ri
ang er
un ar
Ġdi awali
el apan
il ya
Ġl akukan
et s
et aan
Ġber encana
ut akhir
Ġter asa
us e
ul aran
ul tasi
ĠK DE
ĠB ud
id u
ĠD er
ĠD KI
om al
Ġmeng or
Ġmeng ajarkan
Ġmeng awasi
ĠC yanogenMod
Ġg erbang
ĠN ations
ĠL ove
ĠL loyd
Ġpeng amat
ĠF at
os s
gr es
ĠY aman
Ġmend atang
Ġmend uplikasi
Ġmas ak
Ġkel ebihan
ver t
Ġdip anggil
Ġpend anaan
Ġkes enian
re asi
und uran
ĠAr th
ĠPro tokol
Ġses ama
Ġses udah
pl an
ĠMen ara
ĠSt asiun
Ġberl okasi
Ġâ ģ¡
Ġpenc ernaan
ĠAk u
Ġpanjang nya
ĠâĪ «
Ġperl akuan
enn y
sek itar
ĠBl itar
Ġul ama
inf ty
Ġref er
Ġtab let
ĠFre e
ĠPolit ics
ĠUE FA
ĠPerp ustakaan
Ġnanop artikel
ĠKast ilia
Ġberkomp etisi
4 00
B entuk
C P
C on
D ua
P i
S G
V irus
s atu
u v
Ġ ajang
Ġp aham
Ġp angkal
ak tivitas
un it
Ġb unyi
Ġk utub
am ida
ik ator
ĠP ekerja
Ġmen ud
ĠA B
ĠA st
ĠB ut
ĠB ahan
ĠB rig
ep er
ep ung
ab eth
Ġpen asihat
ih atan
Ġf t
Ġmeny al
âĢ ²
Ġpem usnahan
ĠO rig
Ġv isi
ec tor
Ġdik umpulkan
Ġdik ategorikan
ĠPr es
ĠPr abu
ĠPr asasti
av id
erb aijan
udah kan
Ġab out
Ġ9 5
Ġdih uni
Ġdih ancurkan
Ġterp adu
Ġmin oritas
Ġperk otaan
Ġberj angka
Ġmener uskan
Ġger ak
Ġpenggunaan nya
ĠSy am
Ġkol aborasi
Ġut ang
Ġtubuh nya
Ġmenyel idiki
ĠBand ara
Ġfr asa
bi asanya
ĠDem okrasi
ĠCon n
Ġpad uan
ĠGu inea
ĠMed iter
Ġsis anya
ĠPD B
Ġperg eseran
Ġmembah ayakan
Ġmagn esium
ĠWik imedia
Ġnot asi
ordin ator
ĠLet nan
ĠUN ESCO
Ġpencipta an
inam ika
ampi ons
Ġjej aring
ĠInst agram
B ar
D is
I ni
M ah
P ar
P roduk
] .
b atas
d in
l ek
Ġ imb
Ġ ungu
en tif
Ġp us
al angan
Ġt awar
ai re
Ġl adang
Ġber ujung
um usan
ĠM andiri
ul ir
ĠB ani
Ġmem anjang
id aya
ĠD C
Ġun tai
Ġr asional
ian ce
Ġke ahlian
eg en
ĠJ oko
Ġg adis
ĠN ad
ĠG M
Ġf luk
Ġpeng er
ĠW arisan
ot ida
uj ur
Ġant rop
Ġdit awarkan
Ġ3 8
mas in
enc er
li ografi
ĠAr j
Ġkomp ilasi
ĠZ aman
ell ite
fr am
ĠAd ministr
our ces
ĠOr der
Ġis inya
Ġpengh asilan
pen y
res entasi
por a
ogen ik
ĠKeb anyakan
ĠDem ikian
ĠPet rus
ĠPi er
Ġth r
rah im
Ġer osi
arget kan
Ġkonstitusi onal
Ġbet on
Ġrevolusi oner
etri eved
Ġkapital isme
ĠPlay Station
Ġpengec ualian
Dep uti
antum kan
ĠEmp at
ĠVictor ia
ĠCard board
ĠPhilos ophy
ĠØ§ ÙĦ
B it
H ow
K or
h og
w o
y akan
Î ¹
er ator
Ġs utradara
Ġt ump
Ġdi uji
am ad
Ġy akin
ĠS idang
asi oner
ĠM u
ĠM ir
Ġper und
ĠK H
ĠK oto
ĠI M
ĠD it
ed udukan
Ġpen etapan
Ġ19 00
Ġw awancara
Ġmemb atalkan
Ġtidak lah
ip as
Ġmeny us
os ter
Ġkon v
Ġdib eli
Ġdib ubarkan
Ġkem iskinan
Ġberb atasan
asan nya
Ġpemb inaan
Ġbesar nya
Ġterb alik
Ġsej ajar
ont an
ont ak
Ġterd engar
entu h
ĠCh ampions
Ġkom edi
Ġpers ek
ĠZ i
Ġterp enting
las h
Ġma zhab
awat ir
Ġis timewa
Ġlap is
Ġdok trin
Ġsifat nya
198 3
ĠCo uncil
ĠSe iring
kh old
ĠStudi o
epak ati
ix on
ras ah
Ġintel ijen
Ġeksper imental
ĠFed erasi
Ġmengab aikan
Ġfl eksi
Ġkontroversi al
ativ itas
mah era
onesi an
Ġdimak amkan
Ġnas abah
ĠAlban ia
O p
P erd
S ultan
h ati
i grasi
m ond
n as
o or
p un
s q
w ig
Î º
Ï Ĥ
er apura
at s
eb uran
ĠP on
ĠP ajak
Ġl ine
Ġl ampu
Ġl ereng
ĠM ie
ĠK od
ung ro
Ġmem udahkan
Ġh aji
ĠD M
ĠD PD
Ġmeng u
Ġmeng undang
Ġmeng onsumsi
Ġmeng angkut
ĠT ay
ĠT emp
Ġj ahat
Ġr adang
Ġke unggulan
ĠN obel
Ġad aptasi
ac o
Ġ19 28
og e
angg ih
he wan
osi tori
Ġkep olisian
ĠY amaha
Ġmend asar
ĠAn om
Ġpel ep
ĠPr am
Ġmemper siapkan
ĠIs land
tim ologi
ĠHal l
Ġdij uluki
Ġpenj elajah
Ġ193 5
Ġga ji
Ġtah ta
ĠJohn son
Ġband ara
ID S
ĠMo z
enti an
Ġmolekul er
ĠEr ic
Ġlemb ut
Ek onomi
Kons titusi
Ġhist ory
Ġpeman asan
seb agai
ĠChr istian
Ġreal itas
Ġaut h
Ġpid ana
ĠAnt ara
ĠAlex ander
ĠNas ution
ĠStrateg i
ĠDek larasi
Ġpriv at
ĠHidayat ullah
Ġhorm on
Ġtud uhan
integr asikan
khold eria
D R
F r
L agu
N H
N ational
S O
T S
d ib
g ua
r d
Ġd etail
Ġs logan
Ġb il
Ġb icara
Ġk aitan
el uler
ik um
ap usan
or dial
ĠS ipil
et o
ag edi
ut amakan
us k
Ġper ayaan
ĠK ak
ĠB est
ĠI A
om isin
Ġmeng infeksi
ed iksi
ĠR ot
ĠN ap
ĠH erb
Ġmel ingk
Ġmemb andingkan
ĠF iat
os intesis
Ġdib uktikan
int ik
uj a
ĠV I
ĠV aksin
Ġmas jid
Ġdis kr
Ġdis erang
Ġat ap
Ġas ap
ĠAn th
Ġsu ami
ont akan
Ġdim ungkinkan
Ġkom entar
aksi s
Ġperm ais
ĠSt one
Ġberh arap
ĠSo und
Ġz o
ĠAk si
ens us
Ġkal sium
ili asi
gen re
Ġmengan ut
ĠSy ariah
Ġhubungan nya
ĠTr ib
urn alis
Ġtah apan
Ġjam inan
ĠUm ar
arg ai
Ġrep ublik
Ġrep roduksi
inc ian
Ġped oman
alon kan
Ġmus lim
sol ut
Ġbus ur
Ġakadem isi
Ġresi stensi
Ġme yak
ĠTro t
Ġpemul ihan
Ġkepad atan
ĠLang uage
iku id
opuler kan
reh ensif
ĠAus chwitz
ĠBengk ulu
D V
H e
K elompok
N e
S al
T anda
W eb
b al
j uh
k ek
k omun
o es
o ch
p t
p as
p ing
s em
Ã £
Ġ >
Ġ qu
Ġm edi
Ġp or
Ġs umbu
Ġt aks
Ġt atanan
Ġb h
ad oks
el asi
ĠS ifat
ol in
it t
um avati
ĠK ud
ĠK elas
ĠB io
Ġin ci
id i
id rat
Ġj enjang
ro duction
Ġr awa
ĠR ud
ĠR ena
Ġpen inggalan
Ġn antinya
ĠN ir
ĠH aji
ub is
ĠG em
Ġf usi
ent h
ĠW anita
Ġw ewenang
angg ota
ĠPer iode
Ġdik ritik
Ġmend eskripsikan
ej abat
Ġsem ikonduktor
Ġal el
Ġkel aparan
Ġan im
tur es
ig ur
Ġman is
ug us
if er
Ġpeny emb
Ġberd arah
versit y
Ġpers atuan
ĠPen ulis
Ġberp utar
ord ania
Ġmat riks
Ġtrans formasi
abil ity
Ġperd ata
ĠSur ya
Men teri
ĠPang lima
ĠMin or
Ġpar alel
Ġterbentuk nya
Ġko alisi
ĠKomun itas
Ġtemb ok
Ġlemb ah
Sek retariat
Ġpal su
Ġny aman
Man faat
ez er
ines e
esti gasi
ĠÏ Ģ
Se ek
ĠJac ob
Ġumb i
ĠInj il
ĠMID I
hog unan
8 1
A plikasi
D I
N et
T eknik
U C
U K
U p
b enda
d s
f itur
j urkan
o alan
x el
y lob
Ġ ),
Ġm ini
at um
Ġt en
Ġt awanan
ak ibat
Ġdi v
el olaan
eng er
eb an
is sion
or b
ĠS L
ĠS n
ĠS ta
ĠS uci
ĠP ari
ĠP ekerjaan
Ġber evolusi
ur ian
asi c
ĠA j
ul unya
Ġper umahan
ĠK ac
ĠK ali
ĠK ey
Ġmem in
Ġh uman
ĠD ian
Ġmeng elilingi
Ġun t
Ġj azz
ab au
ĠR etrieved
Ġpen angg
Ġpen arikan
ĠC op
ĠJ er
ĠH as
ĠH otel
Ġf armasi
ĠW HO
Ġmemb iarkan
ĠInd erapura
ĠPer encanaan
Ġdib akar
Ġdib uang
Ġkem unculan
Ġdik embalikan
ni v
Ġdis erap
Ġ3 9
if era
ĠAr ya
ow ongan
Ġtr aktat
ank si
fr ont
Ġbel i
engk ung
Ġkal k
uf f
An ak
Ġlog is
Ġ193 7
Ġanti gen
ĠEx tra
Ġpet ir
Ġdiperl uas
bi ologi
AN G
tic le
ĠMon ako
Ġep idemi
Ġbal apan
Ġhad apan
erus nya
ĠDh umavati
Ġeksp ansi
ĠAz erbaijan
Ġmaksi mal
Ag ama
sic s
ĠWid odo
Ġoptim al
Ġmutl ak
ĠAstr onom
ĠSerb ia
/ ,
G u
H ar
W il
b ers
d angan
m s
u atu
y on
Å Ĥ
Ï ģ
Ø ¨
Ġ á
Ġ elit
Ġd osa
Ġd angkal
Ġp ap
Ġp ekan
as ter
Ġt ent
Ġt utup
Ġt injauan
Ġk ancah
Ġk ucing
Ġdi agram
el ektr
il iran
ĠS he
ĠP L
ĠP ublik
ĠP dt
Ġl edak
Ġber isiko
ĠK ot
ĠB BC
ĠT ern
Ġj ual
ro und
ian to
ab arkan
Ġpen awaran
Ġn irk
ĠN y
ĠN eg
ĠH op
ĠG KI
Ġf asis
ant ah
ĠW all
Ġmemb angkitkan
Ġmeny aksikan
Ġpem ukul
Ġv i
Ġdik laim
Ġak sara
Ġsek uens
af siran
uj aan
Ġset erusnya
Ġdit arik
19 45
Ġkel ainan
Ġpel aksana
Ġpel opor
Ġmengh ilang
Ġterl uka
Ġ5 5
ĠIs timewa
Ġpers onal
omb e
Ġtr uk
ond ok
Ġdih apus
Ġmat ang
Ġdata base
Ġind ah
Ġdig olongkan
Ġditu turkan
kr ip
osis inya
ĠTr adisi
sk up
ĠRe ader
ĠUm ayyah
ĠSen jata
Ġmew ah
Ġdo a
Ġdo om
Ġku il
ĠInv est
Ġsepak at
omas sa
Ġmengarah kan
presi kan
ĠBos ton
ĠFlor ida
ĠSeri es
Ġmark as
Ġmatemat ikawan
ombinasi kan
ingu istik
Ġdemonstr asi
Ġblu es
A fr
E B
E timologi
P roduksi
S in
c ontoh
r umah
s un
t anda
Ġd ugaan
Ġm eja
Ġp intar
Ġs ak
Ġs olo
as isme
ak er
ak ia
si h
ap likasi
Ġmen embak
Ġl atihan
et i
ing rat
ĠĠĠĠĠĠĠĠ ĠĊ
ĠM r
ĠM isi
ĠA N
ĠA uth
ĠA wal
ĠB ath
Ġmeng as
ĠT od
ĠT amb
ĠT indakan
ed d
ĠR a
ĠR ib
ĠJ i
Ġg ambaran
ĠN an
ĠN ixon
ok asikan
ok alis
ok aus
ub uran
ĠG ua
Ġ19 25
ant el
ot on
itu do
ip s
uga wa
Ġsep er
op le
ĠĠĠĠĠĠĠĠĠĠĠĠĠĠĠĠ ĠĠĠĠĠĠĠĠĠĠĠĠĠĠĊ
Ġak ustik
omp a
ungk us
ungk apan
re ad
oc al
ow l
Ġsp ektrum
uc tion
Per angkat
Ġterp usat
eter min
Ġtel inga
Ġperk awinan
Ġberj arak
Ġrek or
Ġop osisi
Ġterc antum
Ġim igran
ĠKed okteran
untu han
Ġped alaman
Ġsik lon
Ġam endemen
ĠEng lish
omo tif
Ġend emik
ĠHol okaus
ĠFrank lin
Ġdidapat kan
Uni versitas
Ġsand al
Ġelekt ro
Ġkompati bel
Ġmask apai
Ġnasi b
udid ayakan
Ġdor ongan
Ġdiken ali
? "
K ap
M ed
N O
T i
V ideo
] ,
j ad
k ode
l ai
s asi
w ujud
z ine
å ¤
Ġ usah
an isme
en ch
at r
un ter
Ġb ung
Ġb au
em atic
kan tor
ik h
ĠS is
Ġl ihat
ag anda
ĠM uk
ĠA ch
ĠA sian
ĠB ila
ĠB adai
ĠI X
ĠD onald
ĠR asa
ĠR yan
Ġpen utur
ĠC ross
Ġg im
Ġg andum
Ġc anggih
Ġ19 24
Ġf aksi
ant s
Ġse olah
ĠW at
ĠF all
ind u
Ġdik elompokkan
ob atkan
gr up
Ġset ia
Ġmas akan
Ġpemb al
Ġpemb ersi
Ġker aton
Ġpr olet
ont aminasi
ug ht
und angan
Ġmemper b
Ġkom isi
Ġsp in
Ġsp ec
isa u
Ġterk ini
Ġpas por
ĠPem ain
ĠSt andar
ĠSt ephen
Ġkh awatir
Ġbentuk nya
ĠTim e
ond o
Ġterp apar
ĠEn erg
ĠMal l
Ġditu duh
ĠMas alah
ens asi
isti c
ĠEk spedisi
Ġhid angan
ĠEd ition
Ġge ologi
ĠDem ocr
Ġkonf igurasi
ĠHe in
her e
Ġneg osiasi
196 6
ĠSang ha
rib ut
uisi si
Ġmi grasi
ĠCE TA
usti ce
Ġmo tivasi
Ġtem peratur
ĠElec tron
Ġsaw it
ĠYas min
ĠColumb ia
elus uri
ĠAndr ew
Ġmenud uh
Ġpermais uri
7 00
C odeIgniter
D esa
E v
G A
M usik
P al
S ing
T ipe
a una
b us
l angkah
m ula
r ang
z ation
} {\
Ã Ĺ
Ë Ĳ
ar jo
Ġm ain
Ġm utu
Ġp ariwisata
Ġp otongan
Ġt ag
Ġt omat
Ġt emuan
ak ala
Ġb aterai
Ġk apan
Ġk ubah
Ġk lan
Ġdi isi
Ġdi timb
ad uan
eb us
it aan
ut ch
ĠK uw
ĠK PU
uk e
ĠB ig
ĠB angunan
ĠB erg
id ap
ti wa
Ġmeng usir
Ġ1 18
Ġj utaan
Ġr empah
ĠR y
up uk
Ġpen amaan
ud akan
Ġg ran
Ġad v
ĠL ud
Ġc or
ĠG ames
Ġ19 22
end um
ĠW aktu
ĠE li
ĠU j
Ġpem ilih
angk abau
op ak
esar kan
Ġkep r
Ġmend engarkan
Ġmas ukan
Ġdit embak
oh idrat
Ġdip asarkan
arah kan
ov an
Ġbi ometrik
ont o
entu m
Ġmenggunakan nya
Ġor do
anc ing
av irus
uc ian
omb ia
Ġdih ukum
engg ung
Ġdig elar
Ġpenc apaian
ĠAb b
Ġdek larasi
Ġdep artemen
ens in
Ġefek tivitas
Ġmengan jurkan
Ġpengh asil
arn aan
ĠTel evisi
ĠIb rahim
Ġterg anggu
ĠPan ama
ĠPet erson
ĠDav is
sist ensi
Ġdew i
ĠSc ott
ĠKomp as
ĠSar jana
ĠTro ya
zo ikum
Da erah
embal inya
oj ust
Ġkesi mpulan
mathb f
sebelum nya
A f
J alur
K egunaan
P ak
R O
b k
b entuk
d own
h it
m ing
m ed
o ga
r ologi
t ensi
x y
Ã ¢
Ġm ac
Ġm aya
Ġm iring
at han
in son
ak us
si cal
ĠS amb
ĠS imp
ĠP E
Ġl an
ol ow
ur ahan
Ġter endah
ĠM am
ul ah
Ġper ed
ĠK ara
ĠK id
ep ungan
Ġh a
Ġh em
om agn
ĠR iau
ĠC and
ĠC ulture
ĠG il
Ġf ir
ĠW isata
Ġw ork
ĠF ood
ĠU skup
ĠO ut
Ġkar et
op tim
ec tive
Ġdik urangi
ri ve
aman nya
af er
ĠY esus
uj if
Ġpemb aruan
Ġker ucut
sa u
ĠAm b
ĠAl f
umum an
di um
Ġkeb angkitan
sit ek
isasi kan
Ġ4 1
Ġpeny erahan
Ġkom ite
uc lear
Ġberl ayar
ĠPeng urus
of olio
ulis tiwa
ĠIS SN
Per janjian
Ġseluruh nya
Ġte ologi
Ġis olasi
14 5
Ġsejarah nya
Ġrek lamasi
Ġnasional is
ĠRe aksi
ost asioner
iaya i
ĠAp pl
Ġe uk
organ isir
ĠCon ference
ĠUmum nya
Ġko ordinasi
enj ar
ĠCen tury
ĠMa ur
ĠBanjar masin
Ġsur vei
ĠHak im
ĠDip onegoro
ĠKek ristenan
Kem udian
ĠArch ive
Ġpred ator
Ġsing le
ĠAug ust
Ġrit me
add afi
adw alkan
ĠPrab owo
Ġluk isan
sq rt
M ul
N S
P O
P in
S er
U I
b ank
h ard
k ada
p irasi
t itik
u asan
Î ½
Ġd osen
Ġs urut
em o
on ium
or um
ĠS ong
ĠS anto
ut ang
ur ig
asi at
ĠA R
ul asikan
Ġper anan
Ġper gantian
ĠK ew
ĠB ond
ĠI kan
ĠD ef
ĠD okter
om od
ĠR D
Ġpen afsiran
ud e
Ġg un
ĠN ar
ĠN ord
Ġ19 19
Ġ19 26
Ġse ekor
per ma
Ġmemb uang
ĠE t
ĠE mas
ĠF u
ot in
ic on
usi m
anj iro
ĠY amin
Ġpemb unuh
Ġas isten
ĠAn aly
di am
Ġ4 4
Ġpeny usunan
Ġpeny esuaian
Ġag reg
Ġsen ang
Ġsen apan
Ġdid orong
Ġdid esain
Ġ5 6
uc e
Ġpers entase
ĠSt andard
ort asi
ill y
Ġ8 8
engk u
ĠAc cess
Ġsub ur
ebr ata
ĠKes atuan
Ġpand uan
Ġdr astis
Pem erintah
198 2
co unt
Ġhi er
Ġpsik edel
erit age
ĠLib eral
ĠOrgan ization
Ġdinam ika
ĠBur kholderia
Ġpersen jata
Ġdikirim kan
Ak hir
Sek retaris
ĠSm ack
Ã¼ r
Ġfot ografer
ĠSuk arno
Ġsul fat
bil ity
ĠAll iance
ĠLong ga
Ġmo tif
tain ment
Ġemp iris
empurn akan
ĠBrah man
Ġsensi tif
Ġtangk i
ĠTang erang
ĠKamb oja
htm l
ĠChur ch
Ġmeyak inkan
ujif ilm
= \
D ata
D NA
H ingga
L ayanan
O k
P an
S ay
a ing
h asil
k s
n es
n ica
v irus
Ġ ambang
Ġ utuh
an us
er os
er imaan
at wa
al es
Ġt eh
Ġt uanya
tu lis
ik l
ĠS uara
ag men
ut ri
ut to
ur ah
ĠM az
Ġh er
Ġh or
ti a
ĠT entang
ĠT ahap
ĠR od
Ġn iat
ta uan
ay anya
ĠH ampir
ĠIn str
Ġc etakan
ĠG angguan
Ġ19 21
Ġf und
Ġf estival
end ang
ĠW ood
Ġmemb entang
angg ang
Ġser agam
op ro
op her
emp ur
Ġdik erjakan
art ment
Ġmend i
19 78
Ġpend akian
Ġpeny erangan
Ġkomp rehensif
Ġsen ilai
erb u
ĠIs kand
Ġek st
form at
Ġab solut
Pen j
lo ud
ĠMus a
elaj ar
arl y
Ġtujuan nya
Ġkor an
ĠFebr uary
ĠQ ue
Ġkontr as
198 6
198 7
ĠWil son
Ġmit os
ĠAy u
Ġpo int
Ġkak ek
Ġdieks ekusi
Ġmenutup i
ĠVir g
ĠStu dy
Ġrok ok
kons ep
Ġliter atur
ĠJoh ann
Ġkac ang
ĠPerj uangan
ĠFried rich
Bib liografi
Ġkomplek sitas
ĠMediter ania
A C
B U
C ar
D eskripsi
G ejala
J an
L S
h ukum
n ard
p ed
ar ge
Ġp adang
in as
Ġs amb
Ġs irk
un ikan
Ġb andar
Ġb upati
ĠS eda
Ġl intasan
it ec
us ung
ĠM ang
ĠM embangun
ul ainya
ĠK ay
Ġmem uji
Ġmem otong
Ġh oriz
ti ga
Ġmeng utip
Ġj as
Ġr om
Ġn g
ud ahan
aw ang
ĠJ l
ĠL ist
ĠL iv
Ġc ucu
ĠG ad
Ġf ungsinya
ent ikasi
Ġpeng ab
Ġmel edak
od al
ip an
angg uran
os fat
Ġpem ind
op s
ef ak
osi asikan
ew ork
ala ikat
st ant
Ġant is
Ġas alnya
Ġberk edudukan
Ġbers atu
Ġmet od
Ġkons ervatif
ĠEn t
Ġmengan alisis
Ġfor um
Ġrek reasi
oy o
Ġkeber adaannya
ĠEx cel
ect s
Ġkam u
Ġrep resentasi
sy aratan
197 1
enj ak
ĠMed ic
pro gram
kh u
uny ikan
Ġinstr uksi
ĠBers enjata
Ġmenikah i
ĠWal ter
Amer ican
Ġbersa udara
Ġteor etis
Ġprim ordial
ĠStan ford
acter ia
ĠSpec ies
ĠWes olow
perial isme
ĠWan ua
ĠAth ena
ĠLew is
Ġadap tif
Ġbon eka
ederhan akan
Ġkey board
ĠNug ini
Ġinterpr etasi
tod oks
Ġantib odi
ĠTrot sky
ĠWesolow ska
6 00
8 00
D o
I r
K arakteristik
O D
P es
P eri
S ik
T O
c ons
d el
l v
n ess
o z
o an
t z
v ana
w ah
Ġd atar
Ġm orf
at ulistiwa
Ġs aksi
Ġs iber
Ġs anksi
Ġb u
Ġb eku
Ġdi are
am o
am is
el le
ik khu
ĠS A
ĠS r
ĠS ara
Ġl et
Ġber in
Ġber awal
Ġter as
um as
ĠM angk
ĠA ji
id er
Ġseb aik
Ġr evisi
Ġr agam
Ġpen ekanan
ĠC las
ĠC iv
ĠJ une
Ġg u
ĠIn n
ac unan
ub le
Ġ19 23
Ġ19 05
ent anan
Ġpeng ungsi
Ġmemb erit
os tr
ali kan
Ġpro to
ensi a
Ġv alid
aran i
ob acterium
Ġsem ata
Ġsem enjak
Ġdis arankan
Ġberk om
ĠAl fred
form a
Ġpers el
ij ing
Ġproduk tif
Ġkeh ancuran
ank ton
Per istiwa
Ġmin osiklin
engk eta
Ġâ ĭ
rom e
Ġpan el
Ġterakhir nya
ĠDr s
ĠStr uktur
okus kan
Ġge ostasioner
Ġfr ont
sek olah
ĠSam udera
Ġtugas nya
Ġins ulin
197 9
ĠBar ito
ĠKap ol
Ġsaham nya
sh ip
Pr asasti
ĠLa ur
ĠTok ugawa
Ġteks tur
Ġbay am
ĠSk y
Ġtemb akan
Ġgitar is
ĠKej adian
gaw ati
Ġwisata wan
Mas alah
Ġplas ma
Ab d
Ġdirek am
Ġdirek omendasikan
ĠStan ley
ĠSud an
Ġkan al
Ġpur ba
Austr alia
resent asikan
Ġnark oba
) ^{
B alai
G L
J aringan
L in
P ort
a q
b ulan
d ay
d ua
j alan
k en
q uar
t et
t unya
È Ļ
Ù Ĳ
er ence
Ġd eskripsi
Ġm ol
at om
at inya
al d
al ipun
Ġs arang
Ġs ilang
Ġt arian
Ġdi arahkan
am ik
am ic
si stem
eb ak
ik o
or es
ĠS ingk
ĠS iwa
ĠP ahlawan
Ġmen trans
Ġmen emui
Ġmen embus
Ġl amp
ol itan
Ġber st
Ġber eks
Ġber adaptasi
ari si
Ġper olehan
ĠK and
uk le
ĠB ac
ĠB rown
ir idae
Ġj urnalis
eh avi
ia e
im ir
ĠR adi
alah gunaan
Ġg luk
Ġg anti
ay er
Ġmer ata
Ġmer encanakan
Ġc el
apat i
ĠG it
Ġf e
ant as
Ġmeny usul
os er
âĢ ³
int ahkan
ni ght
Ġpemb ah
Ġkel angsungan
Ġker agaman
Ġket i
Ġmenc abut
utu ran
ons o
unc ing
tan yakan
Ġbers alah
Ġbers edia
Ġ4 7
ĠMar ket
aga zine
emen angan
In f
Ġsetelah nya
arat kan
iap kan
Ġdih ilangkan
ĠAd obe
Per mainan
Ġro tasi
Ġtel eg
ĠSp esi
ĠKom andan
Ġmengg erakkan
ĠAk h
Ġmener us
ĠRep ubl
osisi an
ĠKab aret
iv idu
hi e
erv ation
Ġkeber l
198 0
198 1
ĠMin angkabau
Ġmew ujudkan
ĠMet ro
Ġmilik nya
ĠRo utl
Ġperc akapan
ĠMad ura
ĠWh it
Ġti ang
osp ital
akh stan
Ġtun duk
ĠProt ocol
Ġsing el
uton ium
Ġoksid asi
Ġpolimer ase
ĠPenerb angan
Ġfer mentasi
ĠEst onia
ĠDick ens
Eur op
omal lei
ylob acter
Afr ika
Ġpersenjata an
ĠIskand ar
ĠRoutl edge
A lat
K l
M aj
U R
g ma
h elm
i i
j abar
l en
t ator
y ad
ar as
in it
in itas
Ġt indak
ak unya
em ium
el ayan
ĠS ea
ĠP ay
ĠP ihak
ĠP ohon
Ġber sik
ag aan
ut her
Ġter gabung
us uhan
ul si
Ġper iod
ĠB re
ĠB anda
ĠB iz
Ġin spirasi
ir ahat
ĠT H
ĠT bk
Ġj uru
Ġr ug
ĠR ote
Ġn ik
ĠC ong
ĠC ov
Ġg es
ĠN abi
ĠH ome
Ġmer esp
Ġc ita
ĠG all
ĠG rig
ĠG old
Ġ19 18
Ġ19 12
aj anan
Ġmel odi
og ram
ĠE FF
ĠF oto
Ġmeny enangkan
Ġpro ton
Ġkem itraan
ind ler
ob ia
Ġsek retaris
ĠV R
Ġpemb aca
Ġan ime
Ġpend orong
Ġberk ep
man i
ĠPr insip
utan an
Ġatas nya
Ġked alam
ĠMar g
ard o
Ġwak tunya
ers ey
Ġproduk tivitas
aku asi
Ġap ot
ĠZ ona
tim ah
ĠPol a
Ġpes aing
antu an
Ġdig it
ĠHal mahera
Ġtak tis
Ġdij adwalkan
oksi d
aca uan
ĠRe ich
Ġmul anya
Ġmon opoli
ĠMin yak
ger eja
197 3
IS BN
Ġmeman tau
Ġperp indahan
ĠKong o
ultur al
Ġkerus uhan
ĠKomp uter
Ġsur ya
Ġmenemp el
ĠSer ver
Ġsil at
Ġbaw ahan
Ġmempr ediksi
Ġnit rat
ĠProduk si
Ġev aluasi
Sub bag
lad imir
Ġsint etis
ĠPlat o
Ġnil am
estr ial
Ġveg etasi
Kas us
Ġnirk abel
Ġusah anya
A wal
C C
G M
M ay
N G
P od
S m
\ {\
b udaya
d im
e ing
g aran
i asi
k ali
n on
n old
p ar
p ol
Ġ ombak
er ob
in us
al ib
Ġt est
Ġt awaran
Ġk od
el ine
eng aja
is ai
ik lan
or ia
Ġmen umb
ol aborasi
ag er
ag ikan
ĠM anjiro
ĠA Z
ĠK usan
ĠK ayu
ĠB eng
ĠB udi
ĠB unga
ĠT emb
Ġj urusan
ĠR S
ĠR oger
emb ilan
Ġpen anaman
ĠJ abatan
ĠJ ustice
Ġg alur
ĠH arm
Ġmer iam
ok ument
ain ing
ĠL an
ac ar
Ġc ak
Ġc om
ĠG at
ĠG addafi
Ġpeng ajar
Ġpeng urus
Ġmel atih
og i
Ġw as
Ġmemb ebaskan
os al
ĠO ri
emp eng
ew aan
Ġdik elilingi
ĠY ordania
ĠV isual
Ġpemb iayaan
Ġmenc alonkan
ĠAn di
duk si
Ġbi omassa
Ġdiper hatikan
Ġ4 3
Ġ4 8
Ġpers onel
ell er
18 0
ĠAs teroid
Ġpes ta
ĠDes ain
Ġkomun isme
ens inya
Ġdic irikan
Ġpenj ajahan
Ġ193 2
Ġmasuk nya
ĠGo od
ĠGo vern
ron e
Ġperl engkapan
oll y
ĠHar apan
ene wa
oro ti
Ġul tr
Ġdisi arkan
esu ai
Ġdiny anyikan
Ġmenyer ukan
ĠPD F
ĠKol onel
Ġpew arna
ven tion
ĠKas us
Ph one
ĠEp isode
Ġmar itim
Ġkarb ohidrat
ĠWah id
Berb agai
Off icial
ĠDeep Seek
Rob ert
ĠPac ific
Ġpseud omallei
Ġpendahul unya
ĠAstronom ical
( \
A F
J erman
K A
S im
b all
b ukti
e ase
s ul
t engah
er as
ang nya
Ġs m
as et
Ġb ack
Ġk um
Ġdi wak
em udi
el op
tu ran
ĠS ig
ĠP lan
es aran
Ġl ulusan
ol and
Ġter atas
ĠM ut
Ġper undang
Ġper unggu
id or
Ġmeng el
ed s
Ġr ongga
ian ya
ab l
ĠR UU
Ġpen ip
Ġke enam
ĠJ im
ĠH erman
ĠH eritage
Ġf in
ent asan
Ġpeng emb
Ġmeny angkut
Ġser tifikasi
Ġberb ahan
ĠY upiter
Ġmend istribusikan
Ġat ribut
Ġdip icu
Ġan eh
Ġsej alan
Ġbi ak
Ġmengh aruskan
Ġbers ejarah
Ġ4 9
Ġdid eskripsikan
ĠAg ency
ĠPen n
ĠPeng endalian
ell y
Ġterp engaruh
th er
}} {
Ġtrans kripsi
ĠMas ter
sp esies
Ã© r
oksi sitas
ĠBer kel
Ġdok tor
ĠRe agan
ĠAp i
Ġmenulis kan
ĠIr ian
io us
ĠCar ol
ĠSa udara
ãĥ ¼
Ġkarbon at
ĠSci ent
alif ahan
Or bit
Ġsul ung
Ġmagn itudo
ĠWh ite
Ġti ada
Ġtik et
Pert empuran
usn ahkan
ĠPerk embangan
bu ahan
oter api
eor ologi
Ġpangg ul
ĠEnter tainment
Ġkuant itatif
ĠThera v
Ġna ungan
ĠYam amoto
ĠTay lor
Peri ode
. );
P E
P at
R NA
S ifat
W alaupun
b au
c ur
d le
d ale
f ak
m und
p osi
Ù Ĵ
â Ĥ
Ġ orientasi
er apa
Ġd efin
en arkan
en ium
al inan
Ġs an
Ġt arif
Ġb edah
Ġk n
Ġk uar
Ġk urun
el ombang
ap t
il y
il lah
ĠS I
ĠS ib
ĠS tor
ĠS ug
ĠP a
ĠP opul
ĠP sych
et te
ut han
ĠM inggu
ĠK ita
ĠK ami
ĠB iro
ĠB isnis
ir ebon
Ġh amb
Ġh op
ĠI D
ĠT api
ĠJ as
ĠJ enewa
uh o
ĠN ed
ĠH ugh
Ġmer umuskan
ĠL as
Ġse arah
Ġpeng acara
Ġpeng awas
ĠW arna
ĠU NI
ib us
Ġmeny ir
he ad
Ġpro b
Ġsep utar
ĠO ver
ĠO man
ĠO cean
anj ikan
ec ehan
ind i
ĠY u
Ġal l
Ġket imbang
tor asi
Ġmengh alangi
Ġman ipulasi
Ġpol ar
Ġdid alam
Ġsp ontan
Ġek stensi
Ġpers ediaan
ilis an
Ġpenc emaran
Ġdek oder
sp ek
Ġsat wa
ĠDe ut
Ġdr amat
ĠStr eet
organ ik
ĠBo eing
Ġpar asit
ĠAngk asa
Ġsy ariah
ĠMed al
ĠAbd ur
ĠMe gawati
Ġdel egasi
Ġpl eb
Ġpenyel enggara
Ġken yataannya
Ġjatuh nya
lar asikan
Ġujung nya
ĠBat ara
Ġperal ihan
Ek s
anti um
Kem atian
ĠPo int
ĠMay or
Ġhib rida
amping i
Ġspir al
ĠSamp ai
Ġpred iksi
ster dam
Ġpemak aian
Ger akan
Is lam
ĠGeorg ia
Ġpangg ilan
Ġpingg iran
ĠRama yana
Ġarke ologi
Ġpemas angan
Ġsukar ela
Ġmengej ar
ĠKari b
Ġberkeb angsaan
Ġperund ingan
Ġpelep asan
okument asikan
B akteri
D ok
T op
\ ,
l ikan
o ir
p ihak
r ist
t el
u it
y ar
} -
á ¸
en berg
in ah
al ihan
Ġt enang
ak on
Ġb udi
Ġb undar
Ġk isi
Ġk awah
Ġdi mas
el li
on versi
ik mal
ap er
ĠS ad
ĠS ant
ĠP ek
Ġl aba
et arian
ing ati
Ġter or
Ġter per
ĠB any
ĠB erl
ĠB alik
ĠB ambang
ĠB uton
Ġmeng olah
ĠT empat
ĠR ektor
Ġn ode
aw ijaya
eg as
Ġc oli
Ġ19 10
Ġse waktu
isi al
isi da
Ġmemb uruk
ip edia
Ġmeny atu
Ġpem andangan
Ġsep asang
ĠInd ah
Ġdib udidayakan
ĠY ud
st one
Ġal fa
Ġdis usul
Ġdil atih
imp un
imp or
ĠAn im
tur n
Ġberk ala
Ġberk olaborasi
ev in
hadap an
Ġked i
Ġdiper timbangkan
Ġdiper intahkan
Ġpeny erapan
Ġpol usi
Ġor al
Ġsangat lah
ustr asi
Ġpers oalan
Ġab strak
ĠBr omo
of ilia
erd eka
ell ig
ĠPol icy
Ġmenunj ukan
ĠEn vironment
iz uho
Ġpenc ari
az ir
ĠMer ek
Ġger ilya
ura isy
Ġi Phone
entr isitas
Ġ193 1
ĠStr ept
ask us
ĠHar ry
ĠSal eh
ĠMo ore
Ġneg aranya
ĠSa ud
Pr insip
Ġperp ecahan
Ġberakhir nya
ĠEng land
row ser
Ġbay angan
ĠProf il
sil angan
ker ajaan
ĠKamp us
Ġbud idaya
abol isme
ĠJava Script
Ġrump un
ĠPublish ers
ĠOper a
ĠPes awat
ograph ic
ibut or
Pang eran
ugerah i
Ġinisi atif
Ġtransp aran
uthan asia
ikmal aya
1 10
B erk
B akal
G S
M end
S ed
c ita
d era
j aga
k ej
k ajian
k upu
p at
p op
p apan
s b
s ecara
y angan
z abeth
Ã ł
Î ²
á »
Ġ å
en ai
Ġp osisinya
Ġp isau
al ayak
Ġs un
Ġs ite
Ġt ungro
Ġb imbingan
Ġdi ajarkan
si onal
eb ur
or angan
ĠS op
ĠS oftware
Ġl inguistik
ĠK ini
ĠK egiatan
ĠB y
Ġin form
Ġin formation
Ġin stalasi
Ġmem uncak
ĠD ub
ĠT en
ĠT anggal
ĠT BA
Ġseb erapa
im eter
ĠR un
ĠR um
eg el
Ġg iliran
ta an
ĠH ay
ok i
ok et
ter a
ĠL etusan
ĠL embah
ac i
Ġ19 29
Ġpeng umpulan
ĠW aru
Ġw ijen
ĠF isika
od inamika
os kop
ĠO f
ĠPer c
ĠPer empuan
ind ar
Ġak sesi
ingk irkan
Ġberb uru
Ġmend adak
Ġpemb uru
Ġdis ek
Ġdip enj
Ġdip otong
Ġkes enjangan
Ġhar m
uas kan
Ġpol itis
Ġkek acauan
ini yah
Ġst atis
Ġar k
Ġar ca
Ġar sitek
Ġres toran
Ġbert epatan
ij aksanaan
ĠSt at
Ġkh alayak
ert on
Ġstr ain
ĠSp orts
Ġditu mb
ĠKom isaris
ĠX V
Ġpengh ubung
ĠTer p
ĠDe ezer
Ġinter aktif
ĠCo unt
aul t
Ġsy n
ĠMaj alah
ĠPor ifera
ĠMod al
Ġterh itung
ĠProf esor
ĠDin as
Ġland ak
Mas yarakat
ĠRef ormasi
ĠPart y
KB P
Ġpul ih
Ġpil ot
Ġnya wa
Ġbut ir
otr et
aft aran
ĠTas ikmalaya
ĠNash r
ĠKris tus
ĠNir vana
Ġpersel isihan
) )
B T
E m
H ip
R umah
S R
b angsa
d x
g g
l ight
m id
m asa
o ordinasi
r empah
u asi
er ra
en uhan
Ġm ad
Ġm antel
Ġs tim
ah as
Ġb obot
Ġk awin
Ġk ualifikasi
si sa
il ir
ĠP ati
ek i
Ġl ag
ol if
ĠM ilan
ĠM pu
ĠA L
Ġper antara
ara u
ĠK ro
ĠB all
Ġh ebat
ĠD al
ĠD arm
ĠD iction
ĠT R
ĠT em
Ġj anji
Ġj enaz
im alkan
Ġr inci
ĠR isiko
emb ung
Ġn um
Ġn av
Ġn ominasi
Ġn apas
ĠC ib
ĠC ry
ĠC agar
ih ir
ĠL es
ĠG an
ĠG et
ĠG ard
end ing
Ġmemb ersihkan
ip ut
op l
ĠInd onesian
Ġkon gres
Ġv okalis
ĠV ladimir
Ġdis engaja
Ġberk ec
Ġbar isan
Ġpel arut
unc uran
tan si
enc atan
Ġdim ulainya
Ġdiper gunakan
Ġdiper barui
ard jo
Ġterl arut
Ġdid ik
Ġperm ohonan
pl antasi
aris kan
tiv ar
ĠPen ingkatan
ĠAd at
Ġa udi
ĠRep ort
mb i
ĠX ML
ĠJan uary
Ġsub s
tob acillus
ĠIslam ic
Ġmak alah
ongk at
ou ch
Ġint egr
de eling
Pro yek
Ġelektr omagn
ĠEx plor
ask ar
Ġdiperl akukan
Ġed ition
ĠBritan nica
Ġperkembangan nya
ĠPemb inaan
Ġperan ti
Ġmus yawarah
196 9
etus kan
Ġdom inasi
ãĥ ³
ĠFr eder
ĠBh re
Ġprop aganda
ĠKej aksaan
ĠSat ellite
ĠPe arl
eal th
ĠEm ir
yaw aratan
ĠJo e
ĠEconom ics
Ġpersi dangan
ĠPolit ical
Ġpang lima
ĠHam id
Ġalgorit me
Ġri il
Ġtra uma
ĠSuh arto
ĠPrinc eton
ĠAyah nya
Ġalum inium
kam tib
Han zi
Ġrefer endum
front asi
ĠLud wig
Ġhoriz ontal
ĠGrig nard
Ġdramat is
% ).
' '
D PR
E AN
H ist
K O
K eber
L ib
P rancis
R p
W A
c le
h od
h utan
l un
n ia
r aham
s ing
s aat
v is
y eng
Ø ¯
à ¥
Ġ Ä
Ġ æ
en h
en ni
Ġp age
Ġp agar
al en
ah r
Ġt ingk
ak aian
Ġk aku
Ġk andang
Ġk embar
si bility
Ġy uris
eb atkan
is u
ĠS ari
ĠS ony
ĠP un
ĠP us
Ġmen aikkan
Ġber ta
Ġber apa
ing en
Ġter min
us yawaratan
ĠM D
ĠM emb
ĠK ehidupan
ĠB our
ĠD apat
Ġmeng erjakan
ĠT at
ĠT ol
Ġr amah
Ġn af
ud ik
Ġg et
ĠN ec
ay s
Ġ19 14
Ġ19 15
Ġpeng ajaran
end i
ĠW ind
Ġmel estarikan
ĠF PI
Ġmeny eber
Ġmeny iapkan
op t
ĠĠĠĠĠĠĠĠĠĠĠĠĠĠĠĠ ĠĠĠĠĠĠĠĠĠĠĠĠĠĠĠĠĠĠĊ
Ġdib aca
Ġdib iarkan
Ġkem irip
Ġkem arahan
omp osisi
ingg ung
st en
ĠV ista
Ġpemb antaian
Ġal jabar
Ġdis epakati
Ġpend engar
ĠAm sterdam
Ġberk ons
20 25
Ġpel estarian
istem ologi
di e
Ġkeb ah
ĠCh ap
Ġbers kala
Ġsp ek
Ġdir awat
pl ement
Ġek uitas
ĠPeng guna
eral d
urang nya
Ġind ikator
Ġâ ī
Ġdin obatkan
Ġte xt
az a
Ġkal ian
Ġkal ori
An ti
erg ian
ban kan
ĠKe anekaragaman
arn ing
sk ap
Ġberkembang nya
de ath
ĠAt om
ĠDa ud
198 4
ĠDep uti
Ġobjek tif
197 0
ĠSan ta
ĠMarx is
ĠBe ijing
Ġketu juh
Ġmenganggap nya
Ġlemb ap
Ġdif usi
ĠKol ombia
Ġnukle otida
anggal awe
ĠSab tu
Gr up
ĠPember ian
ĠJul ian
burg h
ĠAnton io
ĠBill board
Ġhektar e
Ġmutl aknya
Mat ematika
Ol impiade
Ġout put
Ġest etika
Ġli gan
Ġbersek olah
Ġmengur aikan
Ġintu isi
ĠBug is
Ġketerb atasan
Ġmisteri us
Ġkript ografi
Ġpenal aran
ĠArj una
Ġauth ors
Ġditimb ulkan
ĠSeda ap
A h
G I
J awa
K ur
L i
M e
P ember
Q ur
R ef
b ut
c ol
k in
l ihatan
o oh
r ence
s an
Ã º
Î µ
Ġ ilah
Ġ ingatan
er atif
Ġp aus
Ġs ap
Ġs engketa
Ġt ukang
un ch
Ġb asal
Ġb anding
Ġdi isolasi
or ian
ĠS ora
ĠP ra
Ġl ep
et ic
Ġber akibat
ag as
ĠM X
ĠM ek
ĠM ike
ĠA yat
ĠA rea
ul es
Ġper annya
ĠK uningan
uk is
uk im
uk ota
ĠB agai
ĠB ot
ti ap
Ġmeng ajak
ĠT ari
ĠT ugas
ĠT otal
ed ikasikan
eh at
eh ana
ĠR ad
Ġpen ump
ĠC il
ĠH is
ĠH ur
ĠL am
Ġc ab
ĠG ede
Ġf akultas
ant un
end ral
Ġmel engkung
per k
per imen
Ġw awasan
Ġw orld
ĠF itur
ot is
ic araan
angg anan
he im
Ġpem ujaan
op ot
ef isi
ĠInd ian
Ġv s
ingk ai
af f
Ġkel anjutan
ch ool
Ġpr eferensi
eri fikasi
tur a
ig ital
ov irus
if ication
ulai man
Ġpeny iaran
Ġmenj atuhkan
Ġ5 2
Ġbert empur
ĠZ e
Ġeks plorasi
ĠUn der
eral isasi
ell ow
Ġproses or
Ġterp enc
eter an
Ġro h
ĠMas ing
Ġdic ampur
Ġsub genre
lo id
ĠKh alifah
Ġpenduduk nya
Ġkemampuan nya
Ġpet unjuk
Ġim am
ĠPemb entukan
ĠDep artment
Ar ab
Ar tikel
iss an
ĠPan itia
ĠPal eo
ĠUS A
Ġkand ung
Ġleg al
ĠÎ ±
Ġdiperk uat
ĠBh utto
Peny ebab
Ġflu ida
http s
ĠRev olution
ĠCap ital
abr Ã©
ĠDel ta
ĠRel ations
Ġdian ugerahi
Ġungg ul
lad esh
aktik kan
Ġbot ol
bl em
Ġpant un
Ġkotor an
empurn aan
ĠHab ib
ches tra
Ġpuc at
Ġpri oritas
Ġimb alan
Ġmelingk ar
Ã£ o
ĠKuw ait
ovan ni
opro tein
! "
1 50
5 21
F T
K and
M eski
N C
S atu
S eorang
c er
c ed
l ow
m udah
p in
t ro
v estasi
w orld
x i
Ġd omba
in u
al iran
Ġs aran
Ġs olid
ah abatan
Ġk in
Ġk awat
Ġdi anj
ad ili
ik lim
ap ore
ĠS uz
ĠP ic
Ġl it
Ġber antai
ĠM edi
ĠA cara
ara b
ĠK ia
uk ulan
Ġmem ajukan
Ġmem ulihkan
ĠD I
ĠD il
ĠT ua
ĠT anda
ĠT egal
Ġr ap
ĠR F
ĠR ap
ĠR ai
ĠR ach
and uan
Ġpen yair
ĠC erita
ĠC ontr
eg er
ĠJ eff
Ġg lik
ĠN am
tr en
ĠH art
ĠH arga
ĠH erm
ĠL ain
ĠG uar
ĠG olongan
Ġpeng angkatan
isi mal
ĠW omen
Ġmel anda
Ġw ajar
Ġmeny oroti
op ati
ensi ve
ĠPer umahan
Ġkem asan
Ġkem erahan
Ġsek umpulan
st on
ĠV ari
Ġdit eliti
Ġkel enjar
Ġker acunan
Ġmenc uri
Ġdip roses
Ġpr estasi
ig ius
tor itas
ug las
air s
idup kan
Ġpeny erang
anc ial
Ġterk ontaminasi
Ġ5 1
Ġ18 0
Ġ18 60
Ġar it
Ġberd ekatan
pl oitasi
ĠAg e
ĠAg us
Ġpers ebaran
ĠPen emuan
omb aan
ĠZ o
Ġ7 00
ill er
Per l
Ġperb udakan
Ġmengg ulingkan
Ġdic abut
Ġpengh ormatan
arik h
Ġfil um
Ġkimia wi
ĠPend ekatan
rig asi
Men y
Pem erintahan
Ġmon eter
ĠTan pa
ĠSch indler
ĠKeb ebasan
ĠCl a
ĠSam uel
Ġkur va
196 0
der af
Ġmenghad irkan
Ġbal asan
ĠEur ojust
ĠTur k
Ġdiak ibatkan
Ġplanet isimal
ĠPaul us
wal d
rit ic
ÃŃ a
Ġpeman tauan
seb uah
Ġkak ak
ĠFl ag
ĠCan ada
Ġdihad api
rob at
ĠNi as
ĠEks entrisitas
ĠFrom m
ĠKaz akhstan
ĠDam askus
utakhir an
fram erah
urig ai
Ġberst atus
olif erasi
Ġdianj urkan
D er
D avid
E s
K o
M edia
M esin
M ekanisme
P H
R usia
R uang
S uku
T anggal
U s
V ol
b ij
c c
d ney
g aria
h is
j ur
n eg
o tipe
r ent
t ama
v ik
w aan
w ati
ä º
Ġ ent
ar utan
Ġm ic
Ġp utus
al og
Ġk uku
am id
si lah
on isme
ik us
ik saan
il iter
ĠS ip
ĠS ering
ĠP A
ĠP ekan
Ġl um
Ġl ikuid
it iga
Ġber kantor
ag iaan
ari r
ĠM erdeka
ĠB ebas
Ġin sp
Ġin stan
id el
ep resentasikan
ĠD ew
ĠD ampak
ĠD efinisi
Ġmeng utamakan
ĠT ir
ĠT re
ĠT own
Ġun juk
Ġr atus
Ġr enang
Ġr anting
ĠR TP
ĠR SS
ĠR ights
ĠR anggalawe
and ra
Ġpen entuan
Ġn elayan
ĠC H
ĠC am
ĠC ob
ĠJ at
ĠJ aksa
tr asi
ĠH aw
ĠH adiah
Ġc an
ĠG aya
ĠG ejala
Ġf en
Ġf lora
Ġpeng endali
ĠW ester
Ġmel impah
ebut kan
ĠF inal
ĠU b
od or
Ġmeny erbu
ana u
ob at
aman kan
uj um
Ġpemb antu
uran ce
Ġker amik
Ġdip r
Ġdip utar
Ġan tiv
ev e
Ġbi okimia
Ġman if
Ġmemper panjang
ĠCh ar
ĠCh ili
Ġpeny alahgunaan
Ġag ung
anc ed
Ġpenggun anya
Ġab adi
Ġmod ul
ort ik
Ġ7 3
ci ent
Ġot onom
ĠX box
rop olitan
rom osi
ĠEk sek
ĠQ uraisy
Ġkam us
Ġterc apai
one er
agn os
196 4
sis me
Ġperp anjangan
ĠMad rid
Ġch ip
Ġpuncak nya
ĠPasi r
Ġsil inder
ĠWal es
Kom isi
ĠArt inya
ild ing
red iksi
ĠHasil nya
olid asi
ĠPil kada
Ġmatemat is
Ġpay ung
Ob at
oplas ma
ĠBrun ei
Ġdiferensi al
Ġali as
ĠLabor atory
Ġsum sum
ĠKac irebon
ematic s
ĠPE TA
omod asi
Ġekst ensif
ĠMedic ine
ĠBiz antium
oksid asi
ĠKarib ia
ĠDiction ary
ĠKacirebon an
D esain
J angan
L ED
M aka
N ilai
N asir
O I
P aul
T ab
X X
b ach
g l
g ing
i as
p asar
p enc
s ari
Ġd ec
Ġd uta
Ġd ulunya
en aan
Ġp od
Ġp artisipasi
Ġs ari
Ġs oftware
ak as
Ġk upu
Ġk usta
Ġdi atas
Ġdi angkut
em ari
el ess
tu si
ĠS AR
ĠS aint
ĠS ulaiman
ĠP b
Ġmen s
Ġl aku
Ġl intang
Ġl alat
et ron
Ġber iklim
Ġter itorial
ĠM ess
Ġper ancangan
Ġper silangan
ĠK uturan
Ġin ov
Ġmem adukan
Ġh emat
ĠI BM
om ial
om yc
om entum
Ġmeng alihkan
ĠT our
ĠT omat
ĠT ugu
Ġseb anding
Ġr anah
Ġpen ularan
Ġn er
Ġn asihat
ĠJ asa
ĠJ PL
ĠJ upiter
Ġg oreng
ĠH ans
ĠH OK
ĠH abrÃ©
ĠL ight
ĠL okasi
ĠG elar
Ġpeng umuman
end ra
Ġmel uruh
Ġmemb as
ĠE le
amp uran
ic arakan
op a
emp ar
Ġkem arau
Ġak um
Ġberb unga
ĠY ale
19 59
Ġkel opak
Ġker ang
Ġker entanan
Ġdis emb
Ġpend inginan
ĠAl b
ĠAl ooh
ilm uan
ĠAr ts
ĠCh inese
Ġdiper intah
ĠMar sh
ĠMar iniyah
Ġmet il
emen ang
Ġ5 3
Ġgen erik
Ġproduk nya
Ġbawah nya
ulis an
ank a
ond er
Ġdih apuskan
ĠIS DV
iz u
lo ad
ĠSy dney
ĠTr ade
ĠSur y
Ġac uan
Ġmerek omendasikan
elaj ahan
Ġmemas ok
hi asan
ĠEk a
pen yakit
Ġsin us
Ġsin kr
ect ed
Ġsal ju
ĠSe eman
Ġmon umen
ĠHar ris
Ġbuah nya
umsi kan
sy lv
Ġkur sus
Ġkur ikulum
ĠMak kah
port s
ĠPat rick
Ġdial og
Prof il
ĠAnti gua
sc ombe
Ġberkurang nya
ĠRi ver
ĠUp aya
ĠMis sion
ST OR
Mus eum
ĠJon athan
ĠShin ji
ĠFort inet
ĠPerl indungan
Ġgro up
Ġastr onomi
Ġanark is
ĠAdministr ation
Ġthr ash
Ġlan skap
ĠAZ T
elop ori
ĠPenn sylv
ĠTherav ada
Ġmenyir atkan
Ġelektromagn etik
ĠPennsylv ania
A ku
B agi
D el
E K
J alan
L ee
M emb
O pen
S ar
W C
f ida
h en
i q
j s
j aran
m ik
o en
p us
r em
x OM
y m
z on
} _{
á ŀ
ã Ģ
Ġ ungkapan
er e
Ġd endam
Ġd apur
ar di
Ġm ons
Ġp ujian
Ġs ian
ah s
as p
Ġt engk
Ġb uang
Ġdi et
Ġdi taf
Ġdi implementasikan
ad uk
si di
el emen
Ġy ayasan
ik opter
ĠS C
ĠS ains
ĠP ariwisata
es okan
Ġl iat
Ġl ebat
ol um
ing ungan
ul ung
ĠK emp
ĠK PR
Ġin put
Ġmem atuhi
Ġh ero
om asi
ĠT ib
ed en
ro to
im in
ab umi
ĠR ak
ĠR onald
eg in
ĠN TP
ay aka
ĠH ati
ĠH ospital
ain ase
ĠL ine
ĠL enin
ĠL este
ub ungi
ĠG itar
ent e
ĠW IB
ĠF as
ĠF ord
ĠF ish
ĠU yeng
Ġmeny anyikan
os ta
âĢ ¯
Ġpro te
Ġv ia
Ġv iew
Ġdib ahas
ind ra
eri v
Ġpel ayaran
Ġpel ecehan
oc ument
Ġkeb angsaan
ĠCh all
ow i
Ġmet af
Ġ- ->
Ġberl ebih
Ġ6 6
Ġstr ing
ĠBr ian
Ġdih ormati
Ġ8 08
Ġterp ecah
ĠMal ik
Ġpenc ak
Ġditer uskan
ĠMan ch
ĠNew ton
ore ign
ĠOl d
Ġpengh apusan
unt ah
ontr ak
ĠSM P
oll ar
Ġhid ro
erta an
Ġmon ok
ĠMin eral
ĠAngk a
Al bum
ral tar
196 8
197 4
197 7
Ġart efak
ĠKat edral
Ġder et
Ġtern ama
Ġbir o
ĠEng els
ĠÎ ¸
ĠCor el
Ġmobil e
Ġpraktik nya
ĠSi ak
ĠKo alisi
ĠKo ordinator
Ġhadir in
ĠPe ace
Kom isaris
Ġsim ulasi
ĠArch itec
Ge orge
Keb ijakan
ĠMy th
Ġpew arnaan
ĠKeh akiman
ĠCamp ylobacter
ahul ui
Ġrit el
Ġkul tivar
Ġkeset araan
Ġpay udara
ĠStev en
esc u
uko uni
Sat elit
Sen yawa
ĠSpr inger
Ġmenges ahkan
ĠâĤ ¬
Sej umlah
Ġhy per
hit ungkan
Ġpsikedel ik
xOM ark
C S
I L
S ah
S ul
T ingkat
T abel
T ahap
V D
b ukan
d l
d ok
m ak
n orm
p le
s uma
u in
w ater
Ä ĩ
Ï Ħ
Ø ª
Ġ ).
an tau
Ġd urasi
at angkan
al agi
al aba
Ġs umb
as eluler
ak erjaan
Ġk ant
Ġk isaran
ad alah
ĠS tory
Ġmen argetkan
Ġl amanya
et he
ol t
it es
it ri
Ġber migrasi
ag ih
ur as
ĠA T
Ġper okok
Ġper ancang
ĠK ant
ĠK ei
ĠB id
ĠB omb
ĠB abil
ĠD yah
ĠT unggal
Ġj angan
Ġj adwal
ed erasi
Ġ2 10
ĠR uang
ĠR iset
Ġn atural
ĠC it
Ġg al
ta c
ĠN ature
adi en
ĠL ek
ĠL emb
ĠL ev
ĠL ons
ub umi
Ġ19 27
Ġf ib
aj in
ent askan
ĠW ater
Ġmemb ela
ĠE sp
ĠE disi
ĠE isen
ĠF ern
ĠU M
od elan
Ġmeny umbang
os ting
Ġpem ukiman
ĠO li
ĠĠĠĠĠĠĠĠĠĠĠĠĠĠĠĠ ĠĠĠĠĠĠĠĠĠĠĠĠĠĠĠĠĠ
ilik inya
Ġdik ombinasikan
ob u
omp okan
Ġberb uat
st abil
ĠV isi
ni es
19 50
Ġker bau
asar jana
Ġbi ografi
Ġman apun
ĠPr ib
li on
Ġmemper mudah
ĠCh ild
ack ing
unj ang
av orit
Ġ6 2
ĠUn dip
ark oma
Ġmusik al
Per aturan
ĠPol res
Ġput era
Ġdin as
Ġberj anji
ĠSh ang
ci ence
irim an
Ġpan ik
ĠKe empat
ĠKe adilan
arn ai
ĠMah kota
se an
Ġsin etron
rig h
Ġop ini
ĠRes ort
ask ular
ĠMic ro
Ġform asi
Ġur ban
ĠWil helm
Ġberisi kan
197 2
197 5
isk usi
ĠComp uter
ke ologi
ju angkan
Ġpl utonium
ourn ey
ĠTok oh
Ġketu kan
Ġku ad
ĠKam is
ĠPur ba
Ġmengk aji
Kr itik
Ġtersi mpan
ĠTor aja
Kes ultanan
ĠKonf usi
Ġport ofolio
Ġsay ur
Ġteor ema
Ġekspl oitasi
ĠOc tober
ĠPenerb it
Bur sa
Mal aysia
ĠCek o
raz il
Ġkelemb apan
ĠGib raltar
enag akerjaan
Ġfleksi bel
Ġmemin imalkan
Ġtent unya
amic om
ĠNed erland
Ġkemirip an
Ġditaf sirkan
& {\
) ".
+ {\
. (
C or
D es
F ran
H ub
M ak
M ac
P d
Q L
S a
T ak
T iga
T ema
h in
j ak
l it
m acam
m usik
q w
r u
r ul
u aian
z en
Ð ¼
Ġ 00
er ation
Ġp uas
al o
ah al
as angan
Ġt ukar
Ġdi ur
Ġdi und
Ġdi adaptasi
am ental
on or
is inya
il et
ĠS ak
ĠS or
ĠP aku
ĠP KB
ai g
Ġl engan
Ġber ani
Ġber gaya
Ġber hadapan
ag ukan
ut aran
Ġter owongan
us ter
ĠM adi
ĠM ini
ĠM yc
ĠM Ã¼
ĠA PI
ĠK um
ĠB ukti
ep uluh
ĠD w
Ġmeng ec
ĠT B
ĠT ah
ĠT ant
ĠT ra
ed u
ed uksi
ud ge
ih al
ĠJ embatan
ĠH omo
ok ia
ĠL ie
Ġc erah
ĠG N
ĠG am
Ġf atal
Ġf emin
Ġse umur
ĠW ith
ĠE ra
ĠF air
ĠF DA
ĠF amicom
ot her
od es
Ġpem urnian
ĠO LED
Ġv al
Ġsem u
Ġmenc antumkan
imp ahan
Ġtan k
entu han
ĠAr tikel
Ġdim uat
Ġdim enangkan
Ġdiper iksa
Ġst ok
etu lan
Ġkali um
Ġberl apis
Ġ6 8
Ġmemp ekerjakan
ord er
Ġkap ten
Ġspesi men
las t
Ġtim ah
ĠAb raham
Ġmengg elar
men y
ĠJan e
Ġsub str
An alisis
Ġrel ief
Ġup ah
ĠGo ukouni
Ġhi asan
ĠKed iri
ĠFr ed
ĠCS S
ĠSol aris
ĠPi agam
enom inasi
arget an
Ġend apan
ĠSat suma
Ġkub ik
ĠPerm usyawaratan
etw een
ÃŃ n
ĠMul ti
Ġlip atan
Ġdieks tr
Ġmengeks plorasi
Ġamb isi
Ġkat alis
ĠForm ula
ĠJapan ese
ĠSpec ial
ĠBet awi
ĠIk atan
embal aan
Ġemb rio
lok ir
Ġpasc ap
Ġkuant itas
ĠNic ol
Ġdipas tikan
ĠKut ai
Ġpembersi han
optim alkan
ĠCiv il
Ġterpenc il
romosi kan
ĠLons dale
B al
B and
C omp
D P
D own
E r
H ari
K T
M M
M a
M uh
O t
P ad
P ersi
P andangan
S k
T uhan
_ _
f il
g ard
k g
l uka
m edia
o i
p ur
p asal
t em
v es
y stem
Ã ¥
Ä į
Ä ĵ
Ġd uri
Ġd eteksi
Ġd egradasi
ar ungan
at ak
Ġp a
in ib
al ar
Ġs ayang
Ġt angkai
si han
el ologi
on avirus
eb u
is hi
ap tis
il id
ĠS P
ĠS ent
ĠS akti
ĠP isa
ĠP ocket
es el
Ġmen af
Ġmen antang
Ġl ah
it aran
Ġber akar
um lahan
asi al
ĠM K
ĠA di
ĠK in
ĠK aum
id ge
Ġmeng erikan
ga ji
eh abil
Ġseb ut
Ġr atifikasi
ĠR up
Ġke as
ĠC i
ĠJ ay
ĠJ urusan
Ġg em
Ġg antinya
ta x
ĠN ig
ĠH ad
ĠH ot
ok e
ok sa
Ġc at
Ġc agar
Ġf it
Ġf auna
ant asan
ĠW ol
Ġmel emahkan
per ang
Ġmemb antah
ĠF il
ĠF ilsafat
ot ika
ot ografi
ĠU ji
os eksual
Ġpem etaan
angk aan
ĠInd rap
ĠInd epend
ĠPer si
Ġv akum
Ġdib ayar
Ġdib esarkan
Ġkem udahan
Ġdik utip
omp at
Ġsek alipun
ĠY ers
ni at
Ġdip ec
orm at
umb angkan
ig anya
Ġpel uru
Ġand a
Ġmemper t
ĠPro duc
Ġag enda
Ġkomp likasi
est o
pr ise
Ġap arat
Ġtert inggal
Ġmemp ro
te ur
Ġmil imeter
ord an
ond asi
engg am
ĠSo er
ĠSo ur
Ġperb uruan
Ġâ Ł
ĠAb i
Ġhak ikat
ĠAk tivitas
edi asi
ich i
Ġsub stan
Ġdij abat
Ã© n
ĠTr ip
ĠTr ust
ĠSek retariat
Ġberm aksud
ĠPh ot
Ġkeber atan
Ġsedikit nya
ĠDa eng
arg umen
ĠRes ources
ĠComm ission
âĢĻ .
ĠKan oman
ĠKap ten
Ġam onia
Ġul ar
rah asta
ĠÎ ²
Ġmikro b
ĠFor ce
Ġlemb aran
Ġus ai
ĠMc C
Ġsah abat
}^{ (
iny in
Ge ografi
Ġle uk
ĠKi ai
ĠRek sa
ĠBul garia
Ġpres entasi
Ġnil ainya
Ġtransl it
ĠPid ana
ĠCel tic
ĠKai ro
Ġpras ejarah
ĠHand book
Go ogle
ĠTum enggung
ĠRot ten
eban on
ĠInvest ment
ĠHein rich
ĠEli zabeth
ĠAnaly sis
Ġmetod ologi
ĠCov id
Ġdiwak ili
ĠFreder ick
ĠBabil onia
ĠEisen h
) (
B udaya
E P
F R
I b
K awasan
K omun
L og
M u
S am
S taf
b uk
b erb
b idang
d em
d ir
g es
g aris
h ab
j ari
k ub
m ud
p ohon
p itasi
p ool
r el
s ub
t eman
Ġd own
at ria
Ġp ept
Ġp upuk
in av
al c
Ġs umpah
si tus
tu an
eb el
ya i
ik ar
ik osis
ik ayat
or as
ĠS N
ĠS om
ĠS ait
Ġl ari
Ġl ambung
et e
et y
it arian
ag le
Ġter umbu
ĠM ind
ĠA C
ĠA qu
Ġper adangan
Ġper forma
ĠK A
ĠK arang
ĠK eter
ĠK night
uk itan
ĠB ed
Ġmem od
ĠI man
ĠD H
ĠD aw
ĠD own
Ġ1 10
ĠT itan
Ġj ajahan
ed om
ro c
Ġr ombongan
ĠR M
ĠR aw
ĠR IS
ĠR eksadana
Ġpen ataan
Ġke unikan
ĠC at
ĠC eau
ud it
Ġg o
uh i
ta iner
ĠH old
ĠH wang
ok las
ok erto
ĠL yn
ĠL empeng
ac tion
Ġc oll
Ġc ermin
ĠG ut
Ġ19 03
Ġse imbang
Ġpeng erjaan
Ġpeng lihatan
isi h
Ġmel engkapi
Ġmel acak
ĠE mb
ĠF und
ot akan
ĠU I
op o
op sis
op ril
ĠInd eks
ĠPer ry
Ġv en
Ġkem and
Ġak tris
ĠY os
st ar
ĠV III
Ġal okasi
Ġan organik
ig en
Ġbi ara
ĠAr m
ĠCh a
Ġpeny usun
ĠMar oko
aks akan
Ġaw ak
Ġmenj elajah
Ġsp ekt
Ġar ena
Ġpas aran
Ġhal ida
etu l
ĠZ ain
ĠZ eal
Ġkr ed
lu or
engg er
}} {\
ĠIt alian
ĠMan ado
ĠAk un
ĠAc id
Pen erimaan
mp angan
isan s
Ġ16 0
ongk ar
Ġkej uaraan
Ġberm uara
ĠTer minal
ĠRes pon
ekerj asama
ĠBl og
egi on
tic al
encan anya
erh entikan
ĠTe am
ĠKap osi
ĠCr u
Ġmekan ika
inj am
ĠTur bo
Ġketidak s
Ġprop osal
Ġtep ung
ĠFin ancial
Man ajemen
ĠKek h
ĠKek uatan
Kom ite
ĠOff icial
isin opril
ongg ol
Ġtertar get
ĠBro ad
Perb edaan
ĠEmp ire
rol isis
pes awat
ĠFranc e
ĠLaks amana
ĠKul on
Bis sau
Ġkelel ahan
Ġdiskr iminasi
bers ama
aplikasi kan
Ġgun akan
Ġhier arki
ÈĻ escu
Ġdimas ak
ĠEisenh ower
) \
8 08
C en
D ek
D im
F or
G lobal
K an
K omunikasi
P ajak
S eg
b our
d ata
f o
n ah
p artai
r aya
v est
Ġ angs
an at
Ġm arga
Ġm arg
Ġm alaikat
Ġp artisip
Ġs ore
ah asi
Ġt aksi
Ġb ant
tu asi
on c
ik et
or ity
ĠS TA
ĠS aid
ĠP angan
ĠP ent
ĠP ot
ĠP esan
ĠP andangan
Ġmen onton
Ġl aser
et ris
Ġber abad
ĠM erton
Ġper amp
Ġper isai
ĠB one
Ġmem ukul
tuk ar
ĠI an
ĠD xOMark
ĠT y
ĠT aiko
ĠT engku
Ġj arum
ed ikasi
eh ida
Ġseb ulan
ia vo
im m
ĠC abang
ĠC imande
aw arikh
ih ara
eg uh
ĠJ endral
ĠJ STOR
Ġg emb
ĠH ub
ac c
ac ing
Ġc ont
Ġ19 06
aj an
end s
ĠW on
ĠE D
ĠF A
ĠF a
ĠU kuran
Ġpem er
op e
ĠInd ra
ĠInd ustrial
ĠPer u
Ġkem as
Ġberb unyi
Ġdit ekan
Ġal as
Ġket erk
Ġdip rediksi
Ġpend aratan
Ġpend aftaran
ĠAn war
ĠAn scombe
utu t
re as
Ġpel eburan
oc oran
ilm u
enc ian
ĠAr ist
Ġseh ubungan
Ġdiper s
Ġpol it
anc a
Ġmenj angkau
Ġbulan an
ĠIs landia
yarak atan
ĠPem impin
aku isisi
Ġtr agedi
Ġob or
Ġkr u
ark as
Ġbel akangan
lam et
th eta
las is
lin es
endah ara
ĠAc t
ĠKr isis
ĠTr ump
Ġkej ayaan
ĠSur vey
sk erta
ary anya
ĠLe o
ĠDe ad
ĠPend uduk
Ġterj angkau
ick et
Ġim an
Ġim igrasi
old er
Ġpat ah
ĠIb eria
Ġpener j
Ġur in
ĠComm on
iring i
196 5
197 6
uw ana
Ġth rough
Ġoper a
Ġberjalan nya
Ad apun
ĠDar urat
Ġdiak hiri
Ġsimbol is
sch a
Ġkre ativitas
ser ver
Ġlel aki
ĠWik ipedia
Ġnukle at
ĠMag elang
ĠSej arawan
ĠFlor es
ĠJul y
ĠChem istry
Ġeksek usi
EE E
Ġpriv asi
ĠBang ladesh
pers onal
Ġrev iew
ĠRas ul
Ġpresi si
ĠLock Bit
Ġsosi ologi
Ġpam eran
ĠWars awa
Bl ack
Ġsemen anjung
Ġanim asi
Ġpenyemb uhan
init esimal
Ġmenumb uhkan
ĠBalik papan
ĠEksek utif
ĠMarsh all
qw ac
ehabil itasi
ĠZeal and
! !
' t
9 00
A pril
A lex
B o
C omm
J akarta
L P
L et
L okasi
M c
P b
P u
P rop
S K
S ang
S es
S oviet
b en
d iksi
e as
f ah
f ri
h ou
k ord
m ampuan
p si
r aw
r ess
Ä ķ
Ø ©
Ġ ub
an faatan
Ġp ot
Ġp ne
in ari
Ġb aju
Ġk ib
Ġdi ungkapkan
am inan
on ic
il h
il t
ĠS O
ĠS itu
ĠS aka
ĠS ass
ĠP age
ĠP angkalan
ĠP yth
ek tivitas
Ġmen unda
et r
Ġber angg
Ġber niat
ur sor
ĠM agazine
ĠK ad
ĠK oko
Ġmem utar
id o
ti um
ĠT est
Ġj ul
ed onia
Ġr en
Ġr am
Ġr int
ĠR and
ĠR oh
ĠR iz
ĠR oll
Ġn ikel
ĠC ron
ĠJ iwa
ĠH amm
ĠL ip
ĠL omb
ĠL umpur
ĠG irl
Ġ19 11
Ġmel epas
ĠF ase
od iti
os m
Ġkon on
ew s
Ġkep uasan
Ġpert entangan
Ġpert arungan
Ġsek uel
ĠV inc
Ġdis ertifikasi
Ġdil ancarkan
orm ikosis
ĠAm in
umb a
Ġkes an
tif kan
ungk u
ĠAr k
ĠAr keologi
ĠPro p
anc aran
Ġdid engar
arat on
imb ing
da ulat
awah i
Ġstr eam
te ori
Ġ8 2
Ġterp anjang
ĠAs et
ĠAc robat
Ġsub t
Ġpengh uni
andar in
Ġrel igius
Ġnasional isme
Ġik on
ĠKe adaan
ĠKem ampuan
Ġbin er
ĠTer ri
kir aan
ĠEx press
Ġinv estigasi
Ġmul til
ĠSec ond
Ġge ografi
Ġmon ote
ĠSch iavo
Ġes ai
Ġes ei
Ar g
ĠLib ert
ram ework
ĠHe aven
Ġpad atan
su e
enti al
ĠMed ical
Kar o
pro ses
Ġplat inum
Ġdokumen ter
ĠÃ ī
ĠKam era
ĠPe ople
ĠDo uglas
osh ima
En g
aid ah
ĠRos s
Ġdiw ajibkan
Ġtimbul nya
roskop i
ĠDom ain
ĠPember ontakan
Ġkerj anya
Ġprim itif
ohan es
ĠDur ga
ĠServ ices
Ġdiperd ebatkan
ĠLuc y
ĠResi men
ĠStev e
Mic rosoft
ĠDiper kirakan
Kont roversi
Ġcek ungan
BH L
Ã¦ dia
khusus nya
ĠEin stein
Ġpeneg akan
Ġpik sel
Ġditemp uh
ĠAff airs
Ġbil ateral
sun ami
ĠAlf onso
Ġhor or
ĠVirg inia
ĠGad jah
Ġperiod ik
Ġpenip uan
Ġpengemb alian
Ġgiliran nya
ĠKro asia
Ġnum erik
Ġilah i
ĠIndrap rahasta
ĠCeau ÈĻescu
B uah
D on
D AS
H A
K ami
K ondisi
P engg
P ohon
S il
U T
f ul
h l
i en
j ar
k k
k m
k ai
m f
q i
y am
y ut
y ono
Ð ¹
Ġ ~
Ġ ×
Ġ olahan
Ġd pl
ar b
Ġm ual
Ġs ol
Ġs uar
as tik
Ġt oleransi
Ġt ongkat
Ġb ul
Ġb engk
Ġb uta
Ġb ekerjasama
em atan
em etri
el ir
ĠS ind
ĠS utan
ĠS av
ĠP u
ĠP PP
Ġmen ump
Ġmen jauh
Ġber awak
Ġter estrial
ul s
Ġper sis
Ġper ebutan
Ġper orangan
ĠK ang
ĠB arang
ĠB atas
ĠB asic
Ġin framerah
Ġmem ohon
ep po
ir man
Ġh and
Ġh ilir
ĠI sa
ĠD SM
ĠD ream
om ed
Ġmeng erahkan
Ġmeng evaluasi
Ġ1 17
ĠT ert
im anya
Ġr er
Ġpen ari
ĠC ik
ĠC iri
ĠJ ud
ĠJ ersey
Ġg udang
ĠN T
ay ana
adi yah
esi k
ĠL um
ĠL ord
ĠL ebanon
ub aran
Ġc re
Ġ19 01
Ġf antasi
Ġf avorit
Ġpeng amanan
Ġpeng elola
Ġpeng angguran
ĠW ed
ĠW arn
Ġw h
Ġw ayang
ĠE ver
ic le
âĢ ¦
Ġpem indahan
Ġpem ancar
Ġkar at
Ġkar go
ef ek
ĠInd rag
ĠPer sp
Ġkon ver
Ġv erifikasi
Ġak uisisi
ob o
Ġseperti ga
st e
st abilan
Ġpemb eli
Ġpemb acaan
Ġdit aklukkan
ĠDi v
Ġdip romosikan
Ġas uransi
Ġdil epas
Ġan eka
Ġberk unjung
Ġkes uburan
Ġpel aut
enc i
li x
Ġkec antikan
ĠCh an
Ġmet ana
Ġmet rik
In sp
Ġ5 7
Ġar ticle
uc ture
eker asan
any ian
Ġdilakukan nya
ĠPeng g
ĠSo et
Ġpenc alon
ĠKer eta
osisi kan
iv al
ili us
Peng enalan
gen ik
Ġpengh ambat
str ap
Ġmengak tifkan
ĠSek arang
ĠKes enian
ĠSur ga
qu id
Ġrek ening
Ġmemas ak
Ġx en
ĠQ uar
Ġbin ti
ff usion
ĠLe iden
ĠEx per
Ġmul t
Ġfr agmen
Ġmew ajibkan
Ġped uli
ĠPan embahan
Ġdaun nya
isk al
yan mar
Ġalami ah
Ġmekan is
atal yon
Ġbir okrasi
uz z
Ġhip ot
Ġlemb ar
ĠBh utan
Sp ec
Ġreg uler
ĠSin ar
ĠMul ia
Ġakadem i
Ġakadem is
Ġ189 8
Ġmeneg akkan
}^{ \
Keb anyakan
Ġfisi ologis
ĠStrateg is
ĠCommun ication
itim asi
ĠLim ited
Mic hael
ĠYear s
Ġspons or
Ġwar alaba
Ġfac to
Ġdiferensi asi
ĠPhy sics
ĠLac tobacillus
---- ----
ĠKre atif
cover y
Keter angan
Ġmengind ikasikan
Ġfluk s
Ġkaitan nya
Ġmedi um
Ġpor os
Ġtaks onomi
ĠUj ung
tulis an
ikl anan
quar e
Ġbersik ap
posi tif
ĠAbdur rahman
neg atif
Ġsubstr at
Ġberangg otakan
ĠIndrag iri
B O
B h
E mp
G edung
K lasifikasi
M ik
M obil
P il
P asar
R o
S urat
b ang
b agai
c d
f ish
g ading
i adi
j in
j ing
j ian
j ika
k al
k it
o et
r ir
s ung
y anyi
z ir
Ã ¯
É Ļ
Î ¼
Ġ aj
Ġ ucapan
Ġd op
ar ai
Ġm es
Ġm impi
Ġm andat
at ara
Ġp ek
Ġp ist
Ġp ark
Ġp aten
al im
as pek
Ġb ep
Ġb uat
Ġb reak
Ġk i
Ġk enc
Ġdi alihkan
Ġdi ucapkan
am ia
si mbol
el and
ap isi
ĠS ev
ĠS uhu
ĠS IM
ĠP ig
Ġl aw
Ġber ep
Ġber daulat
ĠM it
ĠM ara
ĠM ex
ĠM Hz
ĠM yanmar
ul ia
ĠB esi
Ġh eks
Ġh igh
ĠI ll
ĠD ayak
Ġmeng uat
Ġmeng integrasikan
ĠT imbal
ro g
ro death
Ġr ip
Ġr oll
Ġr incian
ĠR EITs
ĠR oland
Ġpen andat
Ġn angka
Ġn ujum
ĠC atalog
ĠJ un
Ġg ila
Ġg encatan
ĠN uclear
ĠN issan
ay o
ĠH ul
ĠH ell
ĠH yang
ok ong
ac es
ĠG alia
Ġ19 07
ent ro
ĠW angsa
Ġmel etakkan
og h
Ġw aris
Ġmemb akar
ĠE sa
ĠF uji
ĠF ramework
amp ingan
od g
ip at
Ġmeny ambut
Ġpem ikir
angk ok
Ġdib awakan
ec raft
Ġdik onfirmasi
Ġdit eg
Ġdit unda
Ġdit elusuri
Ġsem ak
Ġmenc olok
Ġdip elihara
Ġ3 60
Ġterb ar
hir d
hir e
Ġkes enangan
ĠAl asan
Ġkeb etulan
Ġmemper ingatkan
Ġbers umber
ach i
ĠPro to
Ġmet a
In str
Ġdid aftar
Ġmenj anjikan
Ġ18 80
Ġst at
Ġda ur
angs angan
ĠBel arus
Ġek ologis
ĠPem ikiran
ert as
Ġ9 7
Ġ9 9
ĠBr uce
ond e
itan ia
Ġintern ational
Ġperb ukitan
ulang i
ĠOr d
Ġdin ar
ĠSem akin
ĠAc c
rop oda
ebr itas
Ġkej u
Ġberm otor
Ġberm acam
ĠKh alid
ĠGo ethe
Ġkor por
Ġinf lasi
ne o
Ġterc ipta
Ġpet i
ĠSen am
Ġjalan an
ĠPel atihan
ĠSal v
Ġpengaruh nya
ĠOb servatorium
196 3
ĠFr aksi
ĠFr ench
Ġam al
Ġbagai manapun
ĠSan skerta
ĠMarx isme
AT LA
gn ed
Ġevolusi oner
ĠKek uasaan
ĠÂ £
ĠTor ino
ĠEs s
po int
ĠLet kol
Ġdian ut
math rm
Ġdiab aikan
ĠGar uda
Ġmemec ah
Ġcon c
oot ball
Ġdebut nya
Kon vensi
Ġdist orsi
uss alam
Ġlini er
Ġmenyemb uhkan
udh on
Ġnar asi
owl edge
Ġeuk ariota
ĠGovern ment
Ġkedi aman
ellig ence
ĠCount y
Ġjenaz ah
Ġkebah agiaan
Ġantiv irus
Ġmenaf sirkan
Ġketerk aitan
ATLA B
' m
. ".
2 30
A walnya
G aris
K at
K enn
M o
N o
P B
S tudi
S erangan
S imbol
S uatu
U l
b ud
e us
f en
k ur
k aryanya
l os
l emen
o timah
p usat
p artikel
r utan
t un
u ver
v ari
z in
Ġ ana
Ġ av
ar ot
ar man
Ġm ingg
Ġm omentum
Ġm untah
Ġb ilah
em y
on ika
is c
ĠS han
ĠP H
ĠP ep
ĠP ong
ĠP arti
Ġmen ak
Ġmen utur
Ġl aman
it ori
ag ia
ut orial
um us
ĠM oral
ĠA TM
ĠA uto
Ġper hiasan
ĠK isah
ĠK ajian
id al
id ah
ti ca
Ġmeng end
Ġmeng ungsi
ĠT es
ĠT ran
ĠT all
ĠT ipe
Ġun der
Ġseb erang
im inal
Ġr ingk
ian s
Ġn m
Ġn etwork
ĠC M
ĠC ode
aw anya
ĠN atal
ĠH D
ĠH ulu
esi fikasi
ĠL CD
ac ana
ac ritic
Ġc ons
Ġ19 16
ukan ya
ĠW W
ĠW odon
ĠF M
ĠF okus
ĠF asilitas
ot rop
ist orsi
Ġpem akai
Ġpem enuhan
op ang
Ġv oor
Ġdik unjungi
ob jek
uar d
uar akan
Ġkep atuhan
Ġmend asari
Ġpemb ebasan
Ġsem inggu
19 46
Ġker nel
ch o
ver s
Ġdip ro
ĠAn imal
ig ia
20 29
Ġkes hogunan
ĠAl eppo
man uel
Ġmengh emat
Ġterd istribusi
ĠAr d
ori es
Ġpeny ediaan
ach er
aks inya
ĠUni Pin
Ġkomp ensasi
Ġsistem ik
ard s
Ġterl ambat
Ġdid edikasikan
Ġkek uningan
Ġst ate
Ġst andard
Ġar ch
Ġkh alifah
Ġangg apan
Ġ9 79
ĠPeng elolaan
Ġkeh idup
Ġtr ip
Ġmusik nya
ond ong
ĠAd il
usat kan
min taan
antu l
ey er
Ġpenc urian
Ġberg eser
Peng aruh
ĠX X
ĠX II
Ġ12 8
Ġpenj ahat
Ġakibat nya
ĠPert amina
Ġkor osi
Ġdok umentasi
Ġperl ombaan
Ġga jah
ĠAt lan
23 5
ahaya an
hy l
Ġukuran nya
Ġberper ilaku
ĠMo j
ph one
Ġbal ap
ĠPi oneer
ĠRo ad
ko ordinasi
Ġref leksi
Ġsur ga
ĠSuk abumi
rof il
}}} \
ĠInf eksi
Ġpenyimp angan
ĠDemokrat ik
Ġteb usan
pel aksanaan
Mar x
Ġmengin vasi
ĠDom in
ĠKa uf
Ġmetabol it
ĠCommun ications
Ġputr inya
Ġco untry
ĠVir tual
ĠHy per
ĠDid i
Ġmember ontak
ĠElec tr
Co V
Off ice
ĠJoh or
Ġnom inal
ĠTun isia
Ġletak nya
ĠCour t
ĠNu ova
Tok oh
ĠDhar ma
Ġmenyal urkan
ĠAbb asi
Ġkeberl anjutan
Europ ean
ĠBeng awan
ĠGat ot
opl ankton
opot amia
Ġinov atif
olum ines
qwac ore
) "
) -
A pa
B lu
D in
D onald
H er
H asan
K eh
N N
O per
P HP
R P
S w
S osial
T o
c ell
c kl
h ia
l ess
p al
p ensi
s ar
t eknik
u q
y yah
z ol
Å Ħ
Å ĭ
Ġ Ù
an as
an egara
ar ya
Ġm iliki
Ġm apan
at ap
Ġt apai
Ġt angkapan
Ġt oksisitas
ak et
ak wa
Ġk oh
Ġk ipas
Ġk embalinya
Ġdi undang
Ġdi unggah
Ġdi akuisisi
ad anya
si li
eng th
ap s
ap ian
ĠS it
es ahan
ek aran
Ġl is
ol ia
it ro
ari es
Ġper umusan
ĠK lasik
ĠB A
ĠB T
ti si
ĠD et
Ġmeng urus
Ġmeng ungkap
ĠT ed
ĠT eh
Ġj enuh
ed ahan
ro ad
im un
ab aran
ĠR ic
ĠR FC
ĠC in
ta ck
ĠN ight
ĠH ok
adi ol
esi sir
ĠL anka
ĠG izi
Ġ19 08
Ġf armak
aj o
ent o
Ġpeng epungan
Ġw alau
Ġmemb iayai
ĠF erd
os ur
uan sa
he el
Ġpem icu
Ġpem ecahan
Ġpro cess
ĠO toritas
Ġser v
ĠPer adilan
ec han
ob akteri
Ġkep astian
Ġpemb icaraan
Ġberk er
ov ich
ont ar
ĠPr im
oc o
Ġkeb ingungan
ĠAr mada
Ġmemper juangkan
ĠCh o
ĠCh ang
Ġpeny iksaan
ĠMar amis
Ġkek ej
Ġdir ebut
Ġterp asang
ĠAs am
Ġen kripsi
Ġperj alan
Ġditemukan nya
ĠAk tor
kr on
uf ac
Peng adilan
Pen ingkatan
Ġ17 00
Ġkej atuhan
Ġberm uatan
Un it
iti um
ĠAS EAN
ĠPh oto
Ġinf initesimal
ĠTer akhir
Ġdr ainase
anak nya
ĠMenurut nya
ĠWil ey
Ġped ang
ĠCon vention
ĠPut in
Ġdukungan nya
Ġpad ahal
Ġam f
Ġder as
ĠPerd amaian
ĠPar al
Ġmemperl ambat
ĠBe ach
Ġekstr aksi
ĠSi x
Ak ibat
iat ri
bur y
ĠTerb uka
ekt ro
Ġ189 0
Ġberc ampur
Ġsim etris
Ġmendek larasikan
pem erintah
Ġrekan nya
Ġhidrok arbon
akti an
Ġlang uage
Ġdar inya
ĠNas Dem
ĠKart ini
Ġbit coin
Ġbot ani
Ġpil ar
ĠHel en
ĠHi jau
Kec amatan
Ġmenu ai
ĠSK J
Ġdeb u
ĠGreg orian
ĠMari e
Konf erensi
ĠBit coin
ĠTuan ku
ĠKeber adaan
ĠBarb uda
Sup er
pons ori
ĠTub uh
crip tion
ĠArth ur
Ġantrop ologi
ĠPier re
Ġpersek utuan
ĠKud us
ĠPari aman
Ġpenangg alan
ĠMam luk
Ġsebaik nya
Ġgluk osa
ĠStor e
Ġnav igasi
efisi en
bij ian
agnos tik
ĠTomat oes
Ġjul ukan
Ġdidaftar kan
Ġkehidup annya
- ,
6 02
K egiatan
L etusan
S n
T an
T ur
W HO
b adan
b egin
d esa
f in
h ai
k ed
l ap
l ib
n ev
r ing
s ering
s ervasi
w angi
z ona
Ã ´
Ġ ej
Ġ angkat
Ġd evelopment
Ġs inga
Ġt ol
Ġt uang
Ġt sunami
un ian
Ġb angun
Ġb angkit
Ġb akat
Ġk ad
Ġk ing
Ġk ental
tu lang
il o
or us
ĠS usi
ĠS ayang
ĠS quare
ĠP le
ĠP AN
ĠP riv
es es
ek ursor
et ing
ol ic
ag onis
Ġter ob
Ġter apan
Ġter isolasi
ĠK w
ĠB ert
Ġin terior
ung aan
ep an
ĠD or
ĠD PC
Ġmeng epung
Ġj ati
ab an
ĠR al
ĠR id
and aan
ĠC ath
ĠC ast
ĠC itra
ĠJ ong
ĠJ urnal
ĠH ang
ĠH ai
ĠH asy
esi t
ĠL y
Ġc amera
ĠG agasan
Ġf ranc
Ġf unk
Ġf iskal
Ġpeng adaan
per janjian
ĠE ti
ĠF oreign
od oh
ist ika
osi tas
ind core
Ġdik h
Ġdik ontrol
Ġsek alian
af iliasi
ĠY our
Ġset ingkat
ĠDi ffusion
Ġsem antik
19 56
Ġal ga
Ġkel uhan
Ġdis ponsori
Ġdip opulerkan
eri gading
ĠAn sel
Ġbar unya
Ġterb itan
Ġpel edak
Ġmengh uni
Ġmengh argai
ĠPr amb
Ġterd ampak
Ġkeb encian
ĠAr us
Ġmemper s
ĠCh ange
ack er
ow oso
Ġbers el
Ġpol utan
Ġar e
Ġar teri
ĠBel akangan
Ġmemp ublikasikan
Ġberp asangan
Ġmil isi
tim edia
Ġbel anja
Ġen erg
Ġtak tik
Ġger ai
Ġdic etuskan
Ġbern yanyi
Peng h
ĠSy iah
Ġmak ro
Ã© e
ĠTh o
Ġkas et
KI P
Ġmemas ang
Ġpenelitian nya
ry s
ĠQ atar
Ġpendidikan nya
ĠRe ading
Ġelektr ik
ĠDr ama
ektor i
com e
Ġed s
Ġpat ik
Ġpat ih
Ġrep ositori
ĠPel ayanan
ĠPl us
Ġterg ugat
Ġmew arisi
ĠEl ektr
ĠSoc i
ean ekaragaman
196 7
Ġmekan ik
Ġperc epatan
ĠMad inah
igi on
ĠKomp leks
Ġtop an
ĠDar ussalam
CO M
Kep ulauan
As osiasi
amil y
ĠDh arm
Ġpengan tar
Ke amanan
Ġseng it
Ġterm odinamika
misi kan
Bi ografi
ĠRah yang
Ġdiw ariskan
Ġmengeks presikan
Ġtur bin
Ġbe asiswa
ĠBol iv
ĠChrist opher
Intern et
ĠJon es
Ġtra umat
ĠGi ovanni
ĠDok tor
ĠDec ember
ĠWes tern
Ol eh
Ġit em
ĠZh ou
ĠGerman y
ĠLat via
Ġsentim eter
ĠHistor ical
Ġruntuh nya
Ġpi agam
ĠJal il
ĠDhar mas
ĠYosh in
ĠErn st
ĠHerb ert
Ġkalk ulus
Wil liam
ĠDemocr acy
format ika
ĠJohann es
Ġlamp au
Ġprob abilitas
ĠExplor er
Ġdiund uh
ĠNig eria
Ġbep ergian
Ġmenutur kan
ĠAbbasi yah
( {\
B ag
D isk
G B
G R
K antor
K amera
L O
L evel
N ov
P olitik
R ed
R evolusi
S ir
S MA
S usunan
T ugas
a up
b akala
d il
d es
f ton
g ensi
h etto
l ag
r ian
s emen
v itas
w ana
z m
z an
z ig
Î »
Ð ´
æ ľ
Ġ %
an ol
en an
Ġm asi
Ġm and
Ġm art
Ġp akai
al asan
Ġt alas
Ġt anduk
ak ari
Ġdi hadap
el in
on akan
on aktifkan
ik m
il ity
ĠS H
ĠP inyin
Ġmen amakan
Ġl ic
Ġber masalah
Ġber urutan
ag oras
Ġter ungkap
us antara
ĠM P
ĠM izuho
ĠA er
ĠA pa
ul ian
ul atan
ĠK utub
Ġin cl
ir al
Ġh ost
ĠI U
ĠD istr
Ġmeng ikut
Ġmeng amankan
ĠT ob
ĠT itik
ĠT reat
eh kan
Ġr uncing
Ġpen a
Ġke ilmuan
ĠC er
aw et
eg at
ĠJ uan
Ġg etah
ĠH ello
ter o
ĠL u
ĠL irik
Ġc antik
Ġc imande
ĠG on
ĠG aris
ĠG Ã¶
Ġf on
Ġf asisme
Ġse qu
end abl
ĠW olf
Ġw ir
Ġw ater
ĠE y
ĠE ug
ĠF K
ĠF ox
ot hy
ot rof
ĠU ang
od ge
od ium
Ġpem andian
Ġsep aruh
Ġser d
ĠĠĠĠĠĠĠĠĠĠĠĠĠĠĠĠ ĠĠĠĠĠĠĠĠĠĠĠĠĠ
ĠĠĠĠĠĠĠĠĠĠĠĠĠĠĠĠ ĠĠĠĠĠĠĠĠĠĠĠĠĠĠĠĠĠĠĠ
Ġv erb
ind ih
ind ividu
Ġdik onversi
af e
af ia
Ġant ik
ĠV PN
alu ang
Ġdis atukan
Ġket an
Ġket ert
Ġdip utuskan
Ġdip uji
Ġpend atang
eks asi
Ġbi o
ont je
Ġpel arian
ug g
Ġterd eteksi
tan pa
Ġmemper barui
Ġpeny angga
Ġkons ultasi
est ari
Ġterk uat
Ġterk ecil
Ġ18 50
Ġberd asar
ual ity
istr asi
Ġkh atulistiwa
Ġangg rek
Ġap artemen
ĠZ ara
Ġkr omat
ell s
Ġdih indari
Ġkap ur
Ġkecil nya
Ġro ot
uni ai
Ġmengen ang
Ġre aktif
Ġpenc itraan
ĠIt s
Ġmengg el
Ġlingkungan nya
ĠKer k
NA SA
Ġkal dera
ĠAng in
Ġkont aminasi
ateg i
Ġpenj ual
Ġpengh ancuran
Ġtub erk
str eam
Ġversi on
Un sur
_{ \
ĠRom e
ĠPh ill
ĠAt m
ĠCo ok
ĠSec ret
ement s
Ġim perialisme
Ġmon itor
ĠTel ec
Ġditulis kan
Ġbelakang nya
ĠSal im
ĠMet acritic
versi fikasi
Ġpengg ugat
196 1
ĠMuh amm
rok lam
Ġimp l
Ġpekerjaan nya
Ġperp aduan
PA C
ĠÎ ¼
sist or
Ġhip ok
ĠInt roduction
Ġkil ogram
ĠNe igh
Ġbus ana
ĠEv olution
put ra
ĠArch ives
ĠFrank fur
Kr isten
ĠTor onto
Ġdisert akan
ĠCons ervation
UN T
ĠCur ah
ĠForm at
Pas ca
Ġtem annya
ĠKen ya
}}\ ,
dik enal
Ġbat uk
ĠDok umen
Ġpengikut nya
ĠGram edia
Ur usan
ĠAnn ual
ĠVo ice
Ġpengeb om
Ġbersek utu
UM N
ĠRub y
Ġol ig
ĠBP JS
Ġeng ine
Îº B
ĠNap oli
ĠAnth ony
ĠEnerg y
Lin ux
ĠGit Hub
Ġpembah asan
olly wood
Ġdefin itif
ĠUNI X
Ġinform al
ĠDub ai
Ġget aran
ĠHabib ie
Ġakum ulasi
ĠMadi un
ĠCron ica
C R
C ol
C iri
D ekan
F asilitas
G KO
K ode
K ayu
L ebih
L ife
O V
P embangunan
R eal
T anggapan
V aksin
c erita
c abang
f an
k up
r akan
r ana
r ell
r ency
s ai
s urat
t ang
v i
y eksi
y anto
Ã ª
Ñ ı
Ġd kk
en atal
at omi
Ġp angk
Ġp agan
Ġs or
Ġs ound
Ġs ungguh
as ehat
Ġt ar
Ġt amp
Ġb ak
Ġb angkai
Ġb rowser
Ġk awan
Ġdi ind
Ġdi aktifkan
Ġdi aplikasikan
em ani
on ica
eb o
is al
ĠS iti
ĠP rix
ĠP sikologi
Ġl esi
it en
Ġber ikatan
ut al
ur ities
Ġter ima
ĠA M
ĠK ha
ĠB arn
ĠB ilangan
ĠB Ã¶
Ġin j
Ġmem o
Ġmem otret
ep i
ti up
ĠI van
om s
Ġmeng emb
Ġmeng isolasi
alam annya
ĠT K
ĠT on
ĠT ambahan
Ġj in
Ġj us
Ġj ajaran
Ġj ure
im ah
Ġr ing
Ġr atu
Ġr angsangan
ĠR is
emb akan
and anya
ĠC le
ĠJ in
ĠJ ustin
Ġg eng
Ġg ig
Ġg enggam
ĠN ai
ĠN askah
ĠN apol
tr ack
ĠH u
ĠH ayati
adi asi
Ġmer atifikasi
ĠL anc
ĠL av
ac tive
ub a
ĠG ambar
Ġ19 02
Ġpeng ontrol
ĠW ak
ĠW ord
ĠW inn
ĠW atch
og un
per g
Ġw e
Ġw angsa
Ġmemb ina
Ġmemb alas
Ġmemb erlakukan
Ġmemb ubarkan
ist ilah
Ġpem ad
Ġpem eluk
angk ep
ĠO w
Ġser p
Ġser tif
Ġkar niv
ĠInd ependen
erti ban
ĠPer ilaku
Ġdib agikan
ind asan
Ġak urasi
Ġak rab
ri es
art ika
st at
Ġset an
Ġal ergi
Ġdis intesis
Ġdis amakan
asar ana
Ġpr ag
tur al
ev akuasi
hir up
ĠAl iansi
ĠPr ac
ĠPr ef
ĠPr aktik
tan am
Ġkeb ijaksanaan
Ġked elai
Ġdim in
ach t
ĠPro k
Ġkomp ak
Ġkomp resi
Ġar omatik
Ġsamp ingan
Ġbert ekanan
ĠSt atistik
Ġ9 00
Ġharus lah
ĠAs ing
ĠSep anjang
engk akan
ĠOr chestra
Ġters angka
Ġters embunyi
Ġtrans genik
eran kan
ĠMan ual
ĠMan ajer
Ġdic ari
Ġdic urigai
ĠX I
Ġpenj umlahan
ukup i
ĠNov el
ĠPert ambangan
abel an
Ġberw ujud
Ġim per
hy th
Ġrep utasi
Ġes ports
ĠPemb unuhan
Ġpar sial
Ġpar adoks
ĠCon j
Ġide ologis
Ġang elologi
ĠOb jek
ly n
enj amin
ĠDir ec
ĠSing apore
aus a
Ġbal ada
emi er
ĠIm per
Ġmemperl akukan
ering kan
Ġer upsi
Ad anya
Ġtemp lat
Ġkub u
entral isasi
Ġrah im
ĠEv ang
ĠWeb site
Ġland as
ĠKamp anye
Ġinduk si
Ġsim etri
Ġklor in
Ġklor amina
ĠAntar iksa
Ġsam ar
ĠWh at
ejahter a
ĠFre ud
ĠBos scha
Ġdikar uniai
Ġpew aris
Ġpubl ic
ĠEncyclop Ã¦dia
ĠKeh ormatan
ĠKeh utanan
ĠKl ub
met ode
Ġkop al
Film ografi
Ġvirtual isasi
cel ona
Ġlemp engan
ĠUl ama
Ġdias ingkan
ĠMik ro
the w
Ġtek ton
Ã§ ois
ĠSaw erigading
Ġpresi pitasi
oku in
Ġcomm un
Ġbib it
she vik
ĠMes opotamia
itah uan
Hid rologi
Lap isan
ĠPern yataan
ĠMov ie
ĠChampions hip
Ġline ar
Ġepidemi ologi
ĠTern ate
Ġpered aran
ĠNord ik
ĠSmack Down
Ġteleg raf
Ġmeresp ons
ĠBerkel ey
Ġyuris diksi
ĠNec rodeath
ĠSuz uki
ĠGuar dian
ĠCob ain
Muh ammad
ĠTert inggi
Ġpencalon an
Ġrip arian
Ġperjalan annya
Ġserd adu
ĠMuhamm adiyah
ĠNeigh bor
) =
B us
D an
D il
D iv
H R
I kan
L N
L ab
M B
O ne
P or
S ocial
T empat
Y ah
] )
b ot
c omm
c eae
d al
d ad
d on
d ehida
f erensi
h iz
i opia
k ecuali
m etika
n b
p ati
p unk
s alah
w orth
y i
y arat
Ø ¹
Ù ı
Ġ asi
Ġd ollar
en it
en ta
ar on
Ġm angk
Ġm ust
Ġm anga
at re
Ġp aku
Ġp lan
Ġp ajanan
Ġp ukulan
in alis
in burgh
Ġs perma
Ġb id
Ġb acaan
Ġk a
Ġk operasi
am us
si ve
eb es
is ap
il kan
il ena
or ejo
ĠS uf
ĠP re
ai th
es pe
ek onomi
Ġl omba
et or
ur itas
us akan
um ental
ĠM aya
ĠM ode
ĠM uz
ĠA id
ĠA AA
ul ts
Ġper usak
Ġmeng erti
Ġmeng unggah
ĠT ell
Ġr ujukan
ĠR ow
ĠC ian
ĠC ond
ĠJ av
Ġg arn
ĠN asir
ĠH ary
ĠH ujan
Ġmer ayakan
ĠL uw
Ġc ar
Ġc ode
ĠG uan
aj inan
isi atif
ĠW el
ĠW ong
ĠW PA
Ġmemb awahi
ĠF our
ĠF ujifilm
ot il
usi c
ip a
angg anya
Ġ" [
Ġmeny embah
Ġmeny umbangkan
os evel
he ast
âĢ ł
ĠO ost
op i
op en
Ġv ag
ew ard
ob ium
Ġkep alanya
Ġsek te
ĠY ohanes
Ġpemb eri
Ġket ikan
Ġket iganya
ver ifikasi
Ġas in
Ġas upan
eri es
ism ar
ig u
Ġpel ih
Ġpel arangan
oc us
Ġ5 8
Ġ18 00
ini us
Ġperm ukiman
pl us
Ġbert anya
Ġbert enaga
ĠPem utakhiran
iter asi
Ġmemp roses
of ilik
of osfat
ĠUn d
Ġ7 8
Ġmat h
ĠAd olf
ungg alah
Per j
ĠAs al
Ġa z
titu en
titu tion
ĠEn am
ĠSp e
Ġperk usi
Ġgr adien
ĠAb ah
ade wa
ĠSh ah
ore an
Ġot omotif
Ġot entikasi
ipt o
Ġpenj ajah
Ġpengh itungan
Ġpengh entian
Ġto ilet
Ġkl ip
qu ad
enn e
ĠAp ache
awi yah
Ġe qu
ĠEd inburgh
ĠAir lines
ĠAnd erson
ĠSam ar
Ġpengg ambaran
196 2
Ġbl ock
sat ria
ĠComp ag
ward en
ĠBar ata
ĠKap ital
ĠMat t
Ġbisnis nya
kar ena
ĠUS B
Ġref r
Ad il
Ġketidak mampuan
Ġketidak stabilan
mat rix
Ġtab rakan
ann el
Ek spedisi
Meng h
Ġaset at
otel es
ĠCap o
amping kan
ĠTw o
ĠAlex and
Ġhe ader
Ġhel ikopter
kas us
Ġtomb ak
Dem okrasi
Se iring
app y
ĠWis cons
esp on
amer kan
Ġcipta an
Ġred uksi
Ġfilosof i
Ġph ot
Sep tember
ĠHow ard
Ġmember inya
ĠCom te
ĠBib code
And alus
Ġkompati bilitas
ĠKy oto
ĠBir d
ĠGel ombang
Ġekonom is
Ġlong sor
Ġpengeb oman
ĠNav al
ĠNorm an
Ġhas rat
Kamp us
Ġmengor bit
etermin isme
Ġprolet ar
Ġmemberit ahu
ĠKapol ri
Ġmentrans fer
Ġintegr itas
Ġmenyeber angi
ĠBagai manapun
ĠSAR S
omyc es
ĠUM KM
ĠRespon sibility
bour ne
ĠMex ico
Ġmingg uan
ĠParal impiade
ĠHasy im
Ġtraumat is
Ġsertif ikat
hyth m
osevel t
ĠWiscons in
" :
D ukungan
K K
L I
L igia
O perasi
P ed
P ark
R FC
S and
U mum
a ur
a usan
b atu
c ano
e it
e ung
f it
f ect
g han
k or
k ec
l ed
m ain
m enc
m olekul
o ik
o erna
p rop
q a
t ung
t inggi
v iri
Ñ ĥ
× ķ
Ù ĩ
á ®
Ġ om
Ġ gab
Ġ ^{
Ġ its
Ġ Ùħ
an teri
er in
ar in
Ġm ang
Ġm eg
Ġm istis
Ġp ig
al pha
Ġs ihir
ah il
as ur
as tern
Ġt ugu
Ġt orak
un ang
un tik
Ġb ea
Ġb ingkai
Ġk ri
Ġk embang
Ġk utipan
Ġdi and
Ġdi ikat
si us
si fikasi
el kan
on ansi
eb ang
is ch
ĠS v
ĠS unan
ĠS jah
ĠS esuai
ĠP S
ĠP erti
ĠP urn
ek ukan
ek uan
Ġl onj
ing i
ag ari
ag ne
us en
um ni
ĠM enc
ĠM ekanisme
ĠA IDS
ĠA nies
ul ikan
ĠK ategori
ĠK evin
ĠB erita
ĠB iaya
id ato
ep al
ep it
Ġmeng idap
Ġ1 16
ĠT ian
ĠT ulang
ĠT ji
ĠT oba
ĠT ower
ĠT CP
eh id
Ġr encananya
ĠR ust
Ġpen entu
Ġpen ahanan
Ġpen emu
Ġpen argetan
Ġn abi
ĠC im
ud ar
aw ari
ĠJ ing
ĠH adi
Ġmer angk
Ġmer angsang
ok owi
ĠL imb
ĠL unar
ac ea
Ġc ontr
Ġc ontrol
ĠG ir
ĠG ala
ĠG uruh
Ġ19 09
ent ity
ent ilasi
Ġpeng uatan
Ġpeng gantian
ĠW ard
Ġmel emah
per istiwa
ĠE arly
ĠF ah
ĠU TC
usi anya
ib i
Ġmeny iarkan
Ġmeny entuh
Ġmeny ingkirkan
os at
uan a
Ġpem entasan
amb ungan
aya annya
Ġkon tainer
ec ki
omp son
ri ff
af sir
ĠV iv
ĠV iew
Ġsem asa
Ġker untuhan
Ġas alkan
Ġberk ali
ig it
utu be
Ġkes t
ologi es
Ġmengh impun
sip asi
li us
Ġked ekatan
ĠCh at
ĠCh ron
Ġdiper baiki
Ġpeny andang
Ġpol io
Ġor ig
Ġkons olidasi
est ikasi
Ġdid ek
Ġdid anai
Ġ5 9
aksi m
ĠMen jadi
10 16
Ġkeh akiman
Ġberp ori
Ġberp isah
ark et
ord on
ond ang
Ġdih aruskan
Per p
Ġpolitik nya
ĠSo eb
ĠSep uh
Ġ0 50
ĠOr todoks
Ġters el
Ġtim e
Ġpenc etakan
ĠKar no
ĠMan uel
ĠSh ep
Ġmengan tar
ĠX IV
rop h
Ġlap top
Ġdij aga
Ġpengh alang
sp ot
ĠTr aining
Ġkej am
Ġberm arkas
ce ed
Ġmerek rut
iti ons
ĠGr unge
entr i
erv e
ĠEk sp
ĠTer j
ĠLe ague
ĠSM S
ĠDr ug
Ġfisik awan
Ġmenurut nya
arg o
Ġmul ia
Ġhi as
ĠPel uncuran
Ġpar it
Ġet is
ĠPas teur
eman n
Ġmaj elis
Ġmaj emuk
Ġins an
ĠSa unggalah
St atus
ĠMat eri
Ġep istemologi
ĠPak et
ĠIm perial
echn ology
Ak tivitas
Ġus kup
Ġfot osintesis
Ang k
Ġberc erita
Ġmencatat kan
Ġsim i
be at
ĠFre edom
AL T
red itasi
Ġbend ungan
ĠOp s
Ġmengin spirasi
ĠTujuan nya
ĠKl aten
Ġkeinginan nya
ĠGol den
Ġcac ar
Ap abila
ĠMid dle
ĠHarv ey
Ġdef ault
ĠLap angan
Ġditutup i
ĠPlat form
ĠIk lim
Rep ublik
Berb eda
ĠBag us
Ġfos for
ĠHon da
ĠLit tle
ĠPlant inga
irl aba
Ġlim f
eval ensi
ĠPresi dium
Ġberpeng alaman
plan et
entif ic
Ġtump ukan
usk upan
Ġunt aian
ĠTod d
istic s
Ġagreg at
Ġmorf ologi
Ġberin vestasi
Ġteror isme
Ġark ea
ĠEmir at
ĠEsp orts
sean ografi
ĠDH EA
ĠHold ings
ilh ami
Ġkekej aman
ĠEti opia
ĠYoshin obu
Ġpelih araan
B en
C r
D ik
D ec
F IA
I d
J ames
K ew
K elas
K isah
L ondon
R EITs
U H
c as
d ek
d apat
f lix
j elang
r awa
s s
s ampai
v ed
w id
y g
z iz
Ø ³
Ġ enc
Ġ eter
Ġ à¤
Ń Ĳ
Ġd ebat
Ġd ocument
Ġp u
Ġp angsa
in and
in ental
al uan
Ġs n
Ġs op
Ġs astr
Ġt adi
si lam
el y
kan ak
tu juan
tu be
is un
ap it
il us
il eri
or ama
ĠS j
ĠS aham
ĠS abah
ĠP it
ĠP av
ĠP las
ĠP esta
ek ali
Ġl ive
Ġter oris
ĠM M
ĠA G
Ġper intis
ara ung
ĠK uasa
ĠK lasifikasi
ĠB M
ĠB ina
ĠB egitu
Ġin stansi
ung ut
ĠD u
ĠD jo
om y
om acy
Ġmeng isahkan
ro ck
Ġr iff
ab ot
ĠR C
ĠR on
ĠR IA
up ang
Ġn irlaba
ĠC V
ĠC ici
ĠJ ung
ĠJ umat
ĠN Y
ĠH ij
ĠH ank
ok sik
ĠL em
ĠG ur
ĠG UNT
Ġf re
Ġf igur
Ġpeng ucapan
isi li
Ġmemb el
Ġmemb uah
ĠF al
ĠU IN
Ġo v
Ġmeny amakan
os ari
os ina
Ġpem angku
Ġser atus
Ġkar sin
emp lar
ĠPer an
ĠPer lu
Ġkon frontasi
ec ht
ind ai
aran semen
Ġak tivasi
Ġkep onakan
Ġberb iji
Ġsek eliling
ĠY udh
st il
Ġmend anai
Ġdip ekerjakan
ĠAm her
ĠAl eks
ĠAl ice
re kannya
Ġmengh arapkan
Ġman tra
unc tion
Ġthe ory
oc or
di ameter
ĠAr nold
Ġdim inum
Ġdim ilikinya
Ġpol i
ĠPro go
ĠUni versal
In formasi
Ġterk ons
Ġ5 4
Ġmusi man
Ġgen erator
istr i
pr aktik
arsip an
Ġpers ahabatan
ĠPeng aruh
ĠPeng awasan
ĠZ at
ill an
Ġproses nya
ungg ul
Ġmenunj ang
Ġma af
Ġtrans plantasi
ograf inya
uncul nya
ĠAk ses
ĠAng garan
ĠX en
Ġsub stansi
Ġ12 5
Ġseg itiga
ĠKr ist
Ġib n
Ġib ukota
ĠAustr alian
arn asi
ĠMah araja
Ġint ens
Ġfil ter
ĠKor ban
ish ed
ick y
ĠStr ing
Ġmul tin
ĠIns an
Ġprib adinya
Ġim aj
ĠSe ason
ĠPel ayaran
Ġes ensial
ĠPemb ukaan
ĠDep resi
ĠBo ard
anggung jawab
Ar sip
evel oper
ĠMon umen
ĠHe art
ĠSup ers
ĠOb ject
ĠBar am
ĠBar celona
ĠPor os
ĠBur ma
ĠMe ga
ĠPak ta
Ġdisi mp
pro yek
ĠRo osevelt
ĠÎ ´
ĠKet enagakerjaan
ĠKomp onen
ĠKam us
ĠDin ar
Ġfot on
ĠWilliam s
Ġsh ort
Man usia
Meng gunakan
Ġsul fur
Mas jid
Ġberc abang
Ġhiper tensi
Ġanal y
ĠJo ehana
mark et
US A
Ġil ustrasi
als uan
Ġperak itan
een ig
ongg ar
ĠHa ag
Ġinvasi f
ĠIC C
ĠLap isan
Ġsl udge
ĠEth iopia
Ġpenutup an
ĠSah ara
Ġkonstan ta
ĠEnter prise
ĠPrinc ip
ĠNet flix
Ġmenyemb unyikan
Ġkompet itif
Ġastr onom
ĠBend ungan
ĠPresi dent
Ġdev isa
Lap angan
Ġfluor ida
ĠUtsman iyah
ĠBlo od
Kor ea
ĠPram uka
komun is
Ġsekuens ing
Ġpembal ap
Ġpengab dian
Ġpemind aian
ĠCong ress
ĠSop hie
Ġdipenj ara
Ġsyn th
Ġmad rasah
Ġberta juk
Ġnaf su
Ġspek ulasi
ĠMedi eval
Ġsumb angan
righ tia
Ġkuad rat
ĠYers in
Ġpne um
mf ony
ĠTho ught
ĠConj uring
ĠCompag nie
Ġdiand alkan
Ġkest abilan
ceed ings
ĠAmher st
- {\
A ri
I rigasi
K itab
L iga
M ag
M art
P ap
P ola
Q u
T ime
W rightia
d f
g u
g ambar
h anya
i gan
j ono
k elas
l ong
l ida
m ul
m ont
m esin
o eng
r up
t ak
t ek
w enang
y et
Ï Ģ
Ġ udang
er r
er u
Ġm omen
at ama
Ġp y
Ġp on
Ġp ari
Ġp orn
Ġs ib
as aki
un us
Ġb enang
Ġdi usir
Ġdi esel
em onstr
em akmuran
ad ox
el ihan
on es
is ingan
ik asinya
ĠS anj
ĠS asan
ĠS ite
ĠS ensor
ĠS ejahtera
ĠP ilihan
ĠP ondok
ai ta
Ġmen ip
Ġl ada
et ra
it ation
Ġber enang
ag askar
ut heast
Ġter ak
Ġter tanam
um o
ĠM I
ĠM IT
ĠM andarin
ul d
Ġper ilisan
ĠK B
ĠK eg
ĠK ent
ĠK iri
ĠK ulit
ĠK ualitas
ĠK uning
ĠK irk
ĠB es
ĠB om
ĠB erd
ĠB apak
ĠB UMN
Ġin st
Ġmem asarkan
Ġmem usnahkan
ep ortasi
ir ah
ir oid
ĠD um
Ġmeng ed
Ġmeng kh
Ġmeng ingatkan
Ġ1 19
ĠT aj
ĠT oy
ĠT ech
ro sis
Ġr angkap
ĠR ain
ud eg
ĠJ ag
ĠJ arak
Ġg und
Ġg lasi
ĠN F
ĠN ation
tr an
ay e
ĠH ers
ĠH arian
ĠH ass
adi kan
Ġmer amp
Ġmer awat
ok ulasi
ĠL is
ĠL ag
ac etan
Ġc a
Ġc ol
Ġc emp
Ġc ikal
ĠG O
ĠG ian
Ġ19 04
Ġpeng end
ĠW ij
ĠW arga
Ġmemb elah
Ġmemb awakan
Ġmemb lokir
ot es
Ġpem akan
Ġpem osisian
Ġsel f
ĠĠĠĠĠĠĠĠĠĠĠĠĠĠĠĠ ĠĠĠĠĠĠĠĠĠĠĠĠĠĠĠ
erti fik
ec a
Ġkem akmuran
Ġkem unduran
Ġdik abarkan
ob ar
Ġkep utus
Ġkep arahan
Ġberb anding
Ġberb au
ĠY e
ni z
ni um
19 11
Ġas pirasi
Ġpr om
Ġpr ef
Ġpr ima
ĠAm or
tur ea
Ġbi ola
ĠAl an
unc ur
ĠPr in
ĠPr emium
ug o
Ġhar ganya
if i
Ġmemper tanyakan
Ġkec ewa
ĠCh i
ĠCh annel
Ġdiper t
Ġdiper panjang
ow ski
Ġag r
Ġkons ensus
ĠThe od
Ġres earch
ern et
Ġberd ua
Ġbert angkai
pr et
eksi kan
ĠPem atang
Ġ6 7
han nel
Ġ7 6
ill o
Ġ8 7
ust on
ĠSo utheast
Ġdig erakkan
Ġditu l
Ġpenc ahayaan
aten kan
Ġberj enis
ĠKom oditas
ĠSh ow
ĠAc tive
Pen ulis
ĠX HTML
Ġtumb ukan
Ġpenj elajahan
Ġkol abor
Ġpan ah
Ġbukan nya
ĠKh ong
oy an
kl usi
ron im
Ġtok sin
Ġinter val
Ġsin onim
ogen esis
Ġkeber sihan
Ġe uro
Ġe uthanasia
Ġterc epat
Ġsal ib
ĠCo oper
ĠSen in
ho use
Ġtangan nya
Ġsup erm
ĠBo j
Ġkekuatan nya
Åį s
ĠEl ektro
tic s
ĠMo ch
ĠComp uting
ulus araung
NI L
oro ugh
Ġimp uls
Ġterh enti
ĠEur o
Ġken y
Ġstatus nya
ĠPeny ebab
ĠSc ala
Ġbay aran
eskr ip
ĠFir e
ĠPubl ications
Ġvir al
ĠBers atu
Ġpec ahnya
Ġbaw ang
Ġdial okasikan
Ġmagn etik
Ġ186 4
Ġkolonial isme
Ġsimp an
Ked ua
Komp leks
ĠSil ver
untuk kan
way s
Mem iliki
Mel alui
ĠNag ari
ĠHard y
Ġpingg ir
Ġadik nya
ĠPenj elasan
isen berg
Ġmengej utkan
ĠBend era
Rek sa
ĠRem aja
egen erasi
ĠSamb as
Ġberkep anjangan
ĠDeut sche
Ġaksesi bilitas
ĠGet ty
plement asi
deraf deeling
Ġsinkr onisasi
Ġtengk orak
ĠPersi apan
Ġspekt roskopi
ĠSTA RT
kord ansi
Ġsubt ropis
Emp at
ufac tur
ĠDharmas raya
ĠFrankfur t
Ġmultin asional
ĠBaram uli
Ġdisimp ulkan
ertifik at
) }\
- \
9 79
D usun
D igital
G reen
H en
J A
J os
K u
L M
M ad
M ur
M antan
P ut
P ros
P ancasila
S H
S umat
T ata
T ant
U kuran
W ork
W hat
b is
b ath
d ewi
f ic
i akan
k ot
n or
r int
t al
u ador
v as
Î ¯
Ñ ĭ
Ġ ç
Ġ asim
er en
er inya
Ġm ach
Ġp alu
in il
ah n
Ġt um
Ġt rop
Ġt itah
ak ata
Ġb ata
Ġk anak
Ġk ue
Ġdi atasi
el awan
el son
tu a
ĠS ter
ĠS ons
ĠS aksi
ĠS atuan
ĠS QL
ĠS lamet
ĠP R
ĠP d
ĠP iet
ĠP osisi
ĠP ejabat
Ġmen stabil
Ġber tar
ag al
ur al
ur aian
us ai
ĠM gr
ĠM una
ĠM uara
ĠA xel
ul f
ul ing
ul iaan
Ġper etas
Ġper iklanan
ara c
ĠK it
ĠK aki
ĠB ack
ĠB enjamin
Ġmem ancing
ep tor
ir in
ĠI si
ĠI ron
ĠD un
ĠD uk
ĠT urn
ro h
im ent
ĠR L
ĠR awa
ĠR ich
Ġpen unjang
ĠC R
ĠC astro
aw angsa
eg on
ĠJ onggol
Ġg ad
Ġg ur
ay unya
ĠH ud
ĠIn sp
ub ara
Ġc as
Ġ19 13
Ġpeng uasaan
Ġpeng inj
Ġpeng isian
Ġpeng emudi
ĠW ide
Ġmel ukai
og okan
per ubahan
ĠE agle
gun ung
amb al
Ġsel aras
Ġser ba
op y
ef it
ensi kl
Ġv ers
Ġv ital
ob al
ong o
ri ver
ĠY eh
Ġpemb ubaran
Ġdit entang
ĠDi j
Ġkel abu
Ġdis ana
Ġdis adari
Ġtet angganya
Ġas tro
ev iew
Ġbar ak
Ġbi of
Ġkes ombongan
re kan
ĠPr aset
oc arp
Ġterd istorsi
ĠAr agon
Ġmemper ingati
Ġdiper untukkan
Ġbers embunyi
Ġpeny erb
Ġpol os
Ġmet eorologi
Ġterl arang
imb unan
Ġ18 70
Ġar ahan
ern ak
Ġberd aya
Ġberd ampingan
ual isme
den sasi
pr oliferasi
ers hip
ĠAg ar
form ance
ĠSt ep
Ġ6 3
Ġ9 6
Ġtert unda
omb ong
Ġob servatorium
Ġ10 1
iet z
Ġterp utus
Ġro hani
ĠSp ir
Ġre agen
Ġters truktur
ĠMan hat
ĠMer api
kr esi
Ġlay aknya
ens ch
ich ol
Ġot or
Ġis lam
Ġrendah nya
Di agnosis
Ã© s
ĠTh ontje
str aksi
Ġpan itia
Ġ15 00
Ġac count
oy ono
Ġup eti
ĠGr aham
ĠPert emuan
Ġint o
alur gi
de wa
Ġbeb atuan
ukti an
Ind ia
ĠPend eta
Ġnuklir nya
ĠArab ia
ĠDr um
ĠGer indra
ĠDa ily
resi asi
ĠEd o
ĠRes pons
ĠIns urance
ĠSec urities
ĠSe oul
ĠBl ock
Ġ24 0
Ġpsik olog
Ar t
ĠMel aka
ĠCon f
ĠMo on
Ġpengg erak
Ġpengg antinya
ĠMa il
ĠCr edit
oro kan
ju alan
pro ach
Ġperp ajakan
ĠIm age
oman ia
sen yawa
own ia
ĠSc reen
ominasi kan
Ġend ok
ĠCol or
ero an
ĠInt elligence
ĠKel ima
bur uk
ĠInv asi
ĠSar agih
ĠTa o
Ġrah ang
Ġresi du
ĠBen ua
ĠWal ker
Ġberc ak
Ġteb ing
Gen erasi
abr ak
ĠNorweg ian
ĠBudd h
Ġklin ik
Mem per
ĠPenc egahan
Ġpembel ahan
Ġcer pen
ĠBad rul
Perb andingan
ĠKing dom
ĠDid irikan
Ġsab un
Ġpant as
apas itas
mod el
Ġkeset iaan
ĠHasan uddin
Ġsend irinya
Ġamp l
Ġgam elan
ache v
Ġhttp s
Ġgul ma
ĠGab ungan
Ġjel atang
ĠKend araan
ĠHir oshima
Ġmengind uksi
ĠGM IM
ĠPon ti
ĠRud olf
edd ah
jad jaran
ĠSis wa
ĠElectron ic
Ġkepr esidenan
ĠMangk ubumi
ĠSingk il
erob ik
Ġsm art
ãĥ¼ ãĥ
ibus inya
Sed angkan
Ġlag unya
Ġdipr aktikkan
ystem s
ĠRasul ullah
Ġkib or
Ġdop amin
Ġpenandat anganan
Kenn edy
ĠKauf mann
Disk ografi
ĠNapol eon
untik kan
ĠYudh oyono
ĠManhat tan
, \
A B
A cara
B P
B u
D ib
F ir
G aya
G olongan
I de
P asi
P ubl
R encana
R adio
U ang
W o
b ek
b ell
b eta
b achev
e ga
g s
h ur
h ara
h idup
h ucu
m eskipun
m ore
n ai
n awa
s ang
s ungai
Å Ľ
Ð ¿
Ù ĳ
å ı
å ľ
er ima
Ġd sb
Ġm angsa
at ah
Ġp eb
in st
al akan
Ġt rig
Ġt umpang
Ġt ype
ak wah
Ġb rah
Ġb ensin
Ġk W
em it
am ond
ad zir
si de
eng e
kan a
ik irkan
ap ut
ap ung
ĠS Ã¡
ĠS kand
ĠP ul
ĠP uisi
Ġmen anggung
Ġmen elan
Ġl es
Ġl onggar
Ġber ambut
Ġber argumen
ĠM E
ĠA PR
ĠA turan
uk uhkan
ĠB I
ĠB W
ĠB ap
ĠB eta
Ġmem uja
ĠD ah
ĠD as
ĠD eli
ĠT ag
ĠT rav
ed ang
ro up
Ġr ak
Ġr ehabilitasi
Ġ2 20
ab uk
ab uan
ĠR H
ĠR ug
ĠR endah
Ġpen indasan
ĠC end
ĠC ot
ĠJ awatan
uh nya
ta v
ĠN amanya
ĠN ano
ĠN osen
ĠH ollywood
Ġmer k
ĠL ir
ĠL evel
ub u
ĠG es
Ġpeng atur
Ġmemb icarakan
ĠF an
ot ype
ic ht
Ġo pen
Ġmeny angkal
ua ya
ali zation
Ġpro ject
Ġsel ang
Ġsel ubung
Ġsel ebritas
Ġser ibu
Ġdib enarkan
ec ta
ri ya
gr ation
af fa
Ġpemb engkakan
19 58
Ġkel iru
Ġdis empurnakan
Ġmenc ukupi
gan istan
Ġdip adukan
Ġ3 50
Ġpend ingin
ĠAm anat
Ġterb uruk
Ġpel engkap
Ġmengh apuskan
Ġmengh indar
Ġmengh idupkan
Ġand alan
Ġterd uga
Ġterd ahulu
Ġkeb ocoran
Ġked elapan
ĠCh rys
Ġpeny atuan
ĠPro cess
Ġkomp iler
Ġor kes
anc y
anc es
Ġkom a
av es
Ġ- -
elit ung
ump uhkan
Ġgen eralisasi
ĠSt ation
tiv a
Ġberl ari
Ġberl angganan
Ġberp angkat
Ġberp akaian
ĠUn sur
ell ing
Ġ7 9
ond ria
ĠAd anya
Per an
Ġkap ita
engg el
Ġdin aikkan
ĠKom oditi
ĠMas sa
12 5
Pen erapan
awat irkan
Ġot onomi
Ġis omer
ĠKr itik
ĠTh er
Ġkab ut
Ġac cess
ĠJuli us
ĠAfr ica
kl er
kl atur
ass us
ĠLe ib
res an
ask a
ĠKons ervasi
ĠPel aksana
Ġsup ern
ĠBo x
ĠPas c
ĠPas ca
ĠSam sung
ĠMel bourne
pek ulasi
Al l
Ġprak tisi
versi on
let ser
Ġpengg embalaan
su es
ĠMat thew
Kar olog
ĠPap ers
Ġbal et
Ġbal ok
Ġbal istik
Ġpembentukan nya
Ġdisi apkan
Ġth is
Ġleg end
ĠMad agaskar
ĠSub ianto
ĠSub roto
ĠPat ri
Ġtulis annya
Ġtemb ak
Ġdif okuskan
Sp ace
Sp esies
Ã¼ hr
Ġmengkl asifikasi
Ġdrum mer
ĠFin ance
ĠDen pasar
ĠGal uh
Ġpelaksanaan nya
ĠMc K
ĠMem orial
ĠKur t
Ġkak aknya
apol is
Ġmay or
ĠDemokrat is
ĠTet ap
ĠSu ite
Ab ad
Ġtran sistor
Ġsimp ul
ĠLi ver
ĠGor bachev
Ġkelahiran nya
ĠPop e
ĠRel igion
Ġdiw ujudkan
kas o
ĠAcadem ic
Ġbij inya
omen klatur
ĠSocial ism
Ġhom oseksual
ĠVer eenig
Tel evisi
Da un
Ġsab uk
ĠLeg end
ĠWill em
ĠMich igan
Ġpemas ok
semb ahkan
ederhan aan
Ġster eo
ĠDipl oma
ĠPerh impunan
ĠMath ematics
ĠCorn ell
Ġmendaftar kan
Ġprok lamasi
Ġproporsi onal
Ġdipan askan
Ġcangk ang
vert ebrata
Ġbh ikkhu
Ġá ¼
ĠAch mad
Ġmendi ami
ĠQue ens
Ġsirk ulasi
Ġâĭ ħ
Ġapot eker
Ġdisek itar
Ġaudi ens
Ġtingk ah
tusi as
ahs yat
ĠKemp ot
ĠMyc obacterium
ĠGN U
Ġmenjelajah i
ĠKekh alifahan
ĠArist oteles
ĠRoll ing
Ġmultil ateral
Ġking dom
Ġmasi f
akari da
Ġdihadap kan
ĠKha er
Ġtekton ik
ĠSamar inda
aksim alkan
ĠShep ard
ĠNosen i
. [
. }
B a
B ot
B ers
C an
C erita
F e
F ebr
G itar
H D
H abitat
K im
K eanekaragaman
L and
L enin
M y
M or
M isi
M akanan
N omor
N askah
P e
R as
R ilis
R isiko
S imi
T anaman
T umbuhan
Y o
b anyak
b age
b intang
g or
g ers
k us
m ara
m inya
p ansi
s etelah
w ich
z ou
Ï Į
Ñ Į
Ġ urut
Ġ }}
Ġ ambil
Ġ usul
Ġd enominasi
en ergi
Ġp arti
Ġp uasa
Ġp otong
Ġp abr
ang in
ah ar
ah ok
as ut
Ġb intik
Ġk utu
Ġdi gabung
em on
em aian
em viri
ad es
eng gan
eb ankan
is um
ik lin
ap u
ap arkan
il ot
il isasi
ĠS atur
ĠP engan
ĠP opuler
ai ri
es sional
Ġmen a
Ġmen el
Ġmen angg
Ġl oy
Ġl indi
et al
et ta
ol isis
Ġber an
Ġber daun
ur ipan
um er
ĠM ain
ĠM ental
ĠA w
ĠA ga
ĠA udio
ul ation
ĠK aw
ĠK ala
ĠK emen
ĠK adang
ĠK ans
ĠK Ã¶
ĠK arakteristik
ĠB ow
ĠB ase
ĠB alkan
ĠB imbingan
Ġmem uaskan
id ium
Ġh amp
ĠI N
ĠI NT
ĠI EEE
ĠD utch
Ġmeng imb
Ġmeng implementasikan
ĠT ik
ĠT raf
Ġseb elas
Ġr eksadana
ab h
ab ati
ĠR io
ĠR ise
ĠC ent
ĠC ase
ĠJ eddah
Ġg anja
ĠN ev
ay ung
ĠH et
ĠH av
Ġmer aup
ac ia
Ġf ield
Ġf eno
Ġf ondasi
aj ai
ent z
Ġpeng arang
Ġpeng urutan
end or
end aki
ĠW et
ĠW ern
ĠW inter
ĠW alau
og ok
per m
Ġmemb aik
Ġmemb ujuk
ĠF R
ĠF asis
ot ensin
ic ide
ip eks
Ġmeny es
os f
os el
âĢ ¢
ali on
ĠPer anc
Ġkon ektivitas
Ġv entilasi
Ġkem ah
ind as
ew akan
ew ish
Ġdik emas
Ġberb el
Ġberb ulu
ĠY a
ĠV erg
Ġmas ter
Ġpemb uktian
19 51
Ġkel angkaan
Ġdis abilitas
Ġdis fungsi
Ġdis ederhanakan
Ġket ebalan
Ġas s
Ġdil apisi
Ġpr ekursor
Ġan tr
Ġan tim
Ġan atomi
imp a
ev en
Ġterb awa
Ġbi oteknologi
Ġpel at
Ġpel atih
Ġpel acakan
Ġman ia
ĠPr usia
ug in
und ai
ĠAr my
ĠCh ung
Ġaw am
Ġdid asari
Ġsp ora
Ġdir ujuk
Ġdir umuskan
Ġ18 57
Ġ18 71
ubl in
Ġres minya
ustr y
Ġsamp ul
Ġperm usuhan
etu ai
Ġ6 1
ĠPeng ujian
ĠZ ul
Ġtr omb
Ġob servasi
Per encanaan
Ġmin or
ĠPol y
titu t
Ġind ikasi
Ġind ra
Ġtel emetri
Ġz irk
Ġdin ik
.. ..
Ġmengg ali
ĠMas uk
ĠKep em
Ġot her
Ġsub duksi
Ġ12 7
14 0
ĠSy n
ĠSy ams
str uktur
rat ed
ĠKes ejahteraan
Ġrel asi
ĠAS P
Ġperl unya
Ġ14 0
ĠTer masuk
ĠTer kadang
Ġdekat nya
Ġsk ena
ans om
ĠIns tax
ĠKons ervatif
ĠPemb ebasan
Ġsup lai
ĠPas angan
iss ance
Al iran
Ġang i
Ġpad anya
Ġpengg alian
enti a
ĠMak edonia
enz o
ĠSet iadi
St asiun
aus s
Ġdisel amatkan
Ġsa ingan
ĠGro w
ĠUS D
pro vinsi
ĠTrans portasi
Ġekstr aseluler
ĠSub ang
ĠBat am
Sek itar
Ġprop osisi
ĠInt egr
ĠKam al
top ril
ĠRec ord
Ġ189 6
ĠKamp ar
Ġreal istis
Ġpengan iayaan
ĠWik i
zh nev
Ġfisi l
Ġbr and
aton ya
ĠRah man
Kab ag
meng h
ĠSamp oerna
ĠWe ek
Ġopsi onal
ĠProt ect
ĠPad jadjaran
ĠCommun ity
ĠRock y
ĠChrist mas
ĠGeorg is
Ġmam anda
ĠLog am
Str ategi
ĠKop tik
ĠKop kamtib
ĠHard core
Ġkeset imbangan
On derafdeeling
Ġinteg er
Ġtek stil
ĠBib it
ĠMongol ia
ĠEduc ational
Ġamp un
Ġsaw o
kem udian
elus uran
ĠDiper tuan
mathb b
ĠHil ir
Ġkompet ensi
Ġsentim en
Ġbub ar
Ġbub uk
Ġstu dy
Perd agangan
oge ografi
ĠRena isans
ĠAuth ority
Ġseper angkat
ĠFall ing
ĠAppl ication
Ġfund amental
Ġsamb utan
Ġjas ad
ĠLiv ing
Ġberkom entar
ĠKand ungan
ĠRepubl ic
ĠBre zhnev
Ġinsp eksi
ĠWester ling
Ġmons un
dok umen
Ġsubstan sial
Ġpark ir
entro kan
ĠWW E
ckl ist
ĠFerd inand
Ġtuberk ulosis
×ķ ×
emonstr asikan
Ġkeny amanan
ĠPeranc is
1 20
1 18
2 50
B ol
B andar
B ila
D om
H indu
I ran
I NA
J embatan
K utipan
L ima
L aporan
M ark
M usim
N a
N or
P urn
R ichard
T ermin
V C
W ir
c ia
d asar
d osis
f okus
f eld
g ejala
h ubungan
l s
l eg
m end
p p
p astian
r ep
x ter
y as
y ong
Î ·
å ħ
Ġ ing
Ġ engk
Ġ ensikl
an is
Ġd est
en ia
ar ag
Ġm uara
Ġs ource
Ġs ocial
as ingan
Ġt or
Ġb entang
Ġb ook
Ġk ader
Ġk atalog
Ġdi agnostik
am al
is otop
ik ing
il akunya
ĠS W
ĠS ard
ĠS awah
ĠS of
ĠS utradara
ĠP akar
ĠP sik
ai a
Ġmen ari
Ġmen injau
Ġl b
Ġl ife
Ġl uhur
et ics
it on
ut ik
ur on
Ġter wujud
us sel
ĠM S
ĠM T
ĠM alam
ĠM ud
ĠM ATLAB
ĠA wan
Ġper ihal
ĠK un
ĠK TT
ĠK orean
ĠB art
ĠB PU
ĠB iru
ĠB antuan
ĠB razil
ĠB atalyon
Ġmem utus
Ġh af
Ġh ash
Ġh utang
ti an
ĠI ra
ĠI turea
ĠD ukungan
Ġmeng ag
Ġmeng usung
Ġ1 13
ĠT elah
ĠT ony
ĠT eguh
Ġj eda
Ġr oman
ian isme
ĠR T
ĠR et
ĠR abu
up as
Ġpen embak
Ġn usantara
Ġke esokan
ĠC A
ĠC ut
ĠC old
ĠC row
ud ing
ĠJ ama
ĠJ okowi
ĠJ affa
Ġg anj
ĠH ian
ĠH az
ĠH KBP
Ġmer epresentasikan
ĠL ind
ĠL ingga
ĠL iter
ĠL embang
ĠL aboratorium
ĠL isensi
ĠG us
ĠG ading
ĠG Hz
ant ina
Ġpeng ikat
ĠW ang
ĠW as
ĠW heel
ati b
Ġmel intang
Ġw arn
ĠF igh
ĠF eder
ĠU se
ĠU lang
ib ur
os us
Ġpem otongan
aya p
ali gned
angk in
Ġser buk
op edia
osi atif
ĠPer ingatan
Ġkon j
ec tiv
ind aran
ind ische
Ġdik erahkan
Ġdik tator
Ġkep ing
Ġberb uah
19 57
Ġker ajinan
sa ud
Ġmenc intai
Ġpend ahulu
eks inya
mas yarakat
ov iridae
Ġpel abelan
Ġman uver
ĠPr ice
ĠPr imer
ug e
if orm
arak ret
itar y
Ġbers pekulasi
Ġpeny amp
ĠPro duction
Ġdid ampingi
Ġterk ontrol
Ġdir ayakan
aksi an
Ġres torasi
Ġses aat
Ġberd agang
akar sai
eda ulatan
Ġbert empat
Ġek sistensi
Ġpers on
Ġproduk sinya
Ġab orsi
Ġberl atar
ort on
Ġap pl
Ġtert anggal
Ġmemp elai
te ga
Ġeks emplar
Ġ8 3
Ġ8 6
Ġdem o
Per ingkat
Ġmin ta
lin s
ait un
Ġtel anjang
Ġperk umpulan
eta apian
Ġdin ominasikan
Ġantar negara
Ġmakan annya
ĠKar bon
ĠKer angka
Ġberg en
all a
Ġdic egah
mb angan
ĠAc tion
mp h
Ġist irahat
ĠTr aktat
Ġon e
rat es
Ġik at
arn op
Ġem iten
ĠEk uador
Ġpand ai
ĠKor upsi
ĠPend ukung
25 5
ith uan
Sel anjutnya
ĠCo untry
Ġpet inggi
Ġjalan nya
Ġpat ut
Ġpat ri
ĠTel eg
ĠSebagai mana
ĠCon fl
ĠMon ey
org hum
Ġzaman nya
stan bul
ĠCar ter
rok imia
Pemb agian
ĠKap itan
ĠPet ernakan
emi x
do om
ĠPar araton
ings an
ĠSci entific
ĠCor p
ĠKet idak
Ġkend ala
indak l
ins eng
Ġketurunan nya
ĠDar ma
ĠKo ordinasi
sor psi
ĠInt eg
Ġny anyian
adah al
Ġtep ian
Ek ologi
Ġaksi oma
Ġpesi ar
Ġsul fida
Ġaman at
ĠKur di
Ġno tifikasi
ĠTro jan
ĠAll en
ĠYo uth
Ġsubjek tif
abr akan
Ġbr utal
Ġsimp at
Ġ188 3
Ġdian alisis
ĠBlu es
Ġungg ulan
Ġdidapat i
ĠMoh amad
Ġsiap apun
alid asi
ĠChe cklist
Ġcac ing
Ġkedudukan nya
Ġoptim asi
Mer eka
Mus solini
ĠBrit ain
ĠTop an
Ġdias umsikan
Ġtengg orokan
ĠMosk wa
ĠMont e
Ġvert ebrata
ĠCre eper
}= \
Ġarke olog
ĠSouth ern
ather ine
Ġamat ir
ĠSaf ety
Ġsit oplasma
Ñģ ÑĤ
komp onen
ĠSya fi
ĠSes eorang
ĠPurw orejo
ĠGab ri
ĠSte el
roy eksikan
Pi ala
Ġmenyal akan
ĠIA IN
UC N
Up aya
orb anan
ĠRib oet
Ġberkom itmen
tet api
Ġketi adaan
acar ita
ĠAnim alia
ĠEnvironment al
Ġpod cast
Ġhero in
ĠGitar is
ĠPrib adi
vest asikan
ĠPesan tren
Ġstream ing
Insp ektorat
cd ot
ĠCatalog ue
Ġringk as
ĠPramb anan
ĠProk lamasi
ĠDirec tory
ĠCian jur
ghan istan
ĠSjah rir
ĠRC TI
ĠRIA A
Ġpneum onia
ĠSanj aya
Ġmenstabil kan
ipeks ol
arakret agama
ĠConfl ict
' )
B end
B ukti
B unga
B ulusaraung
C M
D asar
F K
F in
F oto
F armak
G N
H i
K imia
L AN
M r
M it
P impinan
R W
S E
S orghum
U D
U E
W e
Y ayasan
Z ona
a utan
b ad
b akteri
e u
h olm
i ence
i ensis
j asa
k isah
p art
p urna
p df
r ard
t indakan
u ages
w er
y id
Ã ²
Ã ¸
× Ļ
à ¦
an angkan
Ġd odo
en ol
en ankan
at uk
Ġp ran
Ġp ikir
Ġs ia
Ġs ingk
ah abat
as m
Ġt ot
Ġt uhan
Ġt indih
Ġb os
Ġb ox
Ġb angku
Ġb etween
Ġk aidah
Ġdi obati
am as
si ons
Ġy g
tu b
eb ah
eb om
il ab
il ib
il ey
il trasi
or ter
ĠS arah
ĠS ey
ĠS imbol
ĠP asti
ĠP AP
Ġl engk
Ġber gantian
Ġber diameter
ag ement
um pa
ari fikasi
ĠA TP
ĠA stana
ul osa
ĠK operasi
ĠB un
ĠB ea
ĠB atur
ĠB iji
ĠB angkok
Ġmem odifikasi
Ġmem eluk
ep alai
Ġh um
Ġh atinya
ti ce
ĠD B
ĠD rive
Ġ1 200
ĠT erd
ĠT hird
ed uh
Ġr aj
ab y
ab uh
ab utan
ĠR ace
ĠR AM
ĠR ail
ĠR egional
emb ala
emb ly
Ġpen embakan
Ġn is
ĠC ipta
eg ulasi
ĠJ og
ta inya
ĠN I
ĠN ata
ĠN epal
ay arkan
ĠH amb
ĠH yd
ĠH egel
adi gma
Ġmer ef
ok l
aan i
ĠIn ilah
ĠL ep
ĠL amb
ĠL ex
ub it
Ġc en
ĠG ra
ĠG las
Ġf ik
ant ar
aj aya
ent ak
Ġpeng awal
Ġbah u
end ed
ati ga
Ġw ah
Ġw ine
Ġw acana
ĠE qu
ĠF ro
ĠF iji
ĠF armasi
ĠF ootball
amp ang
ĠU z
ib an
ib ution
Ġmeny ala
os ongan
os pora
ran ium
Ġser uan
op olitik
emp arkan
ĠPer sek
ĠPer syaratan
onal isme
ind ian
ew all
Ġdik eringkan
int on
Ġak ril
ĠY az
19 42
Ġker apatan
Ġdis alah
Ġdis ebarkan
ĠĠĠĠĠĠĠĠĠĠĠĠ ĠĠ
Ġpr em
Ġan tusias
Ġberk e
Ġberk or
ov o
ode kan
ine al
man usia
Ġman can
ĠPr ia
ĠPr emier
== ==
Ġhar um
tan ah
li o
li es
und erb
ĠAr am
Ġseh arga
Ġpeny ertaan
ĠPro tein
ĠPro sedur
ĠMar cos
est inya
Ġdid okumentasikan
Ġdir atifikasi
Ġ18 48
Ġ18 47
Ġres esi
Ġair nya
angs ur
ĠSt able
iter jemahkan
Ġ6 9
10 1
urut kan
ĠZ ending
Ġtr em
Ġtr ek
Ġtr endabl
ĠBr ad
ĠBr and
erd ayaan
Ġ10 5
Ġ8 1
ĠIS L
Per h
ĠSo ul
Ġ0 9
Ġperk er
}} ]
Ġtrans form
ĠSem angkin
Ġger gaji
ĠSh ak
kr itis
Peng alaman
Peng obatan
Pen emuan
lat ed
ipt anya
Ġis ti
Ġdij atuhi
Ġpengh ilangan
sik sa
Ġmiliter nya
13 5
Ġto ol
Ġbersi ap
Ġberm ukim
iti onal
lim ate
Ġsat upun
Ġem ail
ais nawa
Ġfil ogen
Pro vinsi
Ġmodern isasi
Ġterj aga
omat erial
ĠStr ings
ask et
ĠTel ekomunikasi
ĠKon on
ĠKon stant
Ġtimb unan
sek al
Ġmelihat nya
Ġet im
Ġet ologi
egi un
erit anya
Ġperempuan nya
Ġdibentuk nya
ĠRob ot
ĠMaj ene
Pemb uatan
ãĥ »
ĠMa o
Kar tu
inf o
uw angi
ĠRo ch
ĠLa os
ĠPeny iaran
Ġnan ti
nam ics
ĠDis play
Ġref l
Ġref orm
ĠBh ikkhu
Äģ n
ein berg
awar ingin
sch er
Ġpengel ompokan
ĠFin n
Ġkeker ingan
Ġkeker abatan
ĠTechn ologies
Ġcur am
Ġreal isme
Ġlel ehan
Ġ186 1
ĠRef orm
pem ain
Ġmengal irkan
Ġpid atonya
ĠColl ection
Th omas
esti sida
abr ikasi
ĠRos e
Komp osisi
Komp onen
ĠAnt artika
Ġimun isasi
ument s
Ġbij aksana
Ġneur o
ĠBol shevik
Ġhom ogen
ĠPort al
Ġideal isme
Ġbertambah nya
Ġadministr ator
ĠBern ard
Ġkul tus
Ġjurnal isme
Ġok tah
ĠWork s
Ex tra
ĠPed oman
Ġintr av
ĠFer r
enya p
Ġbon us
dr ess
ĠPerj alanan
akum ulasi
omon as
Ġjer uk
ĠJal al
Ep isode
ĠKah uripan
Ġpenamp ang
Ġmuk ormikosis
Ġmengu ap
Ġmengu tuk
ĠGem ilang
Ġseper empat
Kap al
ĠElectron ics
ĠFu ture
ĠChurch ill
del ta
ĠClas sic
Ġketi ak
Ġhamb a
Ġdidalam nya
ĠStrept ococcus
ĠChap ter
Ġmanif estasi
Ġmembas uh
Ġprote ase
Sul awesi
Ġkant ong
ĠLek ima
ĠKonfusi anisme
Ġdiur aikan
inav ia
Cen taur
Ġangs uran
ĠVinc ent
ĠQuar ter
Ġterob osan
ĠDharm awangsa
Ġmart abat
ĠEug ene
ĠPhill ip
Ġgarn isun
ĠTodd opul
Ġditul arkan
Ġpabr ikan
ithuan ia
2 20
? ".
A H
B E
B ay
C II
C yanogenMod
D ip
F U
F ilsafat
G l
H T
H ewan
H TTP
J ava
K RI
L o
L eg
M PR
M esir
M usic
N ovel
O ly
P ern
R MS
S alih
T K
T itik
T entara
V I
b s
b matrix
d eling
g ov
h ol
h anan
k at
l ian
l ay
n al
n asional
r ain
r Ã©
r olan
u en
w ind
w est
w ord
y adi
z aman
{ ^{
Ð ³
ï ¼
Ġ amun
an e
er tum
Ġm u
at tern
at rik
Ġp eka
Ġp ilih
al aan
Ġs ingg
Ġs imb
Ġs ho
Ġs umur
Ġb ita
Ġk ov
Ġk antung
Ġk aus
Ġdi awasi
Ġdi iringi
ad iksi
si e
eng si
tu l
on aris
eb usan
ik tator
il ator
or bit
ĠS E
ĠS J
ĠS alam
ĠS end
ĠS und
ĠP B
ĠP ir
ĠP ug
ĠP seud
ĠP esisir
ĠP adahal
ai gn
ek am
ek alan
Ġmen opang
Ġmen tega
Ġl akon
ag onal
Ġter atai
asi b
ĠM g
ĠM ali
ĠM ob
ĠM olekul
ĠM its
ĠA P
ul atif
Ġ( -
uk ir
ĠB uk
ĠB ukan
ĠB ale
Ġin sek
Ġin kaso
Ġmem aksimalkan
id ing
id itas
Ġh eg
ĠI OC
ĠD ong
ĠD ark
ĠD ataran
ĠD esktop
ĠD VD
Ġmeng inter
Ġmeng ucapkan
Ġmeng optimalkan
ĠT ana
ĠT ow
ed o
ed am
ia z
Ġr ab
Ġr uas
Ġr usa
ama os
ab et
ab we
ĠR w
ĠR ij
ĠR ancangan
Ġpen empatan
Ġke emasan
ĠC C
ĠC u
ĠC art
ĠJ ember
Ġg hetto
ĠN ah
ĠN aj
tr id
ĠH ib
ĠH ikayat
Ġmer es
ok el
ok ondria
ter m
ĠL ux
ac le
ub er
Ġc all
Ġc ukai
Ġoleh nya
ĠG amb
ĠG ugus
ĠG auss
Ġf ull
ant unya
Ġpeng ikatan
Ġpeng unduran
end ahkan
isi ologi
Ġmel od
og lob
og likan
per angkat
per anto
Ġw ol
Ġmemb awanya
angg up
Ġmeny uruh
Ġmeny ederhanakan
os ong
he et
Ġsep ihak
angk aran
Ġsel era
ĠPer intah
ec o
ec tron
ec ewaan
Ġkem urnian
Ġdik omp
int o
int ing
Ġak ting
ong iae
ri gan
st anding
Ġmend ahului
Ġpemb entuk
19 48
Ġkel iling
Ġdis ambut
ch an
Ġdip entaskan
Ġdil ayani
Ġpr evalensi
eri or
ĠAm p
umb ung
air man
Ġkeb al
und aan
ĠAr ca
Ġmemper buruk
ĠCh ase
unj angan
Ġpol is
ĠPro ceedings
Ġsp ort
Ġsp asial
imb abwe
Ġdir intis
Ġdir ektori
esk y
ĠThe ater
Ġangg ap
Ġap alagi
Ġob rolan
ungsi kan
Ġ7 1
Ġ7 4
tim ore
tim ate
Ġdih argai
Ġ8 4
Ġspesi alis
ĠSo ed
ĠSo est
Ġel ang
ĠSp art
ey ond
ĠMal ema
ĠâĢ ²
Ġpenc ampuran
ĠMan ila
ĠMan ufactur
ĠJerman ik
ĠAk tris
Ġberg engsi
Ġdep ortasi
Ġdic eritakan
Ġefek nya
ci o
ĠX P
Ġ13 5
ĠKr ak
ĠKes el
ex ap
Ġberm unculan
ĠâĪ Ī
ĠKe ita
ĠPert andingan
ĠPert unjukan
ry pt
Ġkor idor
ĠKem ungkinan
kl or
ĠQ uantum
Ġpusat nya
ass er
Ind ian
Ġsk ep
erang i
AS I
oll er
ji ang
Ġsal initas
ĠRes ource
ĠRes erve
Ġkonsep tual
arm alim
old ing
Ġpember itahuan
ĠDem osp
ĠPemb ina
ĠHar bor
Ġsup lemen
Ġmengubah nya
ĠMin ecraft
ĠAir bus
ĠBo ot
ĠSal atiga
ĠMet ropolitan
ĠPal m
sy n
lor amina
Ġah lun
Ġingin kan
ĠVol ks
ĠBi as
su ara
âĢĻ ,
ĠMak na
yc le
Ġart istik
ĠPers emakmuran
ph p
omun ikasikan
Ġpl ay
tp attern
Ġbir okrat
dus eri
omet ry
ĠSim Simi
ĠSi erra
Ġtop ografi
Ġsemb ah
Sek arang
Ġus er
Ġkos akata
ĠMeng enai
ĠPur ana
ĠBal tik
Ġvir ul
amil ton
Ġneut rofil
ĠTechn ical
ĠBerb er
ĠTa uf
Ġmoral itas
Ġkre asi
Ġbes aran
Ġkak inya
Ġ188 7
ĠSil va
ĠIT IS
Ġpersi mpangan
Ġport al
Ġir ama
ils uf
Ġkat up
Pas angan
Pas ukan
Ġmemf okuskan
Ġsint aks
ĠGK J
Ġnano tube
ĠCre ative
Ġbut iran
Ġkosm etik
Ġfos fat
ĠSap ta
Ñģ Ðº
ĠLew ot
ĠNO W
bas ed
Ġmikroskop is
Ġlong um
Konf lik
RD IC
Ġkok ain
-> [
Ġali en
ĠTerl epas
Ġpeneg ak
ecuali kan
Ġeng gan
Ġpenger ingan
Ġvi olet
ĠTradisi onal
Sin opsis
wujud an
Ġprolet ariat
ĠKew arganegaraan
Ġher pes
yad h
Pod s
ĠCarol ina
Ġpleb s
Ġterper inci
Ġsun tikan
Ġberkons ultasi
Ref erence
Ġsolid aritas
Ġarit metika
ĠArchitec ture
ĠNicol son
gard en
onc eng
ĠWarn er
ĠMara bahan
olumines ensi
Ġej aan
ĠOost indische
silam ina
Ġsuperm arket
ĠPonti anak
enggel amkan
Ã¼hr er
indakl anjut
inseng umi
Ġmancan egara
Ġperker etaapian
Ġintrav ena
Oly mp
iktator an
ĠDemosp ongiae
4 50
B ulan
B rig
D oc
F ranc
F ujifilm
H alaman
J apan
J uli
K N
K a
K ita
M enc
N otasi
O P
P opul
R om
S us
S idang
T indakan
W arna
\ &
a uan
b ir
b org
c ep
c omp
d id
d etik
f les
g on
g ate
h amb
h ingga
h lm
k ac
l ibatan
m un
m ap
p et
p hy
s m
s up
s angat
u er
u apan
Ï ĥ
Ï ħ
Ï ī
Ù ģ
á º
ð Ĵ
Ġ ala
Ġ ä¸
an anya
er ai
en na
en kripsi
Ġm angkat
Ġm adu
Ġp acu
in ir
Ġs ind
as uhan
Ġt it
Ġt uas
Ġt inja
Ġt ayangan
Ġb ug
Ġk ort
Ġk ura
Ġk iriman
Ġk satria
Ġk ayunya
Ġdi di
em ati
ad ata
ad atan
ad amkan
ad okia
si g
kan toran
ap raja
ĠS R
ĠS api
ĠP otensi
ĠP isang
ĠP nb
es y
Ġl ab
et el
ol ph
Ġter organisir
us krip
ĠM eri
ĠM ungkin
ĠM antan
ĠM ost
ĠM agn
ĠA q
ĠA sisten
ul ingan
uk unan
ĠB L
ĠB ec
ĠB ach
ĠB ima
ĠB ij
ĠB au
ĠB ass
ĠB eth
Ġin trin
Ġin hib
Ġmem ancarkan
Ġmem usatkan
ti al
ĠD ist
ĠD aha
om atic
Ġmeng ambang
Ġmeng khusus
ĠT ul
ĠT ail
im entasi
ĠR ab
ĠR ey
emb usan
and om
and alan
Ġpen et
Ġn ek
ĠC up
ĠC loud
aw ahan
ĠJ ab
ĠJ awab
ĠJ ohan
Ġg or
Ġg row
ĠN ak
ĠH M
adi p
ok at
ok in
ĠIn g
ĠIn frastruktur
ĠIn formatika
ĠL ub
Ġc iv
ĠG ot
ĠG aku
ĠG BI
ĠG usta
Ġpeng iklan
Ġbah agia
ĠW a
ĠW it
Ġmel umpuhkan
og asi
per b
Ġw azir
ĠE U
ĠF ak
usi ran
itu ania
atu a
ip rah
angg an
Ġpem utaran
ĠO ur
ĠO uv
Ġsel amanya
Ġsel isih
Ġser oton
op el
ĠInd ex
ĠInd ische
ĠPer ak
Ġkon tra
Ġv askular
Ġdik etuai
ri f
ri ft
ingg o
af kan
Ġmend uga
Ġmend atangkan
alu e
Ġmas anya
Ġdit ak
Ġkel impahan
Ġket erikatan
Ġket ertiban
Ġdip elopori
Ġdil alui
Ġpr emis
Ġan y
ĠAn na
ĠAn col
ula ziz
Ġberk elompok
Ġberk enaan
Ġkes ed
Ġkes embilan
ja uan
ingkat nya
Ġpel bagai
ug asi
aik i
if erensi
air ah
ember ikan
Ġkeb aktian
Ġkeb isingan
Ġdim et
ĠCh ile
ĠPro dus
ĠMar z
emen s
Ġterl aris
Ġsen sasi
Ġsp e
Ġsp ace
Ġterk ej
Ġar oma
Ġar eal
Ġgen ap
uc t
Ġakhir an
ĠPem eriksaan
ij n
ĠSt ef
ĠPen etapan
mi ah
omb inan
Ġtr ik
ĠBr ill
ĠBr ussel
of on
Ġ7 7
Ġ7 50
tim asi
tim ura
ill arge
ha z
Ġterp enuhi
ĠDes c
lin awan
Ġel ev
Ġperk ataan
Ġperk akas
ĠOr rell
Ġpenc atatan
ĠAb bas
Ġmener jemahkan
erl ag
ĠSh insengumi
Ġi uran
ens en
ĠX er
Ġ13 0
An tar
An ton
ĠSy ria
Ã© d
Ã© t
ĠTr in
erg ik
unt ingan
qu ir
ment s
omm un
ĠTer c
ĠBank ing
omat isasi
ĠEd ge
ĠIns ecta
ĠSen ator
Ġpat ungan
RI S
ĠPemb uatan
ela utan
Ġpsik iatri
ĠPas por
Ġbis ul
Ġrakyat nya
ĠMel vin
Ġkulit nya
ĠHe ad
Ġkompl emen
ĠMak am
enj atai
ĠMed ali
ĠSet ahun
Ġposi tivisme
Ġart ileri
Ġimp likasi
rap h
ĠPap er
Ġbal as
Ġbal ai
Ġdel ta
Ġpl ur
Ġmenurun nya
Ġmenggantikan nya
me ga
taf et
Ġleg itimasi
Ġmit okondria
ĠDis c
Ġrib osom
ĠAy am
truktur isasi
Ġdampak nya
Ġsemb uh
ĠKo ch
ĠBat tle
ĠTV RI
top las
Kep utusan
anti asa
ĠSar as
Te ater
go in
ĠMc Gr
ĠMay oritas
Ġex per
mar hum
Ġ186 2
Ġ186 7
Ġpo inter
ĠRef erence
iny alan
ĠUr ban
Kr isis
Pel abuhan
Ġhib ah
ĠYo ga
ĠKonf lik
ĠRos kov
ĠKu il
onstr uction
ĠSum eria
ĠBa illy
ĠBa illarge
Ġras isme
Ġaf iliasi
ĠProt ection
Ġdipl omat
Ġmemec at
Ġcer mat
Ġdipercaya i
Ġparlemen ter
ĠOt to
Ġpir oklas
Penc egahan
Ġkul iner
ĠHi jaz
ÑĢ Ð°
Ġoksid ator
Ac eh
ĠBor neo
ĠOc c
Ġsend irian
estr adiol
ĠNH K
ĠMun ich
Ġoff ice
idemi ologi
enaz ir
Ġsensi tivitas
Kal imantan
ĠMary land
ĠBit warden
Ġkok oh
she et
ĠOs wald
Ġtir oid
Ġprok ariota
ĠWin ston
Ġkonstruk tivis
Bis by
ĠPag linawan
Ġdipan en
Ġmengor bankan
ĠArth ropoda
ĠBrig adir
Ġfluk tuasi
Ġmenyus ut
ĠTemp o
ĠSound garden
ĠSL R
ĠBond owoso
Ġpemind ai
ĠSara wak
ĠJim my
âĤ Ĥ
ĠBour goin
opt osis
rem asi
norm al
iskusi kan
ĠNederland sch
Ġpa ok
ĠRup iah
Komun itas
Ġkemand irian
Ġkemas yarakatan
Ġrint angan
Ġkenc ang
ĠSusi lo
ĠRal ph
Nov ember
Ġmust ahil
ĠLuw u
ĠGala xy
Ġsastr awan
Ġmembuah kan
Ġterkons entrasi
ĠSkand inavia
Ġlegend aris
Ġmengklasifikasi kan
ĠINT J
Ġengk au
Ġwarn anya
Ġbergen re
underb olt
Ġintrin sik
ĠOuv rard
ĠBaillarge on
Ġpiroklas tik
, âĢĿ
. -
4 15
B D
B ad
C as
D C
D X
G ame
G ubernur
H ampir
H uman
I bu
K i
K ong
M ode
O ver
P ihak
P ustaka
P emenang
P angkep
R atu
S an
S erial
T et
T anah
U P
V A
W S
W are
] ;
b at
c m
h aw
j aja
j elas
k n
k ing
k awan
k ey
k lan
l aut
m ic
n us
p hi
r ip
r ite
t si
v ial
v iv
w il
w ari
Ó §
Û Į
ç Ķ
Ġ ukur
Ġ ego
Ġ usianya
Ġd ur
Ġd ong
Ġd orong
Ġd ensitas
Ġd ehid
ar c
ar it
Ġm or
Ġm os
Ġm arak
Ġm ore
at ahkan
Ġp ij
Ġp egangan
Ġp ages
Ġp ingsan
Ġt if
Ġt au
Ġt esis
Ġt ambah
Ġt oleran
un ta
Ġb ik
Ġb atin
Ġk enal
Ġdi ingat
Ġdi siksa
em oni
am ent
si b
el aran
eng es
is alah
or ema
ĠS ian
ĠS ALT
ĠP AL
ĠP ajang
ĠP emenangan
it el
it ive
Ġber air
Ġber tumb
Ġber urusan
Ġber tukar
ag us
ĠM eg
ĠM ika
ĠM emp
ĠM itra
ĠA V
ĠA le
ul as
ĠK ontrol
ĠK ino
ĠB aja
ĠB isa
Ġmem v
id erc
Ġh itung
Ġh umor
ti er
ĠI lir
ĠI ly
ĠI KIP
ĠI stanbul
ĠD rone
om n
Ġmeng awali
ĠT apan
ĠT yp
Ġj et
Ġj anda
ed ur
Ġseb aran
Ġr awan
Ġr ansom
ĠR ata
ĠR apat
ĠR he
Ġpen ya
Ġpen unjukan
Ġpen syaratan
Ġn adzir
Ġke f
Ġke ab
ĠC ak
ĠC ro
ĠC ora
ĠC PU
ĠJ uara
ĠJ ordan
ĠN ietz
tr et
Ġad ipati
ĠH ut
ĠH MS
Ġmer angkap
ter b
ĠL ay
ĠL ahan
ĠL ast
ĠL angkah
ĠL alat
ub urkan
Ġc over
apat ista
ĠG ene
ĠG arut
Ġf ungi
ant aran
Ġpeng ubahan
Ġpeng ambil
Ġpeng operasi
Ġpeng kajian
Ġpeng orbanan
isi asi
ĠW ib
ĠW ell
ĠW itt
Ġmel el
Ġw afer
ĠE G
ĠE Z
ĠE astern
ĠF ath
ĠF ive
ot ov
amp el
amp asan
amp urkan
ĠU TP
ĠU BS
Ġmeny empurnakan
os aan
Ġpem odelan
Ġpro yeksi
Ġsel ir
ef ox
ĠPer mintaan
Ġv eteran
Ġv itro
Ġdib ayarkan
ob us
esar tan
ri ef
gr ade
ĠV is
ĠV eh
ĠV atikan
Ġmend alami
Ġmend ampingi
ĠDi e
ĠDi f
oh ong
19 20
19 41
19 52
19 53
Ġkel ayakan
Ġat e
uat ik
Ġmenc uci
Ġdil ambangkan
Ġpr ep
Ġan ion
ĠAm az
Ġberk ek
ses uaian
Ġkes us
Ġkes esuaian
ja uhkan
ĠAl aska
man ik
ont arkan
Ġmengh ant
Ġman agement
Ġtan ur
Ġthe ir
ug askan
ingan kan
Ġhar mon
und an
ĠAr fak
ĠCh ains
Ġpeny us
Ġpeny empurnaan
ĠMar c
ĠUni verse
Ġkons onan
Ġpara bola
Ġterl uar
Ġsen antiasa
imb angkan
Ġdir ebus
Ġ18 18
Ġ18 25
Ġ18 40
Ġar tif
akar sa
Ġbert em
ĠBel iau
Ġpers eor
ĠPen angg
ĠPen asihat
ĠPen erapan
Ġ9 2
Ġberh ati
of ren
Ġmil enium
tim atum
lam e
Ġ10 3
angsung kan
ĠAd j
Ġ8 02
Ġhukum nya
Ġterp isahkan
Ġspesi alisasi
Ġâ Ħ
Ġel astis
Ġtel ef
Ġkeluar nya
}} }}
iz ofren
Ġre turn
dis on
ĠAk ar
ĠSh ift
inta annya
ĠKep ercayaan
Ġdij angkau
Ġdij atuhkan
Ġlok asinya
Ġnuk lida
str a
ĠSek ar
ĠKes hogunan
Ġrel awan
Ġrek ombinan
oksi dan
ĠKe uskupan
erv oir
Ġtok sik
ĠDe an
Ġjam ak
ogen es
Pem ain
Pem ikiran
Pem asaran
Ġmul timedia
ĠGe ographic
ĠCo unter
Ġge ologis
Ġrep ort
Ġberat nya
ira un
ĠNo or
Ar ca
ĠAnd re
tic ide
ĠMon aco
Ġby te
ĠPut era
let in
ĠCar lo
sat ukan
ĠTe uku
ĠGu el
ĠGu ill
ĠKap adokia
ink arnasi
ĠPers etujuan
ĠAbd ulaziz
ĠLa unch
ĠStudi os
Ġteg uh
Ġch at
ĠOn t
Ch ina
Ch arl
Ġtop ologi
Ak ses
Ġdif ungsikan
Sp esifikasi
Ġsur el
Ġku ota
Ġsimbol ik
Ġpal et
ĠMeng gunakan
ĠKej ahatan
ĠBal timore
As as
Ġdial irkan
Ġresi stan
Ġ189 4
Ø§ ÙĨ
Ġ186 8
ĠDj arum
ĠEm erg
ĠCap e
Ġanal itik
pel aden
Ġdieks por
ĠSab bath
ĠSun ni
Bi as
Mar s
Ġ188 9
ĠEconom y
ĠBu ilding
à¤ ¾
ĠBa xter
ĠKub is
Ġtun tas
Ġperek am
Ð¾ Ð²
ĠId ris
ĠId entitas
Ġkot anya
Ġdiab adikan
ĠRam li
Br itania
Ġpembel aan
esm ian
Ġfl ag
Ġdipl omasi
ĠStrateg ic
Ter api
ĠDur ian
ĠNag asaki
Ġdias osiasikan
rot odon
ĠRus sian
El emen
De ath
ĠSus hi
Kol onisasi
Ġarke ologis
ĠIl miah
Ġsend i
ĠGh ana
Ġveg et
á¹ ĩ
ĠGreg ory
Ġhorm at
Ġfac tor
Ġdipas angkan
Ġbib ir
Ġintu itif
ĠTam jid
ĠPerh ubungan
Ġpras angka
ĠMol otov
Î¿ ÏĤ
Ġditemp ati
jaz air
ĠOrig ins
ĠMoz illa
elektr ik
ĠEt han
Ġjas mani
Ġbereks pansi
Ġcel ana
Ġrug i
Ġapot ek
ĠBany uwangi
Ġharm oni
ĠDarm adi
Ġsubs titusi
Hist ory
à¥ į
Ġtermin ologi
idel berg
Des ember
ĠMÃ¼ n
Ġdiekstr aksi
ĠSour ce
ĠâŁ ¶
ĠSass ania
Ġmonote isme
Ġtrip el
ĠMoj okerto
ĠImper ium
Yah udi
espe are
Ġsmart phone
Wo RMS
Ġbrah mana
ĠLeib niz
ĠLiver pool
ĠVereenig de
Ġsimpat isan
ĠToddopul ia
Ġamun isi
ĠRw anda
exap rotodon
indaklanjut i
Ġmengkhusus kan
Ġterkej ut
ĠTerc atat
iderc am
Ġperseor angan
2 10
A mb
B F
C a
C ap
F I
G i
G ugus
H F
H I
H M
H ujan
K amil
L aut
L ink
M iss
O c
P lat
R el
R up
R oket
S l
S eni
T ext
W W
W h
W at
W al
W aktu
b angunan
b urn
d ayaan
e ement
f akta
h ost
k ara
k und
k ura
m atis
n t
o arjo
p ara
p ember
p han
p osisi
s ell
s ejak
Ã ¬
Î ¸
â ŃĲ
ê §
Ġ ingat
Ġ encer
er ce
Ġd eterminisme
Ġm ud
Ġm ort
Ġm RNA
al ap
al atan
ah mi
as at
as uki
Ġt as
Ġt araf
Ġb angk
Ġb ala
Ġb aca
Ġk im
Ġk umbang
Ġk arir
Ġdi integrasikan
Ġdi impor
Ġdi adili
em ala
am uk
am ine
el o
eng aran
on sium
on ukle
is nya
is uri
il as
ĠS eng
ĠS emb
ĠS ac
ĠS ebab
ĠS olusi
ĠS ex
ĠP O
ĠP ast
ĠP OM
Ġl k
Ġl at
Ġl am
Ġl aktat
Ġl ilin
et aka
ol es
it ing
ut unya
ut tle
ur atan
Ġter ampil
us ukan
ĠM ack
ĠM ontr
ĠM ean
ĠA in
Ġper kantoran
ĠK urn
ĠK upang
uk us
ĠB angka
ĠB ros
Ġin kub
Ġmem udar
Ġmem erangi
id us
ep in
Ġh is
ĠI L
ĠD PP
Ġmeng inj
Ġmeng aitkan
Ġmeng organisir
Ġmeng adili
Ġ1 14
ĠT anya
ĠT rop
ĠT angga
ĠT ekanan
ĠT ujuh
ĠT alk
ĠT ouch
Ġj aring
Ġj ujur
Ġr ukun
ab e
ĠR ag
ĠR uk
ĠR ight
ĠR ao
up kan
up ayakan
Ġpen tas
Ġn omenklatur
ĠC ag
ĠC ory
ĠC lass
ih e
ĠJ ayan
ĠN abat
ay y
ĠH ess
ĠH ey
ĠH ann
Ġmer agukan
Ġmer endahkan
ĠL L
ĠL oc
ĠL uas
ĠL az
ĠL AN
ĠL egal
Ġc os
Ġc ampak
ĠG ang
ĠG ond
Ġf asa
Ġf lav
Ġf olat
angan nya
ent y
Ġpeng umpul
Ġpeng esahan
Ġpeng usiran
end aknya
isi um
isi pl
ĠW atu
ĠW ho
ati us
Ġw a
Ġw al
Ġw icket
ĠF is
ĠF ut
ĠF arm
ĠF enomena
ĠF ield
ĠF ull
ot os
ip tus
angg i
ib ar
Ġmeny ed
Ġmeny alahkan
ist irahat
Ġpem ogokan
Ġpro stat
angk ar
ĠO d
Ġser apan
Ġkar trid
op al
ĠĠĠĠĠĠĠĠĠĠĠĠĠĠĠĠ ĠĠĠĠĠĠĠĠĠĠĠĠĠĠĠĊ
ĠPer wira
Ġdib erhentikan
Ġak tual
ri j
Ġkep end
ĠV el
Ġmend ekat
Ġmend okumentasikan
alu war
Ġpemb atas
Ġpemb ekuan
Ġdit argetkan
19 47
Ġal dehida
Ġkel engkapan
Ġker ahasi
Ġdis in
Ġmenc air
Ġdip ecah
Ġdip atenkan
Ġdil estarikan
Ġpr emium
Ġ3 000
imp ang
imp angan
Ġpend idik
ĠAm r
20 8
ĠAl pha
Ġpel antikan
unc tional
ĠPr ak
ug atan
oc okan
ĠAr c
Ġmemper d
ĠCh en
ĠCh amb
ĠCh rome
Ġdiper ankan
Ġdiper tanyakan
ow fish
Ġbers ahabat
Ġpol icy
ĠPro gr
ĠPro udhon
ĠMar cus
Ġsen am
Ġdid eteksi
Ġterk umpul
Ġdir es
Ġ18 44
Ġ18 72
Ġ18 73
Ġar sen
Ġres in
ĠBel akang
ĠSt orm
ĠPen erangan
ĠPen ilaian
Ġberl impah
Ġ9 1
ĠPeng adaan
ĠPeng kajian
ĠZ oro
Ġtr ib
ĠBr uno
of i
Ġjenis nya
Ġbel erang
Ġ10 2
ĠAd h
itan ium
Ġdem ensia
antu lan
ĠSp ort
our s
Ġdig antung
Ġdig oreng
ĠâĢ ¦
Ġre aktivitas
Ġditu angkan
kr iminasi
men urut
Ġdic ap
Ġdic uri
Ġdic antumkan
Ġsub spesies
rom i
lo od
omor f
Ġdij amin
ĠTh ompson
erg round
lir ing
emat ik
Ġut ilitas
Ġrel ai
ĠBer at
ĠTer k
Ġkontr aktor
Ġkontr ibutor
ĠPend apatan
ĠAp ost
Pem anfaatan
Ġhid rolisis
Ġterc ermin
Ġgag ak
ash let
ĠSen apati
ĠSe arch
ho on
Ġrep ertum
Ġ25 6
ĠKeb utuhan
ĠMin ing
Ġmik rop
Ar sitektur
ĠPas uruan
mer ek
Ġmaj ikan
ĠBi ologi
ĠDir ect
ber ry
jo jo
ĠPers onal
Ġimp lan
Ġdisel idiki
Ġsuk un
Ġsuk sesi
Ġmeman ipulasi
ĠKenn eth
ava il
Ġbertu mp
nam ic
ĠBe at
ĠTrans port
ĠGen erasi
ĠGen eration
Ak si
ĠJos Ã©
top ik
Ġbatang nya
Ġny aris
ĠSer at
rit isan
Ang in
Ġbertanggung jawab
As s
Ġbus uk
rof i
ĠMac m
ĠDen nis
ĠWeb GL
Ġ189 2
ĠBen ed
Ġlip utan
ĠEm il
ĠPerb uruhan
Kr edit
Ab u
esti g
ĠMag ic
Ġ188 4
Ag ustus
ĠRi emann
akh oda
Ġdiw arnai
Ġir isan
ĠKeh adiran
Uni versity
Ġhel iks
ĠJaya pura
met il
met ris
Ã¤ n
ĠHer z
ĠId entity
ĠCan on
ĠOpen AI
inn eka
ĠMur ray
ĠChe ung
ĠAf ghanistan
Ġkekh alifahan
Ð½ Ð¸
Ġsc an
ĠNag arakretagama
empor ary
ĠEth ics
ĠEth ernet
ĠDok trin
Ġsaud agar
}= {\
ĠSid oarjo
ĠJac ques
roses or
So eharto
Ġsukar elawan
mur id
Ġgam ma
ĠDaun nya
ĠLab s
ĠMes o
ĠPam eran
Ġpuc uk
Ġrub i
ĠKod am
komun itas
pas ukan
å¤ §
Ġbung anya
Ġspec ies
ĠDemocr atic
Ok tober
ĠInn ov
ĠAkh emen
Ġnik ah
ĠSant oso
kej adian
Ġberkec epatan
ĠChall enger
Ġgal aksi
ĠOli ver
Ġkeas aman
Ġdipec at
Log am
Ġsuar anya
ĠSalv ador
ĠDomin ika
Ġberker abat
ĠCath olic
Ġpangk alnya
ĠBÃ¶ ker
Ġinj eksi
ĠPref ektur
Ġvag ina
Ġlimf oma
ĠAxel sen
ocarp us
Ġotor iter
ĠChrys ler
ajai ban
ĠJama ika
Ġsingk ong
ĠPersek utuan
Ġseroton in
ĠXer ox
Ġransom ware
ĠNietz sche
izofren ia
7 50
B esi
B ern
B atas
B atang
B adai
B urung
D ar
E X
F S
F enomena
G E
G P
G as
H y
I TA
J ul
J ac
J ournal
L ain
M g
M akna
P ac
P enar
S um
S atuan
S ampai
T erl
W i
b ini
c ip
d ahulu
f ill
g etan
h as
h off
i ation
j ang
j olan
j asama
l ung
o ed
p m
p indah
p ahaman
t it
w ondo
y er
Â ·
Ã «
Ñ Ĩ
æ °
er ek
er ian
Ġd eter
Ġd alang
Ġd awai
ar ed
Ġp aran
ang u
in en
in awa
in str
al uran
Ġs q
Ġs on
ah bis
Ġt ekan
Ġt emukan
Ġt emu
ak aman
Ġb akau
Ġk ara
Ġk atanya
Ġdi evakuasi
am ur
am ati
ad ilah
si ble
el or
Ġy o
on ensial
il ustr
ĠS ew
ĠS ach
ĠS irip
ĠS lavia
ĠP P
ĠP akan
ĠP ula
ĠP utusan
es sa
es na
es ha
ek tan
ek onomian
Ġmen ugaskan
Ġl ancar
Ġl isinopril
et ti
ol men
it rogen
Ġber anggapan
ut s
ur y
ur agan
Ġter lahir
Ġter akumulasi
ĠM B
ĠM ai
ĠM ing
ĠA ud
ĠA ou
Ġ( $
Ġper wujudan
ĠK il
ĠK ais
ĠK arakter
ĠB il
ĠB eh
ĠB arisan
ĠB ehavi
Ġin vertebrata
id asi
ep s
ep kan
ep pe
ĠI B
ĠI o
ĠI den
Ġmeng ira
Ġmeng elompokkan
ĠT ei
ĠT injauan
Ġj ilid
ed ong
ro si
ro tan
ro graman
eh l
ia o
im es
Ġr usuk
ab olik
ĠR ut
ĠR uh
and ro
and ikan
Ġpen elusuran
Ġn uansa
ĠC T
ĠC av
ĠC lo
ĠC alon
ĠC ultural
ud es
aw etan
eg ar
eg ro
ĠJ en
ĠJ ust
ĠJ auh
Ġg ub
ĠN U
ĠN ip
ĠN az
ĠN ichol
ĠH eck
esi us
ĠIn tan
ĠIn iti
ĠL G
ĠL ar
ĠL intas
Ġc c
ĠG ott
ĠG erbang
Ġf urn
Ġf atwa
ent in
Ġpeng iring
Ġmel apor
og r
Ġmemb esar
Ġmemb enarkan
ĠE P
ĠF o
ĠF ab
ĠF lu
ĠF AN
ĠF alk
ĠF lash
ic z
usi fer
angg ilan
ib itan
Ġmeny ita
Ġmeny andang
Ġmeny okong
Ġpem aparan
Ġpem alsuan
amb ul
ĠO z
ef al
ef ore
emp o
ĠInd r
ec tions
Ġak omodasi
ingk asan
omp uter
ri er
Ġkep eng
Ġkep ut
Ġpert ambahan
ĠY uk
Ġmend esain
Ġpemb icara
Ġpemb edahan
le ach
Ġdit injau
19 49
Ġkel ola
Ġkel autan
Ġtet esan
Ġtet ikus
Ġpr e
Ġan akan
ĠAn a
ĠAm pi
Ġberk arier
ev a
ev ement
ev ille
ons or
ov al
Ġbi oskop
Ġbi oluminesensi
tor al
Ġmengh ubungi
Ġman at
ĠPr ima
ug asan
ĠSel asa
tan i
Ġkeb ajikan
ĠAr s
ĠAr sitektur
Ġmemper hitungkan
ĠCh ag
Ġpeny aring
Ġpol if
aks onomi
Ġor todoks
Ġkons pirasi
ard ia
ard itis
Ġkek asih
Ġst rok
ĠThe atre
Ġses ak
Ġberd urasi
ump un
ump ut
akar ya
pl astik
Ġbert el
Ġbert olak
Ġbert ema
Ġgen otipe
ĠIs tri
istr ikan
Ġek sis
ĠMen jelang
Ġab dom
ĠPen eliti
Ġ6 50
ĠWay ne
Ġberh aluan
Ġmemp roklam
omb akan
Ġtempat nya
Ġ7 37
tim es
Ġ10 6
Ġ10 9
Per ilaku
Ġa er
engg al
ust om
titu ante
Ġen tri
Ġ0 8
Ġdig ulingkan
iz e
iz er
ĠOr egon
Ġtim nya
Ġantar budaya
Ġgr indcore
tik u
ĠAb out
uti ara
Ġmengg ambar
ĠMas k
ĠAk bar
ĠMer upakan
ĠKer jasama
Ġberg ambar
ĠSh o
Ġi Pad
ili wangi
Peng ujian
Pen erb
ĠAng lo
ĠJan et
Ġsub unit
Ġsub sidi
eja uh
Ġmak rof
Ġtub a
ongk ol
Ġkol era
ĠTr uman
ĠTh ree
Ġkl ik
Ġluas nya
Ġrel igi
ĠGr ace
hi wara
ĠKem atian
Ġstruktur nya
Ġbeb ek
Ġanti oksidan
Ġinter ferensi
ĠUm at
Ġkeber anian
ĠRes torasi
Ġ[ ...
ris on
Ġmah arani
ĠSe e
ĠPel aksanaan
Ġform ulir
bi akan
enang i
Ġpember antasan
ĠPemb agian
ĠHar per
ĠHar old
ĠAir Pods
Ġpar tainya
ĠComm od
ĠMet hod
Åį sh
Ġprak iraan
ĠHe isenberg
Ġneg erinya
ĠCar bon
rok en
Ġlahir nya
sh op
St andar
ĠMat erial
Ġid i
ĠCr isis
Ġpemro gram
IS O
inf lamasi
Ġken egaraan
ĠEr ich
ĠPeny anyi
Ġmobil itas
Ġoper asinya
Ġteg ar
Ġtop i
Ġdiny alakan
Äģ r
ĠSm art
Ã¼ b
Ġus e
Ġreg ulator
peng h
ĠPD IP
ĠKel urahan
Ġmotor ik
Ġnaik nya
ĠMil ton
ãĤ ¤
IN G
Ġsh ogun
Ġrum ahan
Ġsil ika
ĠEv a
ĠEv aluasi
Ġresi stansi
akt anya
ĠLaw rence
ĠArt ha
Ġeksp onensial
ĠPerb atasan
Ġhiper media
Ge ometri
En c
Ġkepemimpinan nya
Ġmi gr
Ġtran sit
ĠMag ister
arut kan
Ġmal ai
Ġtik ar
ĠRam adan
ĠCons titution
ĠMor rigan
Ġtaj uk
ĠKart anegara
uck s
ric ia
ĠHy undai
Ġsl ot
ĠGl enc
ĠRaj awali
ĠWork ing
ĠManag er
avi olet
ather coin
Ġfos f
Kh rushchev
Pang lima
ustin us
ĠAdv anced
semb urg
ĠPid ato
Ġ42 17
kep ala
ĠHor se
ĠRay mond
ĠCour se
sw ord
ĠNon proliferasi
Ġsec urity
ĠPern ikahan
Ġkelel awar
Ġditrans misikan
crip tions
Ġpus ing
ĠIM F
Ġkonv eksi
Fr ekuensi
ĠRena issance
Ġunt ung
Gu inea
ĠTod ay
Ġbung su
Ev olusi
ĠGil bert
ped o
Maj elis
Ġcak ram
Ġultr aviolet
Ġpenump ukan
ĠPic tures
ĠShang hai
ĠIndepend ent
ĠSom alia
ĠSait o
ĠLibert y
kai do
Spec ies
Din asti
awet kan
Ġpig men
Id entitas
wid th
Ġanaly sis
ĠPrin ce
ĠMoch tar
Ġastro biologi
Ġzirk onium
Ġpenyamp aian
ĠGabri el
Ġisti adat
ĠMelvin s
ĠEG FR
ĠEZ LN
Charl es
aluwar sa
Ġkerahasi aan
Penar getan
ilustr asikan
ĠAou zou
3 30
A z
A ut
A st
A li
A sy
A spek
B atu
B ani
B ase
E U
F D
H exaprotodon
I F
J uni
M oh
N an
N as
P eter
P ower
R am
R ub
S ec
S indrom
T E
T erj
T imbal
W I
W ar
W einberg
b h
b aya
b agi
b log
c u
c ap
d ar
e ian
e imbangkan
h em
h ist
h arm
i ater
j ub
k ecil
l ic
m ind
m ary
n s
n in
n egeri
q ui
r esidenan
s ey
t ab
v ar
w on
w anya
w ork
y ung
É Ķ
Ð ·
å į
Ġ ill
Ġ angsa
Ġ á¨
Ġd on
Ġd usun
Ġd ahsyat
en kov
Ġm aut
Ġm ogok
Ġp hy
Ġp ound
Ġp ion
Ġp amannya
ang ular
Ġs ch
Ġs tor
Ġs abit
Ġs entuh
Ġs krip
as am
Ġt ap
Ġt her
Ġt atap
un as
Ġb rom
Ġb idik
Ġb umbu
Ġb apak
Ġk us
Ġk af
Ġk ilang
Ġdi versifikasi
ad ia
tu ca
eb angan
eb all
is lasi
ĠS ati
ĠS usunan
ĠP aj
ĠP arah
ĠP ura
ĠP ass
ĠP oso
es o
Ġmen sp
Ġmen olong
Ġmen elusuri
Ġl aris
Ġl ift
Ġl ebah
ol n
Ġber unt
Ġber afiliasi
Ġber tiup
ing ham
ag ik
ur os
Ġter urai
um erta
ĠM uch
ĠA re
ĠA tau
ĠK apan
ĠK ond
ĠK umpulan
ĠK elautan
uk asi
uk yu
ĠB ai
ĠB akar
ĠB acillus
Ġmem erankan
id s
id ep
Ġh im
Ġh ow
Ġh ayat
ĠI gn
ĠI CD
ĠD inding
ĠT ek
ĠT iap
ĠT omb
Ġun ta
Ġj ang
Ġj ern
ed ai
ga ulan
ro x
im um
Ġr asanya
ĠR hythm
Ġn ir
Ġn umber
eg aran
ĠJ ep
ĠJ uno
Ġg on
Ġg alat
Ġg aib
ĠN ishi
ĠH ob
ĠH alaman
ĠH unt
ĠH odg
Ġmer ambah
Ġmer ingankan
ter j
esi onal
ĠIn ti
ĠL ed
ĠL ihat
ĠL etak
Ġc em
Ġc and
Ġc ond
Ġc emas
ĠG raf
ent ator
Ġpeng enal
end ensi
ĠW end
Ġmel ebar
Ġw ww
Ġmemb usuk
ĠE g
ĠE lis
ĠF en
ot to
ic er
od in
od ing
Ġ" .
Ġmeny ewa
Ġmeny uarakan
Ġpem ula
Ġpro sesi
angk asan
ĠO il
ĠO sc
op us
emp rot
ĠPer tumbuhan
ĠPer ikanan
ĠPer kiraan
anj at
Ġv ed
Ġdib erit
Ġdib iayai
ind ustr
ind ex
ew ajiban
Ġberb akat
ingg ris
Ġsek uler
ĠY i
ĠY ani
art is
ĠV ariasi
Ġpemb esar
ĠDi agram
19 55
Ġkel inci
Ġdis entri
Ġket etapan
ch ang
ver y
Ġdip ukul
Ġpr est
Ġpr enatal
Ġpr asarana
entuk sim
imp ul
imp anan
Ġpend amping
orm as
ĠAn ugerah
ĠAm angk
Ġbar ulah
Ġbi osfer
Ġkes alah
Ġkes epuluh
ĠAl a
ĠAl ternatif
ĠAl jazair
ont e
Ġpel aporan
Ġpel arutan
Ġmengh ukum
umum nya
li ed
Ġked amaian
Ġked iktatoran
ĠCh and
Ġdiper hitungkan
ihat inan
Ġbers entuhan
Ġpeny ebutan
ĠPro perti
ĠMar kas
Ġaw alan
Ġkons ultan
Ġkek osongan
imb a
Ġ18 86
Ġ18 41
ĠThe ft
ustr ated
ĠIs kan
uc o
Ġdunia wi
Ġpers embahan
Ġpers alinan
aku asa
ert ai
han ayaka
10 8
Ġmemp opulerkan
Ġberp asir
ĠZ ero
ess or
Ġstr ip
Ġtr il
Ġeks otis
Ġorgan is
ĠSeb anyak
ill en
ill es
Ġ10 7
ĠAd it
Ġ8 9
Per lu
ĠPol ar
ĠSp eed
ĠMal lo
11 11
ĠAb adi
Ġgel as
ĠKar enanya
Ġdek omposisi
Ġmengg eser
ĠAk uisisi
kr at
men jadi
Peng isi
Peng guna
16 0
Ġsub k
Ġsub tipe
rom eter
ateg ory
Ġpengh indaran
land s
ongk o
Ġmengak omodasi
Ġfor est
Un ited
iti us
ĠAS CII
ĠPh one
ĠLe op
pen j
ĠUm mat
23 9
ve z
Ġfr ame
ĠSe ver
Ġdiperl ihatkan
RI N
ĠIb unya
ĠKal in
ĠKal ib
Ġpember itaan
Ġet nik
sy arat
sy aratkan
let e
Ġins entif
Ġlahir lah
ĠGu y
St atistik
ear s
ãĥ «
Ġder m
Ġmolekul ar
ĠGro und
Ġmisi onaris
ato e
Ġdistr ibutor
ĠDis covery
Ġdiperk enankan
ĠSang ihe
Ġplat ina
iw aan
Ġsar ung
ĠFor est
ĠPat ung
ĠPat timura
ĠBh ag
ĠIlmu wan
ĠPaul ownia
ĠFir efox
CA D
gaw i
Ã¶ r
Ġsil am
Ġturun nya
ĠTa x
ĠDip tera
ĠGal il
ĠGal ile
Ġdikeluarkan nya
Peny ebaran
ĠMem ory
Ø§ Ø±
ĠAss embly
Ġreal isasi
akt am
Ġlip id
IP IA
Ġalk il
Ġsam udera
Ġaut o
ĠPerb aikan
Ġpemilik nya
zh ou
En d
erc ial
Ġti up
Ġdieks presikan
Ġbr anding
Ġbr uto
Ġdirek rut
ãģ ®
ĠGor eng
orf ologi
orf isme
ĠHo uston
Ġmal ap
Ġmal aria
ĠRi yadh
meng gunakan
Ġpenerapan nya
ĠHen ri
SM P
Ġhel ium
Ġaf initas
Ġrat ing
ĠMur der
kand ea
ĠSl ow
mel alui
ĠAf ganistan
Ġdef isit
Ð½ Ð°
ĠBul letin
Ġpir ingan
ĠRus sia
ĠMik hail
Ġsand ima
ĠPhilip p
ĠPhilip s
reh ensive
val en
Ġwafat nya
At l
Ġkosm ik
ĠBoy s
Ġpasc asarjana
Ġprot eksi
ĠAgr ic
ĠAgr eement
ĠCy ber
ĠKus uma
osin kron
ĠKari m
ĠTerl etak
Ġherb isida
oven ia
hid rok
Ġmenanam kan
Ant ara
Ġditrans fer
ĠSte ak
ĠErn est
Ġmendatang i
Ġpersek itaran
Op si
eto oth
Sal uran
kek uatan
ĠWall ace
ĠKid ung
ĠAR OS
ĠSmack down
Sik ap
Ġbu ild
Inf eksi
Ġges ekan
ĠRS V
ĠOri ental
Ġkuar sa
ĠSib eria
ĠHugh es
Ġcab ai
ĠPaleo zoikum
Perl awanan
Ġmic ro
ĠSury ani
eriv atif
Ġmengec am
Ġfit oplankton
Ġven tura
ĠLomb ok
ĠIsa ac
ĠElectr ic
Blu e
ĠPle ase
ĠTreat y
ĠWak af
Ġdimin ati
Por tug
ĠAid it
eung jing
ĠPerti mbangan
ĠLimb oto
Ġpy ogenes
iroid isme
Jos eph
efit inib
Ġvers us
ĠCredit s
Pasi fik
ĠDah lan
Ġensikl opedia
Ġhaf nium
Ġganj il
okl atan
ĠShak espeare
ĠSpart akus
sig it
Ġkesed ihan
ĠTapan uli
Ġberkek uatan
ĠMacm illan
ĠAkhemen iyah
entuksim ab
) âĢĶ
A sisten
A turan
B iaya
B ilangan
C ID
D S
D unia
D okter
D istribusi
E c
F ET
G agasan
H anya
H ello
K aum
K elahiran
L G
L ou
L aboratorium
N B
O B
P engan
P and
R oss
S r
S ol
T al
T ah
T ai
T ulang
V IA
W arisan
Z aman
\ \
a edia
b erh
c ar
c ang
c etarian
d ag
d ate
d ensial
j et
k ehidupan
k ondisi
l om
l ama
l ich
n ings
n askah
o tif
p ir
p esan
p olitik
r h
r ati
s titusi
s erta
s erangan
s hire
t am
t ol
v anger
w eh
w arna
w ick
w right
z ed
Ã ī
ä ¼
Ġ ode
Ġ inggris
Ġd og
Ġd ubur
Ġd eskrip
ar apan
Ġm abuk
at ta
at ologi
Ġp ac
Ġp ati
Ġp ori
Ġp ank
ang o
al sifikasi
Ġs oft
as u
Ġt aat
Ġb ed
Ġb ait
Ġb enz
Ġdi eja
Ġdi ajak
ad al
ad us
si ca
si lasi
eng at
Ġy oga
tu ari
is at
ik alau
il os
or asi
or gi
ĠS uw
ĠS lav
ĠP od
ĠP okok
ĠP elajar
ek ah
Ġmen ek
Ġmen aruh
Ġmen str
Ġmen anyakan
Ġl upa
Ġl aten
Ġl idah
Ġl egiun
Ġber ibu
ag os
ag alkan
ut nya
ada ya
ur ia
Ġter encana
Ġter amati
asi o
ĠM b
ĠA is
ĠA udi
ĠA izu
ĠK iss
ĠB od
ĠB urn
ĠB umbu
ĠB elitung
Ġin tim
Ġmem ikirkan
id ent
ep ankan
Ġh et
Ġh it
ĠI on
ĠI th
ĠI zin
ĠD S
ĠD ih
ĠD iterjemahkan
Ġmeng onfirmasi
ĠT ad
ĠT ip
ĠT ala
ĠT abel
Ġj awa
Ġj asanya
ro ve
Ġr eward
Ġpen obatan
Ġpen undaan
Ġn ov
Ġn abati
Ġn akhoda
ĠC e
ĠC ab
ĠC arn
ĠC amera
aw en
aw ard
Ġg ard
Ġg letser
ĠN om
ĠN ab
ĠN yai
tr im
ĠH aj
ĠH appy
ĠH amilton
Ġmer eda
ok hia
ĠL ow
ĠL ayar
ĠL ithuania
ac tions
ub uwana
Ġc end
Ġc ic
Ġc engk
ĠG av
ĠG ary
ĠG PS
ĠG ordon
Ġf ran
Ġf ree
aj aman
Ġse cepat
Ġpeng angkut
ĠW eh
ĠW ick
ĠW rit
ĠW ahana
ĠW uruk
ĠW aisnawa
ati va
Ġmel uncur
per a
per n
per mainan
ĠF ol
ĠF ile
ĠF utur
ĠF amily
ot isme
ic um
ib arkan
ib rasi
Ġmeny eimbangkan
00 1
Ġpem erk
Ġpem ekaran
Ġpro duc
Ġpro spek
Ġpro blem
angk is
angk iti
ĠO m
ĠO mega
Ġser um
ĠInd era
ĠPer unggu
ĠPer alatan
anj ak
ec atan
Ġberb alik
ingg an
Ġant ark
ĠV it
ĠV id
Ġmend iskusikan
olog inya
Ġdit awan
ĠDi amond
19 14
19 54
Ġal f
Ġal marhum
Ġker um
uat emala
Ġan onim
Ġpend aki
ism enya
ĠAn at
ĠAn ne
ĠAn ime
Ġberk uliah
umb uh
ig ious
Ġsu o
Ġsu aka
Ġkes atria
ĠAl ik
man s
ĠPr aw
ug erahkan
if esto
enc ing
und el
Ġmemper caya
Ġsed ih
Ġked aluwarsa
Ġpeny unting
ĠPro blem
ĠMar ine
ĠUni x
Ġag ain
Ġor de
Ġkons esi
Ġkons entr
Ġsen sus
Ġkek ecewaan
Ġkek ritisan
aka o
Ġ- >
Ġterk esan
Ġ18 17
Ġ18 99
Ġ18 76
Ġst em
Ġhal fton
ĠSt art
tiv ity
Ġmod erat
Ġberl atih
Ġap optosis
Ġtert angkap
ĠZ imbabwe
ĠZ apatista
Ġstr onsium
ting en
raf orm
Ġob ject
Ġob serv
ĠUn g
ark is
Ġdaerah nya
usus kan
Ġbel a
Ġsosial nya
ĠAd ven
Ġtekn isi
titu tional
las emen
engk a
Ġro tan
Ġro uter
Ġen ak
Ġel ips
Ġ0 6
Ġperk alian
ĠMal enkov
11 5
ĠOr bit
ĠOr do
Ġpenc uri
ĠKer tan
atang a
Ġberg aris
ĠSh op
men inggal
iv a
Pen aklukan
ĠAng g
ĠX SL
Ġ17 0
ĠOk inawa
ros oph
Ġlap ar
lo x
ĠKr em
13 0
ĠNov a
ĠTr un
ĠTr ad
Ġkej uruan
Ġkej iwaan
erg antung
Ġrek tor
Ġpermukaan nya
ĠMah arani
hi o
Ġkor onavirus
ĠEk osistem
ock ie
Ġbin omial
ĠTer ror
amm er
ĠLe ang
ĠLe ad
Ind eks
Pro tokol
Ġkimia wan
ĠAp proach
eli on
eli ef
oll ow
Ġinv est
Ġop tis
Ġterc emar
ĠEd win
Ġsal t
Ġsal at
ĠCo ast
ash em
Ġkonsep si
ĠKed utaan
aim yo
ĠSw itch
ĠPemb antu
Ġmik rometer
ĠSal omo
Ġet n
ĠPas tor
Al ur
Ġped al
Ġped ofilia
ĠHe idelberg
ĠSup r
let t
ĠBi asa
sat z
sat elit
ĠMak ing
enz im
ĠDir ector
St adion
ĠCr it
ber k
Ġam ina
ju is
Ġterh ingga
Ġterh ambat
ĠPar s
ĠDav e
ĠKong hucu
Ġth uring
Ġbertu lis
Ġdesain er
Ġekstr ak
Pend ekatan
rib u
Ch rist
Ġinstr uktur
Ġinstr umental
ĠProf ile
mat isme
ĠPat ih
ĠMuslim in
Ġtemp uh
Ak adem
Ġreg en
peng guna
Ġpal ung
hak ti
bur ung
ĠNe ver
ĠSoek arnop
ĠSar ana
Ġmengk onfirmasi
Ġpendukung nya
ĠGal unggung
ĠDo a
Ġpeman as
Kem ampuan
Ġ189 7
ĠInf anteri
ĠEurop a
seb agian
ocok kan
Peny el
ĠMem erintah
ix ed
ĠKur ikulum
Ġinduk nya
Ġ186 9
Ġalk ali
Ke untungan
Ġti ol
ĠAnti okhia
Ġterm uda
Kes ehatan
ĠSab ari
ĠDel hi
ĠWest world
Bi asanya
ĠBos nia
Ġ188 1
Kab inet
ĠUp acara
ĠEs peranto
ĠÏ Ĩ
orsi um
tron aut
Pert ama
ĠDom ini
ĠCan adian
Ġmembedakan nya
ĠKa uk
ĠHan in
Ġneur on
ĠPerk asa
ĠSemen jak
Ġpsil osin
69 1
ĠAnton ius
Trans portasi
ĠCal c
Ġdemokrat ik
ĠOt t
ĠØ ¨
Ġpernikahan nya
ĠBet ty
ĠStock holm
ĠTar anto
astr aan
astr ianisme
ativ es
Ġtra iler
ĠSeni or
ĠGl enn
Ġrup anya
ĠCentr is
ĠMend u
ĠMend el
Sep anjang
Ġmenang is
Pl ay
Ur min
ĠPed ro
ĠHip otesis
Ġveg etarian
Ġoff icial
Sy arat
ĠCek os
ĠCek ungan
komp uter
Ġtangk is
Ġpengeb oran
ĠLor entz
ĠKhan un
pos ure
Ġmenges ampingkan
ĠHistor ia
aph or
ĠPri ze
Ġjel ata
Ġpart ik
ĠCorn elis
Ġherb al
bol inggo
adin ata
ĠMov ement
ĠSumb awa
ĠDeb s
Ġpenamp akan
lak inya
Ġmuk osa
oster on
ĠIsland s
DR SS
Ġpenyemb elihan
ĠSta vanger
å¤ ª
Penj elasan
ĠTemb ok
Ġcom te
ĠHerman n
Ġsan itasi
á¸ ¥
ĠStrept omyces
Ġstim ulus
Ġâī ¤
ĠMek kah
Kand ungan
low akia
Del ta
Sah ara
Ġambisi us
Ġpept id
itarian isme
ĠKA OS
ĠCru ise
Kan ada
Ġub i
Ġberep roduksi
Ġstat istika
ĠPong tiku
ĠHok kaido
Ġdikh ususkan
ĠBoliv ia
ikm atan
ĠWinn ers
Umum nya
Ġgab us
Ġsib uk
Work s
Ġbertar ung
Ġbiof ilm
Ġberan eka
Ġdinik mati
Ġdest inasi
arag ua
ĠKonstant in
ĠQuarter ly
Ġkov alen
ectron ic
ĠBoot strap
Ġpenet rasi
adip aten
ĠMarz uki
Ġelev asi
ĠAle ut
Ġflag ela
Ġbangk rut
ĠKurn iawan
Ġved otin
ĠIskan dari
Ġthuring iensis
1 000
3 20
A ug
A IDS
B angunan
B udd
C T
C y
C amp
C ure
D ial
E F
E t
F il
G elombang
H um
H ill
J o
J arak
K aisar
K ipas
K lasis
L ong
M E
M ata
M ulai
M ei
P ekerjaan
P lanet
R E
S d
S u
T ar
T or
T ri
U L
U PT
V ariasi
W in
] ".
b aling
c raft
f u
f ir
f are
g y
h ampir
j ourney
k ont
k urangnya
l n
l ukan
l ot
m g
m usim
n um
n ea
p esi
r um
r and
r uang
r adio
r aine
s ep
s endiri
s ungguh
t ema
w ide
w itan
z at
z al
z ia
Ã ½
Ä ±
Ê ģ
å ®
å Ľ
ð Ĳ
Ġ @
Ġ asa
Ġ itik
Ġ ori
Ġ ..
an ikan
an tero
Ġd ed
Ġd ahan
Ġd esimal
en ap
en egro
Ġm y
Ġp eg
in tern
Ġs arkoma
Ġt ro
Ġt ungku
Ġt unjangan
Ġb a
Ġb entukan
Ġb ukaan
Ġb ehavi
Ġb ocor
Ġk ian
Ġk atal
em istry
em ediasi
ad ron
el en
el antik
eb al
is ed
ik il
ik nya
ĠS V
ĠS ic
ĠS usan
ĠS oph
ĠP ah
ĠP ab
ĠP ant
ĠP angk
ĠP unk
ĠP enting
ek h
ek al
ek atkan
Ġmen amai
Ġmen abrak
Ġmen aiki
Ġl up
Ġl elah
Ġl ucu
it ari
ag uan
Ġter itori
us te
um in
ĠM ati
ĠM ilik
ĠM echan
ĠA ero
ul ub
ul sion
Ġper ute
ĠK K
ĠK ok
ĠK arier
ĠK ombinasi
ĠK ualifikasi
ĠK emenangan
ĠK ekerasan
ĠK atanga
uk t
ĠB is
ĠB ara
ĠB ulu
ĠB ail
ĠB app
Ġin klusif
Ġmem ak
id ad
Ġh ol
ĠI UCN
om omisin
Ġmeng er
Ġmeng impor
Ġmeng ulangi
Ġmeng koordinasi
Ġ1 12
ĠT id
ĠT ers
ĠT ambang
ĠT indak
ĠT ype
ĠT engger
Ġseb idang
im ar
ian i
ab isan
ĠR G
ĠR eb
ĠR osi
ĠR udal
ĠR iks
ĠR AF
emb ap
emb iraan
Ġpen ayangan
Ġn ons
ĠC aka
ĠC ann
ud ak
ĠJ A
ĠJ ati
Ġg ang
Ġg emar
ta z
ĠN ara
ĠN iel
ĠN avy
ĠN TT
ĠN iger
tr ess
ĠH j
ĠH eri
ĠH ig
ĠH arl
ĠH epatitis
atan i
Ġmer esmikan
ok oh
ter inya
ĠIn siden
ĠL ec
ĠL ey
ĠL ubang
ĠL ituania
Ġc up
Ġc ell
Ġc uma
ĠG B
ĠG ail
ĠG SM
ĠG uatemala
Ġf an
Ġf eed
Ġf older
Ġse antero
ent as
Ġpeng isi
Ġpeng alihan
isi p
ĠW r
ĠW u
ĠW ai
per ty
Ġmemb alik
Ġmemb ayangkan
ĠE tika
ĠF ari
ĠF ul
ĠF BI
ot ing
ot te
ot bah
Ġtidak nya
ĠU BB
ua e
Ġpem ecatan
amb ik
amb yan
ali e
angk ara
ĠO ey
emp ut
ĠInd ividu
ĠPer formance
anj akan
Ġkon dis
Ġkon duktor
Ġkon densasi
Ġv as
Ġv ul
ec uti
ec tic
Ġkem acetan
ind e
ingk ungan
omp atan
Ġberb atu
gr afi
af ah
ĠY ockie
art e
art en
st elasi
Ġant agonis
ĠV ulkan
Ġpemb ibitan
le in
le ash
Ġsem ester
19 05
Ġkel edai
Ġker ana
Ġker ikil
Ġdis aring
Ġket ah
Ġket enaran
ch y
ch in
Ġpr inc
tur ung
ov ie
Ġkes ucian
tern ative
man aba
re x
Ġman ik
ĠPr ime
ĠPr atama
ĠSel ada
Ġand al
oc iety
tan al
Ġkeb alikan
Ġked utaan
ack et
Ġdiper cepat
teri ak
Ġbers umpah
Ġpol y
ĠPro bolinggo
aks ara
Ġkomp osit
Ġkek al
onom er
Ġdir evisi
Ġ18 30
Ġ18 59
ilan s
Ġres onansi
Ġpas sword
Ġses sion
Ġberd uri
ĠBel ahan
ĠAg en
ĠPem ilik
ĠPem eriksa
Ġab rasi
Ġberl ian
ert arian
Ġap el
omb at
ĠZ ea
Ġtr im
ĠBr ain
Ġorgan otimah
ĠSeb enarnya
Per tanian
ĠAs y
ĠAs li
ĠAs hiwara
Ġa udit
Ġpes cetarian
ma isuri
engk y
Ġind onesia
ani ora
Ġtel uk
ĠâĢ Ŀ
11 7
Ġsumber nya
Ġditu mp
Ġpenc etak
Ġpenc ulikan
Ġte ologis
Ġtrans por
Ġgr and
Ġditer b
Ġkomun al
ĠMas ters
Ġlay er
Ġdep annya
Ġdic ulik
ich ia
ĠAc count
Pen anganan
17 0
Ġis sue
ros o
ĠMus yawarah
ĠKr im
isis me
ĠSy mph
ĠTh is
ĠTh rough
Ġib lis
ĠKh atulistiwa
iti era
urn ikan
fer on
ĠJuni or
angga an
ĠPh D
Ġinf ektif
Ġinf iltrasi
kl aim
Ġkontr ibusinya
^{ \
ĠRe in
ĠLe ga
res h
ĠAp arat
ĠDr agon
Men ang
Men ara
ĠGer ard
ĠStr es
Ġdidirikan nya
ĠRes olusi
Ġpet ahana
ĠKons truksi
Ġfr ontal
ĠSe ga
Ġed itorial
Ġmon cong
ĠTel ur
ĠTel kom
ĠIb n
ĠPl aza
Ġpener angan
ĠNo ah
ĠDem ak
Ġelektron ika
ĠAir Asia
Ġne o
Ġpar adigma
lor in
ĠMon itor
versi bel
eku ensinya
Ġpertumbuhan nya
ius eppe
Ġko efisien
ĠCen rana
ĠOrgan isme
ĠMed ang
ĠSet iawan
ĠPet ron
St andard
Ġep ik
ĠCr ime
Pr aktik
ĠPers amaan
atis ta
Ġterh ormat
do or
PP EB
inj amkan
Ġben ing
Ġvol t
Ġvol at
rah ah
Ġstabil isasi
ĠKet entuan
Ġsus pensi
Pend uduk
uny ian
ĠMad rasah
Ġpembuatan nya
Ch ris
ĠFran sis
ann y
Sp anyol
AR T
ĠSm arta
Ġreg u
ĠInt egrasi
ĠCO RDIC
ĠMeng ingat
ĠPur bakala
Ġpenyebab nya
ĠMac an
ĠKol eksi
Ġton jolan
Mas ter
Ġ186 3
Ġ186 5
ĠArch ae
ril ineal
Ġmengal okasikan
ĠBan u
zo a
Ġarti an
Ġmulti pemain
Ġ188 2
ĠPart n
Ġmag ister
Ġpubl ished
ĠFl ak
Tr adisi
Ġhel ai
arth olm
pu asan
Is rael
Ġfungsional itas
ĠKi os
ĠJul ia
Ġpep ohonan
Ap akah
esp ond
ĠOS I
Ġsint aksis
organisasi an
nd rome
ĠLog o
ĠTar una
El ektr
Ġpres enter
Ġbat alion
Ġkarb oksi
ĠNa OH
Ġemb ri
ĠLeg islatif
ĠBor land
ĠSik lus
Ġelekt rof
OL INA
Ġkosm ologi
á¹ £
ĠAlbert ina
Ġnom in
ĠHend ra
ĠKn ox
ĠLor raine
ĠSpr ing
Ġni aga
Ta utan
ĠRen un
ĠBarb ara
ĠMand ala
Ã± o
Sej arawan
ĠBoh emia
ĠAst ro
ĠOrig in
amad ya
Ġkonv olusi
Ġfleksi bilitas
ĠAnth rop
Ġzo on
ĠKot awaringin
ĠHop kins
Ġsak ral
Ti ongkok
Ġpembal asan
Ġmemperb olehkan
ĠMall awa
ĠRy ukyu
Ġmac ro
Ġfir st
ĠDef ense
Ġkakek nya
Jan uari
Ġrom antis
Ġantis emit
American ism
Ġmeresp on
Ġsulung nya
ĠPopul ar
ĠPsych ology
á¸ į
ĠBerl alu
ĠYud isial
Keber adaan
Kand idat
ĠTurk men
Ġent ah
ĠPekan baru
Ġner aka
Ġleuk emia
ĠGut awa
Ġkred ib
ĠAcid ification
imm ler
ĠWed anta
Ġwh ich
Mobil e
Ġterbar ukan
ĠAtlan tic
ĠHelen istik
Ġketert arikan
Ġmangk uk
ĠPre Cure
Ġlonj ong
Angk atan
Ġsop an
ĠSupers emar
Ġmengkh awatirkan
ĠTheod ore
Ġkolabor atif
Ġmach ine
ĠPraset yo
bek istan
ĠPasc asarjana
Bers ama
ĠFR OLINA
Ġangi otensin
ĠFeder ation
ectiv es
Ġpran ob
}}] {^{
Ġetim ologi
Ġoktah edral
Ġheg emoni
ĠManufactur ing
Doc tor
ĠSaras wati
ĠOcc up
Ġmos aik
ĠGuel fi
Ġveget atif
ĠMÃ¼n chen
Ġinkub asi
Ġ[... ]
ĠGlenc ore
Ġpion ir
Ġdiberit ahu
industr ian
ĠGalile o
Ġmenstr uasi
Ġpemerk osaan
Ġmempercaya i
Ġagain st
satz grup
PPEB TI
ĠFROLINA T
< /
A wan
B ah
B ell
B rit
B anjir
C at
C ur
C agar
D id
D apat
D ev
E tika
F orm
F estival
F ree
G a
G elar
H o
H ang
H yd
I si
I EC
J ejak
J uara
K f
K ak
M unculnya
N am
N ik
N ominasi
P a
P op
P anjang
P osisi
P ier
R at
R aksa
S B
S tu
S ya
S aw
S esuai
W ak
W est
b intik
c ock
d d
d ing
f e
f inder
g angguan
g oth
g round
h uni
i apan
j er
j at
j aan
k egiatan
m aj
m edi
p y
p arah
p ie
r un
r oll
s eg
s ej
s eorang
s atuan
s efal
t eks
u wa
w ealth
y ing
y uki
z ing
z ania
¼ ĵ
Ä ħ
É Ľ
Ê ¿
å °
Ġ é
Ġ uk
Ġ etik
Ġ ê¦
Ġd enda
Ġd udukan
Ġd amar
Ġd rive
en ovasi
Ġm id
Ġm ainan
at im
Ġp ag
Ġp anc
Ġp ompa
in ing
in ti
in aran
al un
al bum
Ġs ome
Ġs yair
Ġs anggup
Ġt eliti
Ġt echn
ak iti
un cher
Ġb ig
Ġb aling
Ġb ase
Ġb odi
Ġb ubur
Ġb utuh
Ġb ujur
Ġk atakan
Ġk ual
Ġdi evaluasi
am y
si gen
el p
eb ti
is tim
il at
or ika
or tium
ĠS d
ĠS ain
ĠS angg
ĠS ne
ĠS indrom
ĠS embilan
ĠP y
ĠP uan
ĠP ran
ĠP osi
ĠP ew
ĠP omp
ĠP abrik
ĠP iano
ĠP KS
ai fah
es et
ek wondo
Ġmen i
Ġmen jauhkan
Ġl in
Ġl encana
it ikan
Ġber teriak
ing ungkan
ag ihan
ur b
ur iga
Ġter enkripsi
ĠM ore
ĠA TV
ul o
Ġper empat
Ġper gaulan
ĠK arak
ĠK embali
ĠK asih
ĠK ath
ĠK Åį
ĠK alau
ĠK we
ĠB apa
ĠB aku
ĠB uru
ĠB enn
ĠB WF
Ġin nings
ung uan
Ġmem aksakan
Ġmem amerkan
Ġmem aparkan
id is
id ec
ep uh
ir d
Ġh igi
Ġh endaknya
ti q
ĠD og
ĠD arah
ĠD aratan
ĠD odge
om ing
om im
Ġmeng un
Ġmeng ering
Ġmeng organisasi
Ġmeng ecil
alam inya
ĠT ui
ĠT ani
ĠT emuan
ed arkan
im iyah
im ulasikan
Ġr asis
Ġr awat
Ġr ate
ĠR R
ĠR r
ĠR ika
ĠR uth
and engan
Ġpen ata
Ġpen entang
Ġn ih
Ġn agari
Ġke ak
Ġke abu
Ġke andalan
ĠC P
ĠC ip
ĠC ow
ĠC lin
ĠC ass
ĠC arm
ĠC oca
ĠC yanogen
ĠJ T
ĠJ ason
Ġg lob
uh unan
ĠN ame
tr e
ay ek
ĠH em
ĠH um
ĠH awa
ĠH erc
ĠH immler
Ġmer ambat
Ġmer edakan
Ġmer uncing
ĠIn ovasi
ĠL eb
ĠL ol
ĠL amp
ĠL ic
ĠL ov
ĠL okal
ĠL ake
ĠL KS
ĠL ubis
Ġc lass
ĠG mb
ant y
Ġse f
Ġpeng ion
Ġpeng angkutan
Ġpeng ulangan
end e
end araan
ĠW hy
ĠW ings
Ġmemb enci
ĠF itz
ĠF otografi
ĠF aith
ĠU mb
itu lis
Ġo seanografi
Ġpem andu
Ġsep upu
angk ang
angk rutan
ĠO R
ĠO de
ĠO ematan
ĠO hio
Ġser entak
Ġkar st
ef t
ĠInd us
ĠInd ustry
ĠĠĠĠĠĠĠĠĠĠĠĠĠĠĠĠ ĠĠĠĠĠĠĠĠĠĊ
ĠPer adaban
anj iri
Ġkon kr
Ġv ide
Ġdib er
Ġdib aptis
Ġkem oterapi
ind ia
ind erg
Ġdik aji
Ġdik epalai
int ir
ob acteria
eber angan
Ġberb ayar
Ġsek elas
Ġsek resi
ĠY ad
ĠY ao
ĠY oshi
st ad
st op
Ġant ologi
ĠV ita
Ġmend emonstrasikan
ej olak
Ġpemb esaran
Ġpemb erdayaan
le vel
Ġdit onton
ĠDi ego
19 13
Ġkel urahan
Ġdis aksikan
Ġket ajaman
ch a
sa udara
Ġmenc ampur
Ġtet anus
Ġdip indah
Ġdip ancarkan
Ġdip ulihkan
Ġdil ewati
Ġpr am
Ġan emia
Ġpend engaran
ĠAn cient
Ġberk arya
Ġterb entang
20 6
Ġkes al
ĠAl ih
ĠAl hamb
ra ad
asional isme
Ġpel ebaran
Ġman usi
ug aran
ug uran
usah akan
if ier
entu ran
ĠAmer ic
ĠAr ashi
Ġmemper ebutkan
ori ografi
Ġdim usnahkan
ĠCh art
Ġdiper ingati
Ġpeny intesis
Ġpol im
Ġpol ong
ĠMar co
ĠMar sigit
Ġaw et
Ġmet am
Ġmet ropolitan
Ġkons ul
ard inal
Ġdid erita
onom is
Ġdir agukan
Ġmusi c
Ġ18 78
Ġ18 75
Ġ18 52
Ġst adium
Ġar ist
Ġres ervoir
ern isasi
ina e
ump aran
ĠIs ma
uc on
Ġmod a
ĠPen anian
ert inya
Ġ9 3
Ġap resiasi
mi um
10 5
Ġberp andangan
ĠBr et
ĠBr idge
of obia
Ġmasyarakat nya
ill ing
Ġbel aka
Per c
Ġterp antau
ĠAs uransi
atur ahmi
etak utan
engg ang
engg ala
las sic
ma u
lin ik
Ġen ter
ĠSp encer
Ġ0 1
ĠHal im
udi us
ĠAb rahah
Ġberj asa
uda isme
formasi kan
Ġmengg antinya
kr ipt
ĠKab el
Ġdep osit
Ġbern ada
ili um
ĠTi o
Ġ12 3
Ġseg el
Ġlok us
ĠKr edit
sp e
sp ort
Ġmak mur
Ġkej ayaannya
ĠTh underbolt
15 5
Ġac ap
Ġrek onstruksi
ou w
ou x
son ian
Ġint inya
tra uma
Ġtok en
ĠTer hadap
enn er
enn es
pen ulis
Ind ustri
Ġinter face
se in
eli us
ĠAt j
Ġterj ebak
ish ing
fik s
Ġfisik nya
Ġterc iptanya
ĠEd mund
arg anya
Ġmul tis
ĠGe ologi
ĠYah ya
ash ing
23 8
Ġge omet
Ġge opolitik
ĠSe qu
acam ata
Ġform ula
ĠPl eb
ĠSch olar
ĠPemb aruan
Ġkonf irmasi
Ġsup erk
Ġsup remasi
Ġpar odi
Ġpsik oan
Ġpsik iater
ĠAnd y
aum e
Ġtertu ang
ĠMel ati
ĠEl emen
Ġtengah nya
ĠOb serv
Ġins ulasi
Pemb unuhan
ĠSing le
ĠPet ers
ĠMa ud
ĠCr iminal
ber at
oni os
Ġder etan
ĠPerd ata
Ġpl ot
kar bon
ĠPar adox
ĠSol id
ĠSan usi
ultur a
iner ator
ĠEr win
Ġbir ama
ĠÎ Ķ
Ġnan ometer
ue z
ĠDis ease
ĠTrans fer
iw i
TM F
BB C
ĠSub version
Ad v
ĠPasi en
Ġreg resi
Ġreg istrasi
ĠKam er
onf irm
CA O
Ġkemerdekaan nya
ãĤ ¹
Ġsil silah
As am
ome ga
ĠNor se
ĠDo ubl
Ġsul ing
Ġresi men
ĠRec kon
Kom andan
Ġbag inya
bel akang
Ġhib rid
rec ht
yclop edia
ĠOff ensive
Gen eral
ĠYo utube
Ġev ent
Mar et
ĠÏ ī
Ker angka
ĠLet ters
Ġpew arisan
ĠEncyclop aedia
ĠBlu esky
ĠBlack well
Ġpp m
Ġtun as
Ġmengeks tr
Ġmengeks ploitasi
olitik um
ĠIndustri es
ĠNg urah
ĠFlor a
Ġaf ter
vir idae
Ġion isasi
ĠNetwork s
ĠMid ian
Ġbe at
ĠSl ovenia
ĠEngine ers
Dep artemen
ĠBad ui
ĠDur en
Mel akukan
ĠOper ations
ĠPil ecki
ĠCal vin
ĠBah wa
ĠTex t
umbang sih
ĠLog istik
Am endemen
ĠBak er
ĠEth n
ĠNat alie
ÑĢ Ð¸
Ġkarb ida
Ġret ina
ĠSik ap
Ġlink s
ĠNorth ern
mus uh
ĠGun awan
ĠGh ost
arch y
ĠBenteng e
ĠNO AA
ĠGel ora
Ġsenar ai
Ġgul ungan
Ġgul den
Ġdimak nai
Ġmengur usi
ici ency
ĠLuk semburg
Ġni obium
har ata
Ð» ÑĮ
Ġanark isme
ĠMill er
Inter aksi
Ġpendahul uan
Ant ena
ĠDy ing
Ġpenal ti
Ġpenamp ungan
ĠFat imiyah
ĠPres ent
Ġthr iller
ĠMoz art
ĠBio Ware
contoh nya
Med ali
kode an
utch ison
Ġgran at
ĠMaur itius
Akhir nya
ĠInstr umen
ĠQue en
Ġkontras epsi
Ġsamb ungan
Pes awat
Kl ausa
ulsi vitas
Ġges ek
Sm ith
Sim on
Ġmengel uh
Ġhamb uran
Ġpleb eian
Berk as
Ġditumb uhkan
Hip otesis
enni fer
ĠHart ono
ĠLain nya
ortik olis
Ġsian ida
tem annya
oksa zol
ĠIndepend ence
Ġmempro tes
Ġpept ida
ĠZain al
ĠAkun tansi
Ġpartisip an
Ġpenerj emahan
Ġpenerj emah
Ġthrough put
ĠPyth agoras
Ġmenump as
Mik ro
Ġpist ol
ĠPig ou
Ġkorpor asi
ÅĦ ski
ĠSayang nya
ĠPriv ate
ĠTelec ommun
Ġpemad am
Ġserp ih
Ġimper atif
Perj alanan
ĠSj arif
ĠHank ook
ĠICC PR
Ġpari purna
Ġgund ul
Ġkeputus annya
Ġorkes tra
ĠQueens land
ĠAga inst
Ġhamp aran
ĠCent OS
ĠSard inia
ilib rium
ĠFro st
scher ichia
ĠLux emb
Ġpolis akarida
Olymp ic
emati cal
Ġinhib itor
iferensi asi
Ġkomplemen ter
omn Ã¡n
Ġmelel eh
ĠVeh icle
[...]
