{"<s>":0,"<pad>":1,"</s>":2,"<unk>":3,"<mask>":4,"!":5,"\"":6,"#":7,"$":8,"%":9,"&":10,"'":11,"(":12,")":13,"*":14,"+":15,",":16,"-":17,".":18,"/":19,"0":20,"1":21,"2":22,"3":23,"4":24,"5":25,"6":26,"7":27,"8":28,"9":29,":":30,";":31,"<":32,"=":33,">":34,"?":35,"@":36,"A":37,"B":38,"C":39,"D":40,"E":41,"F":42,"G":43,"H":44,"I":45,"J":46,"K":47,"L":48,"M":49,"N":50,"O":51,"P":52,"Q":53,"R":54,"S":55,"T":56,"U":57,"V":58,"W":59,"X":60,"Y":61,"Z":62,"[":63,"\\":64,"]":65,"^":66,"_":67,"`":68,"a":69,"b":70,"c":71,"d":72,"e":73,"f":74,"g":75,"h":76,"i":77,"j":78,"k":79,"l":80,"m":81,"n":82,"o":83,"p":84,"q":85,"r":86,"s":87,"t":88,"u":89,"v":90,"w":91,"x":92,"y":93,"z":94,"{":95,"|":96,"}":97,"~":98,"¡":99,"¢":100,"£":101,"¤":102,"¥":103,"¦":104,"§":105,"¨":106,"©":107,"ª":108,"«":109,"¬":110,"®":111,"¯":112,"°":113,"±":114,"²":115,"³":116,"´":117,"µ":118,"¶":119,"·":120,"¸":121,"¹":122,"º":123,"»":124,"¼":125,"½":126,"¾":127,"¿":128,"À":129,"Á":130,"Â":131,"Ã":132,"Ä":133,"Å":134,"Æ":135,"Ç":136,"È":137,"É":138,"Ê":139,"Ë":140,"Ì":141,"Í":142,"Î":143,"Ï":144,"Ð":145,"Ñ":146,"Ò":147,"Ó":148,"Ô":149,"Õ":150,"Ö":151,"×":152,"Ø":153,"Ù":154,"Ú":155,"Û":156,"Ü":157,"Ý":158,"Þ":159,"ß":160,"à":161,"á":162,"â":163,"ã":164,"ä":165,"å":166,"æ":167,"ç":168,"è":169,"é":170,"ê":171,"ë":172,"ì":173,"í":174,"î":175,"ï":176,"ð":177,"ñ":178,"ò":179,"ó":180,"ô":181,"õ":182,"ö":183,"÷":184,"ø":185,"ù":186,"ú":187,"û":188,"ü":189,"ý":190,"þ":191,"ÿ":192,"Ā":193,"ā":194,"Ă":195,"ă":196,"Ą":197,"ą":198,"Ć":199,"ć":200,"Ĉ":201,"ĉ":202,"Ċ":203,"ċ":204,"Č":205,"č":206,"Ď":207,"ď":208,"Đ":209,"đ":210,"Ē":211,"ē":212,"Ĕ":213,"ĕ":214,"Ė":215,"ė":216,"Ę":217,"ę":218,"Ě":219,"ě":220,"Ĝ":221,"ĝ":222,"Ğ":223,"ğ":224,"Ġ":225,"ġ":226,"Ģ":227,"ģ":228,"Ĥ":229,"ĥ":230,"Ħ":231,"ħ":232,"Ĩ":233,"ĩ":234,"Ī":235,"ī":236,"Ĭ":237,"ĭ":238,"Į":239,"į":240,"İ":241,"ı":242,"Ĳ":243,"ĳ":244,"Ĵ":245,"ĵ":246,"Ķ":247,"ķ":248,"ĸ":249,"Ĺ":250,"ĺ":251,"Ļ":252,"ļ":253,"Ľ":254,"ľ":255,"Ŀ":256,"ŀ":257,"Ł":258,"ł":259,"Ń":260,"an":261,"er":262,"Ġd":263,"ĠĠ":264,"en":265,"ar":266,"Ġm":267,"at":268,"Ġp":269,"ang":270,"in":271,"al":272,"Ġs":273,"ah":274,"as":275,"Ġt":276,"ak":277,"un":278,"Ġb":279,"Ġk":280,"ĠĠĠĠ":281,"Ġdi":282,"em":283,"am":284,"ad":285,"si":286,"el":287,"eng":288,"kan":289,"Ġy":290,"tu":291,"Ġyang":292,"on":293,"Ġdan":294,"eb":295,"ya":296,"is":297,"ik":298,"ap":299,"il":300,"or":301,"ĠS":302,"ĠP":303,"ai":304,"es":305,"ek":306,"Ġmen":307,"Ġl":308,"et":309,"ol":310,"it":311,"Ġber":312,"ing":313,"ag":314,"ut":315,"ada":316,"ur":317,"Ġter":318,"ĠĠĠĠĠĠĠĠ":319,"us":320,"um":321,"ari":322,"asi":323,"ĠM":324,"ĠA":325,"ul":326,"Ġ(":327,"Ġper":328,"akan":329,"ara":330,"ĠK":331,"uk":332,"ĠB":333,"Ġin":334,"ung":335,"Ġmem":336,"nya":337,"id":338,"ep":339,"ir":340,"Ġh":341,"engan":342,"ti":343,"tuk":344,"ĠI":345,"ĠD":346,"om":347,"Ġmeng":348,"Ġ1":349,"alam":350,"ĠT":351,"Ġdengan":352,"Ġdari":353,"Ġun":354,"Ġj":355,"ed":356,"ga":357,"ro":358,"Ġpada":359,"eh":360,"Ġseb":361,"Ġuntuk":362,"ia":363,"im":364,"Ġr":365,"Ġ2":366,"ama":367,"ata":368,"ian":369,"ab":370,"ĠR":371,"alah":372,"up":373,"emb":374,"Ġini":375,"Ġdalam":376,"and":377,"Ġpen":378,"Ġn":379,"Ġke":380,"ĠC":381,"ud":382,"aw":383,"ih":384,"eg":385,"ĠJ":386,"Ġg":387,"agai":388,"uh":389,"ta":390,"ĠN":391,"tr":392,"Ġad":393,"ay":394,"ĠH":395,"adi":396,"atan":397,"Ġmer":398,"ok":399,"ter":400,"Ġ20":401,"esi":402,"ain":403,"ahun":404,"oleh":405,"aan":406,"ĠIn":407,"ĠL":408,"Ġadalah":409,"ac":410,"ub":411,"Ġc":412,"apat":413,"Ġoleh":414,"ĠG":415,"Ġ19":416,"Ġtahun":417,"Ġf":418,"Ġsebagai":419,"ant":420,"aj":421,"Ġse":422,"angan":423,"ent":424,"atau":425,"Ġpeng":426,"Ġbah":427,"idak":428,"Ġatau":429,"ukan":430,"end":431,"isi":432,"asa":433,"ĠW":434,"ati":435,"Ġmel":436,"ebut":437,"jadi":438,"og":439,"per":440,"Ġw":441,"Ġmemb":442,"ĠE":443,"ĠF":444,"ot":445,"Ġtidak":446,"amp":447,"wa":448,"anya":449,"ahan":450,"ĠU":451,"ic":452,"usi":453,"gun":454,"elah":455,"od":456,"itu":457,"atu":458,"sebut":459,"ika":460,"ip":461,"angg":462,"ib":463,"Ġ\"":464,"Ġo":465,"Ġdapat":466,"uga":467,"Ġmeny":468,"ĠĠĊ":469,"00":470,"orang":471,"os":472,"Ġjuga":473,"uan":474,"he":475,"âĢ":476,"ist":477,"ua":478,"Ġmenjadi":479,"Ġpem":480,"amb":481,"aya":482,"ali":483,"Ġpro":484,"Ġsep":485,"angk":486,"ana":487,"ĠĠĠ":488,"ebih":489,"ĠO":490,"Ġsel":491,"ran":492,"Ġser":493,"Ġkar":494,"op":495,").":496,"ef":497,"emp":498,"Ġtersebut":499,"ĠInd":500,"ĠĠĠĠĠĠĠĠĠĠĠĠĠĠĠĠ":501,"ikan":502,"gunakan":503,"ensi":504,"yak":505,"eka":506,"erti":507,"Ġlain":508,"Ġlebih":509,"ilik":510,"osi":511,"ĠPer":512,"anj":513,"Ġkon":514,"Ġv":515,"onal":516,"Ġitu":517,"ena":518,"Ġdib":519,"ec":520,"Ġkem":521,"ind":522,"ew":523,"Ġdik":524,"int":525,"Ġbahwa":526,"aran":527,"apa":528,"Ġak":529,"esia":530,"ingk":531,"ob":532,"),":533,"uar":534,"onesia":535,"esar":536,"omp":537,"eber":538,"ungan":539,"ong":540,"Ġseperti":541,"ri":542,"ala":543,"Ġkep":544,"iliki":545,"Ġpert":546,"Ġ201":547,"Ġberb":548,"ingg":549,"ingga":550,"cara":551,"gr":552,"asan":553,"aman":554,"Ġsek":555,"Ġmereka":556,"ĠIndonesia":557,"egara":558,"Ġsecara":559,"Ġmemiliki":560,"af":561,"Ġof":562,"ĠY":563,"asil":564,"uah":565,"uj":566,"Ġtelah":567,"art":568,"iri":569,"api":570,"st":571,"Ġant":572,"ĠV":573,"Ġakan":574,"agian":575,"Ġset":576,"itas":577,"Ġmend":578,"upakan":579,"ota":580,"olog":581,"eberapa":582,"Ġmerupakan":583,"alu":584,"Ġsatu":585,"Ġmas":586,"ej":587,"ni":588,"Ġpemb":589,"aat":590,"le":591,"Ġdit":592,"ĠDi":593,"Ġsem":594,"âĢĵ":595,"Ġ200":596,"oh":597,"uran":598,"lah":599,"19":600,"Ġal":601,"Ġkarena":602,"Ġkel":603,"Ġker":604,"Ġorang":605,"Ġdis":606,"Ġat":607,"ĠĠĠĠĠĠĠĠĠĠĠĠ":608,"Ġket":609,"Ġban":610,"ikasi":611,"uat":612,"ch":613,"sa":614,"ver":615,"inya":616,"Ġmenc":617,"gan":618,"Ġtet":619,"Ġdip":620,"asar":621,"Ġas":622,"Ġdil":623,"Ġpr":624,"Ġan":625,"entuk":626,"Ġ3":627,"Ġbesar":628,"imp":629,"eri":630,"agi":631,"Ġpend":632,"orm":633,"ism":634,"akukan":635,"ĠAn":636,"ĠAm":637,"Ġsebuah":638,"ula":639,"had":640,"Ġdigunakan":641,"Ġbeberapa":642,"##":643,"eks":644,"mas":645,"tur":646,"Ġberk":647,"alan":648,"ev":649,"Ġbar":650,"umb":651,"duk":652,"arah":653,"usia":654,"Ġterb":655,"Ġsej":656,"ig":657,"angkan":658,"ĠPada":659,"Ġnegara":660,"uhan":661,"hir":662,"utu":663,"ons":664,"Ġsu":665,"ses":666,"empat":667,"20":668,"ov":669,"Ġbi":670,"erensi":671,"Ġkes":672,"ja":673,"unan":674,"udian":675,"ĠĠĠĠĠĠĠ":676,"ode":677,"tern":678,"ine":679,"Ġantara":680,"ĠAl":681,"tif":682,"ingkat":683,"ologi":684,"tor":685,"ra":686,"man":687,"ungk":688,"asional":689,"erint":690,"ulan":691,"re":692,"isme":693,"ont":694,"Ġpel":695,"Ġbanyak":696,"Ġmengh":697,"Ġman":698,"umum":699,"unc":700,"Ġtan":701,"ita":702,"Ġthe":703,"ĠPr":704,"sip":705,"ug":706,"ĠSel":707,"elum":708,"Ġand":709,"==":710,"usah":711,"ayah":712,"Ġada":713,"eferensi":714,"Ġbahasa":715,"hadap":716,"aik":717,"ingan":718,"Ġia":719,"utan":720,"Ġkemudian":721,"Ġluar":722,"Ġpertama":723,"Ġsaat":724,"pa":725,"oc":726,"ilm":727,"enal":728,"Ġhar":729,"Ġatas":730,"Ġterd":731,"istem":732,"if":733,"entang":734,"entu":735,"tan":736,"Ġmenggunakan":737,"enc":738,"ĠAmer":739,"aja":740,"air":741,"Ġhingga":742,"ember":743,"Ġterhadap":744,"ulai":745,"itik":746,"di":747,"Ġtetapi":748,"inggi":749,"erah":750,"Ġkeb":751,"apan":752,"anda":753,"li":754,"idup":755,"Ġserta":756,"und":757,"ĠAr":758,"Ġmemper":759,"ungkin":760,"Ġsed":761,"ori":762,"Ġked":763,"Ġseh":764,"unia":765,"Ġkec":766,"arak":767,"Ġtangg":768,"Ġbagian":769,"Ġdim":770,"ilayah":771,"ggr":772,"ĠCh":773,"utama":774,"Ġlainnya":775,"ggris":776,"uas":777,"umlah":778,"ack":779,"itar":780,"Pada":781,"Ġdiper":782,"Ġumum":783,"ihat":784,"teri":785,"ow":786,"amun":787,"Ġbers":788,"sit":789,"isasi":790,"angat":791,"unj":792,"Ġ4":793,"Ġpeny":794,"Ġpol":795,"ĠĠĠĠĠĠĠĠĠĠĊ":796,"ach":797,"ĠPro":798,"ĠMar":799,"aks":800,"ĠUni":801,"Ġaw":802,"tar":803,"ĠĠĠĠĠĠĠĠĊ":804,"aga":805,"ĠAmerika":806,"ĠĠĠĠĊ":807,"Ġkepada":808,"Ġhanya":809,"awa":810,"erik":811,"Ġag":812,"Ġ199":813,"era":814,"alui":815,"Ġkomp":816,"ima":817,"Ġor":818,"Ġmet":819,"Ġsistem":820,"masuk":821,"Ġtanggal":822,"emen":823,"Ġkons":824,"Ġpara":825,"In":826,"Ġsetelah":827,"ard":828,"anc":829,"est":830,"Ġkom":831,"iga":832,"Ġterl":833,"Ġsen":834,"Ġdid":835,"Ġdua":836,"av":837,"Ġkek":838,"Ġmenj":839,"Ġsp":840,"aka":841,"aitu":842,"erb":843,"\".":844,"arat":845,"Ġbaru":846,"Ġtentang":847,"aut":848,"Ġyaitu":849,"Ġ-":850,"isa":851,"Ġterk":852,"edia":853,"Ġsangat":854,"enis":855,"Ġmelalui":856,"Ġ5":857,"imb":858,"onom":859,"ibat":860,"anan":861,"Ġdir":862,"Ġmusi":863,"Ġdisebut":864,"na":865,"esk":866,"Ġ18":867,"aksi":868,"Ġawal":869,"arkan":870,"ui":871,"atif":872,"ilan":873,"Ġsama":874,"ation":875,"udah":876,"elit":877,"ini":878,"ubl":879,"Ġst":880,"Ġpemerint":881,"entara":882,"Ġterjadi":883,"Ġwilayah":884,"ĠThe":885,"Ġar":886,"usahaan":887,"Ġres":888,"Ġpas":889,"Ġsuatu":890,"da":891,"Ġsehingga":892,"ustr":893,"Ġses":894,"ekn":895,"ern":896,"Ġair":897,"Ġseorang":898,"ebab":899,"Ġsamp":900,"Ġperm":901,"atakan":902,"Ġ202":903,"Ġtermasuk":904,"Ġwak":905,"awah":906,"unya":907,"Ġda":908,"ina":909,"Ġnama":910,"Ġsalah":911,"Ġberd":912,"ump":913,"erikan":914,"akar":915,"angs":916,"arang":917,"ukum":918,"Ġmanusia":919,"eda":920,"pl":921,"Ġbert":922,"ikut":923,"Ġpula":924,"ual":925,"Ġgen":926,"Ġsebelum":927,"uruh":928,"uka":929,"Ġtinggi":930,"Ġhal":931,"Ġbulan":932,"ĠIs":933,"istr":934,"ĠBel":935,"ĠĠĠĠĠĠĊ":936,"den":937,"uc":938,"iap":939,"Ġberbagai":940,"Ġek":941,"pr":942,"ers":943,"Ġakhir":944,"Ġpenggun":945,"ilih":946,"arsip":947,"aling":948,"Ġdunia":949,"versit":950,"ĠAg":951,"uang":952,"Ġbagi":953,"Ġsekitar":954,"embali":955,"asih":956,"osial":957,"form":958,"aris":959,"ahkan":960,"arsipkan":961,"Ġpers":962,"Ġselama":963,"etu":964,"eksi":965,"yarak":966,"ĠMen":967,"ĠPem":968,"ij":969,"Ġmelakukan":970,"alia":971,"Ġproduk":972,"ĠDiarsipkan":973,"iran":974,"Ġmasa":975,"eker":976,"ĠSt":977,"ekan":978,"endiri":979,"emukan":980,"Ġkali":981,"aku":982,"yarakat":983,"Ġab":984,"any":985,"Ġdilakukan":986,"ranala":987,"ewan":988,"tiv":989,"iter":990,"anjang":991,"Ġkh":992,"angkat":993,"Ġangg":994,"Ġmod":995,"ĠPen":996,"upun":997,"Ġberl":998,"ĠMach":999,"back":1000,"Ġwaktu":1001,"Ġ6":1002,"200":1003,"Ġmembuat":1004,"ert":1005,"Ġbisa":1006,"ĠWay":1007,"han":1008,"ort":1009,"Ġ9":1010,"ĠPeng":1011,"Ġap":1012,"ĠInggris":1013,"ebabkan":1014,"Ġperusahaan":1015,"mi":1016,"10":1017,"Ġbawah":1018,"Ġtert":1019,"ĠMachine":1020,"inan":1021,"Pranala":1022,"Ġ{":1023,"ĠDalam":1024,"urut":1025,"asarkan":1026,"ĠWayback":1027,"Ġharus":1028,"uku":1029,"Ġberh":1030,"Ġmemp":1031,"Ġkembali":1032,"Ġkeh":1033,"umber":1034,"Ġmulai":1035,"ide":1036,"ĠĠĠĠĠĠĠĠĠĠĠ":1037,"awan":1038,"Ġberp":1039,"omb":1040,"asal":1041,"aruh":1042,"ĠZ":1043,"Ġdikenal":1044,"ess":1045,"Ġsering":1046,"engah":1047,"apkan":1048,"epang":1049,"Ġstr":1050,"Ġtr":1051,"Referensi":1052,"ting":1053,"Ġsendiri":1054,"ilai":1055,"ahasa":1056,"uatan":1057,"asanya":1058,"sia":1059,"idang":1060,"Ġ196":1061,"te":1062,"asilkan":1063,"Ġanak":1064,"ĠâĢĵ":1065,"aki":1066,"rans":1067,"gi":1068,"ukkan":1069,"erikat":1070,"ompok":1071,"000":1072,"ĠUniversit":1073,"onomi":1074,"ĠBr":1075,"raf":1076,"of":1077,"Ġketika":1078,"Ġeks":1079,"Ġob":1080,"Ġjenis":1081,"Ġorgan":1082,"Ġ198":1083,"Ġutama":1084,"Ġkr":1085,"ĠUn":1086,"Ġsemua":1087,"ark":1088,"ulis":1089,"ĠSerikat":1090,"Ġ194":1091,"erd":1092,"Ġmil":1093,"Ġbaik":1094,"ea":1095,"alami":1096,"angka":1097,"Ġkota":1098,"ungsi":1099,"eral":1100,"ersi":1101,"ell":1102,"artai":1103,"Ġmasyarakat":1104,"Ġtempat":1105,"Ġmana":1106,"tikan":1107,"ropa":1108,"Ġ7":1109,"ĠJepang":1110,"ilah":1111,"Ġdaerah":1112,"Ġhidup":1113,"ord":1114,"ank":1115,"aftar":1116,"olah":1117,"esiden":1118,"fr":1119,"tim":1120,"Ġmasih":1121,"urang":1122,"Ġmusik":1123,"Ġ==":1124,"ĠSeb":1125,"uari":1126,"Ġbentuk":1127,"anjut":1128,"embang":1129,"ĠTim":1130,"Ġpern":1131,"ĠIa":1132,"inggal":1133,"ĠĠĠĠĠĠĠĠĠĠĠĠĊ":1134,"ond":1135,"embangan":1136,"usus":1137,"Ġpaling":1138,"ill":1139,"Ġhari":1140,"ubah":1141,"18":1142,"Ġdih":1143,"ĠEropa":1144,"etah":1145,"Ġmat":1146,"Ġproses":1147,"ublik":1148,"Ġbel":1149,"Ġsosial":1150,"lam":1151,"epat":1152,"Ġ10":1153,"angsung":1154,"aian":1155,"Ġkedua":1156,"alnya":1157,"ĠAd":1158,"ubungan":1159,"ipun":1160,"Ġbersama":1161,"ĠĊ":1162,"Ġ8":1163,"Ġanggota":1164,"umah":1165,"ĠIS":1166,"itan":1167,"Ġhukum":1168,"Ġ197":1169,"Ġdem":1170,"ha":1171,"anggap":1172,"ial":1173,"ungg":1174,"iet":1175,"Ġtekn":1176,"ĠNamun":1177,"ranc":1178,"Per":1179,"Ġkap":1180,"Ġsampai":1181,"egeri":1182,"Ġkecil":1183,"gram":1184,"eskipun":1185,"Ġterp":1186,"ĠAs":1187,"Ġspesi":1188,"th":1189,"ei":1190,"Ġseluruh":1191,"erman":1192,"isik":1193,"Ġmemberikan":1194,"Ġberada":1195,"Ġbiasanya":1196,"lu":1197,"Ġa":1198,"apai":1199,"Ġmin":1200,"atur":1201,"etak":1202,"agu":1203,"askan":1204,"ĠBelanda":1205,"ĠPol":1206,"Ġlaut":1207,"wan":1208,"engg":1209,"Ġsudah":1210,"usat":1211,"min":1212,"ust":1213,"Ġpolitik":1214,"ĠSo":1215,"Ġpes":1216,"Ġintern":1217,"utus":1218,"ĠSep":1219,"etelah":1220,"titu":1221,"Ġberbeda":1222,"Ġdata":1223,"ingin":1224,"las":1225,"perasi":1226,"Ġjumlah":1227,"itus":1228,"ma":1229,"Ġef":1230,"Ġpun":1231,"idikan":1232,"aikan":1233,"engk":1234,"Ġmenunj":1235,"Ġind":1236,"eter":1237,"Ġro":1238,"ĠIntern":1239,"Ġmenyebabkan":1240,"Ġperb":1241,"umi":1242,"ĠDes":1243,"lin":1244,"ani":1245,"Ġsebagian":1246,"Ġsejak":1247,"Ġâ":1248,"uta":1249,"Ġen":1250,"Ġmeningkat":1251,"ultan":1252,"arga":1253,"uni":1254,"Ġel":1255,"Ġma":1256,"yakit":1257,"adang":1258,"Ġlingk":1259,"ait":1260,"ulkan":1261,"Ġdiri":1262,"Ġtel":1263,"asis":1264,"Ġz":1265,"ĠEn":1266,"BN":1267,"Ġmungkin":1268,"inasi":1269,"antu":1270,"ĠSp":1271,"our":1272,"Ġ0":1273,"ulang":1274,"Ġterdapat":1275,"\",":1276,"umen":1277,"Ġmengen":1278,"ĠĠĠĠĠĠĠĠĠĠĠĠĠĠĊ":1279,"ĠReferensi":1280,"ey":1281,"akarta":1282,"Ġdig":1283,"ital":1284,"Ġmendapat":1285,"ola":1286,"ĠHal":1287,"opul":1288,"Ġsetiap":1289,"ajaan":1290,"Ġperk":1291,"uli":1292,"udi":1293,"udaya":1294,"Ġilm":1295,"ĠMal":1296,"ontoh":1297,"Ġkeluar":1298,"Ġresmi":1299,"Ġpenting":1300,"}}":1301,"tus":1302,"ĠâĢ":1303,"11":1304,"iz":1305,"Ġre":1306,"ht":1307,"ĠOr":1308,"ĠII":1309,"Ġkhusus":1310,"Ġtiga":1311,"Ġabad":1312,"lan":1313,"Ġdia":1314,"Ġput":1315,"Ġsumber":1316,"entukan":1317,"Ġters":1318,"eta":1319,"ilis":1320,"Ġdin":1321,"Ġtak":1322,"olusi":1323,"ator":1324,"upa":1325,"ubahan":1326,"Ġperj":1327,"akhir":1328,"Ġtim":1329,"Ġde":1330,"ĠBarat":1331,"Ġmenghasilkan":1332,"Ġpemerintah":1333,"adan":1334,"Ġditu":1335,"Ġpenc":1336,"ekerja":1337,"ase":1338,"Ġtanah":1339,"Ġantar":1340,"..":1341,"ambil":1342,"angsa":1343,"50":1344,"Ġte":1345,"Ġtertentu":1346,"aten":1347,"Ġtrans":1348,"ungai":1349,"Ġgr":1350,"aringan":1351,"tik":1352,"irikan":1353,"ĠISBN":1354,"Ġmakan":1355,"ograf":1356,"dis":1357,"abil":1358,"Ġhasil":1359,"ĠUt":1360,"arti":1361,"Ġmenyatakan":1362,"akteri":1363,"ĠAb":1364,"Ġcara":1365,"ational":1366,"uti":1367,"Ġgel":1368,"Ġberj":1369,"ĠKom":1370,"uda":1371,"ĠKar":1372,"gab":1373,"ĠIt":1374,"impin":1375,".,":1376,"araan":1377,"Ġmenunjukkan":1378,"Ġditemukan":1379,"Ġbidang":1380,"uktur":1381,"endah":1382,"Ġberasal":1383,"ida":1384,"Ġsesu":1385,"Ġdek":1386,"eran":1387,"Lihat":1388,"Ġditer":1389,"ĠMan":1390,"ĠJawa":1391,"Ġkelompok":1392,"irus":1393,"uncul":1394,"formasi":1395,"ĠJakarta":1396,"Ġterdiri":1397,"ĠSelatan":1398,"Ġkomun":1399,"yat":1400,"Ġmengg":1401,"ĠJerman":1402,"ĠMas":1403,"Ġrumah":1404,"Ġdianggap":1405,"12":1406,"Ġhak":1407,"Ġjika":1408,"Ġekonomi":1409,"enar":1410,"ton":1411,"atas":1412,"Ġ{\\":1413,"ĠSem":1414,"ĠAk":1415,"ath":1416,"Ġmener":1417,"Ġlingkungan":1418,"az":1419,"ĠMer":1420,"yah":1421,"ĠĠĠĠĠĠĠĠĠ":1422,"aru":1423,"ade":1424,"Ġtanpa":1425,"ukung":1426,"Ġtetap":1427,"Ġberdasarkan":1428,"annya":1429,"ĠRep":1430,"ĠKer":1431,"embangkan":1432,"Ġtingkat":1433,"edi":1434,"NA":1435,"atang":1436,"Ġger":1437,"erl":1438,"Ġmuncul":1439,"Ġpenggunaan":1440,"Ġberg":1441,"ĠSh":1442,"Ġperd":1443,"Ġbahan":1444,"kr":1445,"inta":1446,"arna":1447,"lis":1448,"unung":1449,"Ġmengalami":1450,"anding":1451,"ĠĠĠĠĠĠĠĠĠĠĠĠĠĠĠĠĊ":1452,"etika":1453,"ork":1454,"anyak":1455,"osisi":1456,"men":1457,"elitian":1458,"Ġdasar":1459,"Ġpernah":1460,"ĠKab":1461,"all":1462,"ura":1463,"iv":1464,"abat":1465,"urkan":1466,"usan":1467,"uduk":1468,"Ġmencapai":1469,"ami":1470,"idupan":1471,"ĠNew":1472,"Ġpemerintahan":1473,"isalnya":1474,"Ġnamun":1475,"Ġi":1476,"Ġlay":1477,"Ġdep":1478,"ens":1479,"Ġpenyakit":1480,"angun":1481,"anjian":1482,"Ġdic":1483,"Ġkal":1484,"Ġbern":1485,"Ġefek":1486,"ĠKep":1487,"ukaan":1488,"likasi":1489,"ili":1490,"ainan":1491,"mb":1492,"ampak":1493,"ore":1494,"ci":1495,"uf":1496,"Peng":1497,"Ġmaupun":1498,"Ġpopul":1499,"ujuan":1500,"gen":1501,"ich":1502,"ĠOl":1503,"ĠSelain":1504,"Ġmengenai":1505,"Ġweb":1506,"dang":1507,"angunan":1508,"ĠAc":1509,"Pen":1510,"bit":1511,"lat":1512,"awat":1513,"tas":1514,"adaan":1515,"ĠAng":1516,"Ġjaringan":1517,"Ġmengan":1518,"atian":1519,"17":1520,"Ġot":1521,"199":1522,"ipt":1523,"upaten":1524,"antai":1525,"rancis":1526,"ĠX":1527,"ĠJan":1528,"Ġfilm":1529,"Ġis":1530,"ejarah":1531,"16":1532,"ge":1533,"Ġterutama":1534,"Ġ13":1535,"osis":1536,"ity":1537,"urun":1538,"Ġ17":1539,"udara":1540,".\"":1541,"urat":1542,"Ġjuta":1543,"Ġsebelumnya":1544,"Ġsub":1545,"rop":1546,"ĠOk":1547,"Ġsementara":1548,"mp":1549,"awasan":1550,"Ġkont":1551,"oto":1552,"ĠTimur":1553,"fat":1554,"ulu":1555,"rom":1556,"tob":1557,"Ġtumb":1558,"irim":1559,"ehatan":1560,"ihak":1561,"ros":1562,"ateg":1563,"Ġist":1564,"Ġlap":1565,"Ġrendah":1566,"ulit":1567,"uangan":1568,"Ġlangsung":1569,"lo":1570,"akyat":1571,"An":1572,"erita":1573,"ĠMus":1574,"Ġ&":1575,"uter":1576,"ĠIslam":1577,"ĠTi":1578,"tember":1579,"Ġspesies":1580,"isan":1581,"omor":1582,"ĠItalia":1583,"adisi":1584,"Ġ=":1585,"Ġdij":1586,"Ġlagi":1587,"Ġ12":1588,"Ġseg":1589,"Ġpenj":1590,"Ġlok":1591,"ĠKr":1592,"ebr":1593,"Ġmaka":1594,"eja":1595,"Ġpengh":1596,"Ġhewan":1597,"ĠPresiden":1598,"Ġ16":1599,"ĠĠĠĠĠĠĠĠĠĠĠĠĠĠĠĠĠĠĠĠĊ":1600,"Di":1601,"land":1602,"sik":1603,"Inggris":1604,"Ġperangkat":1605,"etahui":1606,"engaruh":1607,"Dalam":1608,"yle":1609,"Ġmembentuk":1610,"sp":1611,"Ġmiliter":1612,"Ġbakteri":1613,"jata":1614,"Ġagar":1615,"roduk":1616,"ĠNasional":1617,"14":1618,"isis":1619,"tober":1620,"ĠSy":1621,"umat":1622,"ĠSeptember":1623,"auh":1624,"isti":1625,"ukup":1626,"Ġmak":1627,"Ġlalu":1628,"PR":1629,"ĠĠĠĠĠĠĠĠĠĠĠĠĠ":1630,"Ġpasukan":1631,"Ġ195":1632,"tion":1633,"ĠHind":1634,"Ġpanjang":1635,"Ġkerja":1636,"ungkinkan":1637,"Ġtub":1638,"Ġhubungan":1639,"Ġkarya":1640,"play":1641,"disi":1642,"ongk":1643,"Ġkol":1644,"imia":1645,"13":1646,"tudi":1647,"pada":1648,"Ġperang":1649,"ĠNov":1650,"antung":1651,"Ã©":1652,"ĠTr":1653,"andar":1654,"Ġkej":1655,"Ġberhasil":1656,"ilihan":1657,"ĠTh":1658,"Ġprogram":1659,"Ġnilai":1660,"Ġto":1661,"Ġberikut":1662,"Ġon":1663,"Ġperubahan":1664,"Ġnuk":1665,"ustus":1666,"78":1667,"str":1668,"Ġmengak":1669,"rat":1670,"erg":1671,"ĠSek":1672,"ĠKes":1673,"Ġfor":1674,"ĠRepublik":1675,"eorang":1676,"Ġpan":1677,"Ġsuara":1678,"Ġdes":1679,"Ġkata":1680,"ektr":1681,"etik":1682,"ĠĠĠĠĠĠĠĠĠĠĠĠĠĠĠĠĠĠĊ":1683,"ĠSetelah":1684,"alaman":1685,"lir":1686,"ĠUtara":1687,"ungkan":1688,"Ġsejumlah":1689,"ukuran":1690,"Ġinternasional":1691,"Ġbersi":1692,"embaga":1693,"Ġkab":1694,"ban":1695,"ex":1696,"aktor":1697,"emat":1698,"Ġkl":1699,"Ġakhirnya":1700,"Ġlagu":1701,"Ġbukan":1702,"Ġfungsi":1703,"Ġib":1704,"Ġmeninggal":1705,"15":1706,"istik":1707,"unt":1708,"Ġilmu":1709,"Ġcukup":1710,"style":1711,"ĠPartai":1712,"Ġkas":1713,"Ġsejarah":1714,"usaha":1715,"ustri":1716,"Ġut":1717,"Ġpengguna":1718,"ĠSur":1719,"Ġ15":1720,"Ġmasalah":1721,"ĠUniversitas":1722,"Ġac":1723,"Ġversi":1724,"Ġdibuat":1725,"qu":1726,"Ġluas":1727,"Ġberm":1728,"ikian":1729,"display":1730,"asikan":1731,"Ġrel":1732,"oviet":1733,"displaystyle":1734,"jek":1735,"Ġrek":1736,"Un":1737,"ce":1738,"Ġtradisi":1739,"Ġakibat":1740,"fikasi":1741,"ou":1742,"ĠTahun":1743,"oksi":1744,"Ġalam":1745,"esin":1746,"ĠKh":1747,"atatan":1748,"evolusi":1749,"ĠAgustus":1750,"ĠOktober":1751,"antan":1752,"Ġkehidupan":1753,"Ġmerek":1754,"Ġmemungkinkan":1755,"ender":1756,"tivitas":1757,"ografi":1758,"oy":1759,"ebar":1760,"ĠPrancis":1761,"iti":1762,"Ġumumnya":1763,"ĠDesember":1764,"ĠâĪ":1765,"eluar":1766,"ayu":1767,"son":1768,"oid":1769,"Ġup":1770,"elaj":1771,"Ġinformasi":1772,"ĠGr":1773,"amatan":1774,"entr":1775,"caya":1776,"lim":1777,"Ġsat":1778,"Ġbekerja":1779,"ĠAustr":1780,"Ġnasional":1781,"ment":1782,"iode":1783,"arl":1784,"ast":1785,"uru":1786,"urn":1787,"Ġbernama":1788,"KI":1789,"fer":1790,"ĠJuni":1791,"Ġik":1792,"Ġtanaman":1793,"ĠAS":1794,"Ġmeningkatkan":1795,"ĠKe":1796,"Ġsedang":1797,"ĠSoviet":1798,"Ġsesuai":1799,"amanya":1800,"Ġdaya":1801,"ĠJuli":1802,"Ġmakanan":1803,"Daftar":1804,"arn":1805,"Ġpermukaan":1806,"Ġpihak":1807,"amin":1808,"ĠMah":1809,"ĠMenteri":1810,"ĠPert":1811,"Ġobat":1812,"alik":1813,"vid":1814,"Ġlog":1815,"âĢĿ":1816,"ibatkan":1817,"Ġ193":1818,"utusan":1819,"Ġmetal":1820,"Ġmasuk":1821,"arian":1822,"Ġint":1823,"Ġkeluarga":1824,"ĠGo":1825,"sk":1826,"Ġmemas":1827,"Ġkapal":1828,"ĠKabupaten":1829,"ifat":1830,"_{":1831,"tra":1832,"aksan":1833,"uasaan":1834,"ĠNovember":1835,"Ġdaripada":1836,"Ġmendukung":1837,"Ġadanya":1838,"ĠUniversity":1839,"yata":1840,"ĠRom":1841,"Ġtujuan":1842,"ĠBer":1843,"hi":1844,"angga":1845,"ĠKota":1846,"ĠĠĠĠĠĠĠĠĠĠĠĠĠĠĠ":1847,"Ġem":1848,"omm":1849,"ingkatan":1850,"Ġagama":1851,"Ġterkait":1852,"ĠJanuari":1853,"erv":1854,"ĠAsia":1855,"Ġpenelitian":1856,"amanan":1857,"Ġberkembang":1858,"roduksi":1859,"lob":1860,"akin":1861,"Ġistilah":1862,"atus":1863,"Ġ'":1864,"ite":1865,"ongan":1866,"The":1867,"Ġbur":1868,"bahasa":1869,"iah":1870,"ĠBeberapa":1871,"Ġbahkan":1872,"enuh":1873,"pril":1874,"Ġx":1875,"arik":1876,"ikuti":1877,"Ġmendapatkan":1878,"nis":1879,"efin":1880,"Ġtubuh":1881,"ĠDengan":1882,"'s":1883,"ry":1884,"Ġkor":1885,"ampu":1886,"Ġteknologi":1887,"ideo":1888,"faat":1889,"ampir":1890,"aturan":1891,"ĠMereka":1892,"ĠPh":1893,"Ġjauh":1894,"istrik":1895,"ais":1896,"angguan":1897,"ĠPerang":1898,"titusi":1899,"ĠMaret":1900,"Ġdok":1901,"adilan":1902,"ampuan":1903,"au":1904,"Ġ+":1905,"ĠAfr":1906,"ium":1907,"alur":1908,"ory":1909,"Ġinf":1910,"bon":1911,"ĠKem":1912,"ĠNegeri":1913,"vin":1914,"Ġ)":1915,"ĠFebr":1916,"ohn":1917,"ĠEk":1918,"Ġstruktur":1919,"ikel":1920,"ock":1921,"kl":1922,"Ġindi":1923,"Ġperiode":1924,"Ġkondisi":1925,"stem":1926,"Sejarah":1927,"che":1928,"ate":1929,"Ġpermainan":1930,"ary":1931,"andingkan":1932,"ron":1933,"ĠDunia":1934,"ijakan":1935,"Ġorganisasi":1936,"Ġvirus":1937,"Ġterletak":1938,"sur":1939,"Ġperl":1940,"Ġcepat":1941,"Ġga":1942,"Ġbudaya":1943,"ĠQ":1944,"ahanan":1945,"Ġproduksi":1946,"to":1947,"Ġtok":1948,"Ġbin":1949,"ĠApril":1950,"ĠMei":1951,"ff":1952,"yek":1953,"Ġ14":1954,"aca":1955,"Ġberupa":1956,"Ġfil":1957,"atuan":1958,"ambahan":1959,"encana":1960,"unyai":1961,"bum":1962,"Ġterakhir":1963,"ohon":1964,"rasi":1965,"ĠTer":1966,"amm":1967,"Ġterus":1968,"enn":1969,"Ġpusat":1970,"Ġtah":1971,"Ġsedangkan":1972,"mana":1973,"Ġkontr":1974,"de":1975,"ie":1976,"Ġbelum":1977,"Ġlama":1978,"Ġpendidikan":1979,"Ġempat":1980,"Ġkamp":1981,"ĠBank":1982,"Ġdekat":1983,"Ġalat":1984,"ass":1985,"ontr":1986,"ambar":1987,"indakan":1988,"Ġindivid":1989,"Ġberarti":1990,"agangan":1991,"Ġsekali":1992,"Ġmempunyai":1993,"Ġmenerima":1994,"kir":1995,"Ġkaki":1996,"ush":1997,"iptakan":1998,"^{":1999,"ajak":2000,"Ġbeb":2001,"ĠRe":2002,"Ġpasar":2003,"ost":2004,"Ġkesehatan":2005,"ld":2006,"uanya":2007,"asti":2008,"ĠRaja":2009,"ĠLe":2010,"Ġanti":2011,"Ġkomputer":2012,"Ġkasus":2013,"ukti":2014,"Ġkurang":2015,"ĠNegara":2016,"Ġ30":2017,"pen":2018,"iaya":2019,"udd":2020,"ibusi":2021,"Ġaplikasi":2022,"Ind":2023,"Pro":2024,"ĠDia":2025,"Ġmodern":2026,"istiwa":2027,"30":2028,"abel":2029,"masing":2030,"Ġdemikian":2031,"Ġsk":2032,"Ġuj":2033,"Ġpand":2034,"ĠDe":2035,"ical":2036,"Ġsaja":2037,"ĠSM":2038,"unuh":2039,"andi":2040,"ence":2041,"Ġsekarang":2042,"amat":2043,"ajar":2044,"ĠKor":2045,"ĠAfrika":2046,"alkan":2047,"Ġkimia":2048,"Ġjam":2049,"ologis":2050,"engaruhi":2051,"ikit":2052,"Ġperjanjian":2053,"Ġapa":2054,"Ġdr":2055,"Ġkekuasaan":2056,"res":2057,"ungi":2058,"erintah":2059,"ĠFebruari":2060,"age":2061,"Ġmenyel":2062,"Ġ2012":2063,"Ġseseorang":2064,"akup":2065,"ongkok":2066,"ĠPend":2067,"Ġinter":2068,"ĠPress":2069,"Ġradi":2070,"artikel":2071,"por":2072,"se":2073,"ĠâĢľ":2074,"Ġnuklir":2075,"ĠAp":2076,"Ġindustri":2077,"Ġsin":2078,"otor":2079,"ĠBand":2080,"ogen":2081,"Ġ.":2082,"ayat":2083,"Ġsifat":2084,"efinisi":2085,"eli":2086,"olak":2087,"ĠAt":2088,"wak":2089,"ĠRusia":2090,"ĠIni":2091,"Ġterj":2092,"rig":2093,"dung":2094,"ish":2095,"uasa":2096,"erang":2097,"Ġnegeri":2098,"awab":2099,"esis":2100,"Ġmenyebut":2101,"âĢĶ":2102,"Ġ2008":2103,"Ġelektr":2104,"25":2105,"Ġmeskipun":2106,"ambarkan":2107,"ĠArab":2108,"AS":2109,"ihan":2110,"Ġ2010":2111,"akai":2112,"ĠDr":2113,"Ġraja":2114,"ĠUm":2115,"Men":2116,"ergi":2117,"Ġkeber":2118,"elas":2119,"ith":2120,"Ġmembantu":2121,"ĠEx":2122,"Ġcontoh":2123,"ick":2124,"Ġsedikit":2125,"Ġbersifat":2126,"rik":2127,"awi":2128,"ampil":2129,"Ġmodel":2130,"ediakan":2131,"Ġmesin":2132,"ema":2133,"oll":2134,"ainkan":2135,"orld":2136,"fik":2137,"ect":2138,"Pem":2139,"Seb":2140,"):":2141,"Ġuang":2142,"Ġ2009":2143,"ji":2144,"Ġmampu":2145,"atat":2146,"aham":2147,"ĠGer":2148,"Ġdiberikan":2149,"Ġ2011":2150,"ulasi":2151,"Ġhid":2152,"anita":2153,"Ġmudah":2154,"adar":2155,"Ġdiketahui":2156,"Ġpenduduk":2157,"ĠDa":2158,"Ġinv":2159,"Ġbiasa":2160,"ck":2161,"ĠĠĠĠĠ":2162,"yawa":2163,"negara":2164,"omat":2165,"ujan":2166,"Ġdimulai":2167,"Ġkam":2168,"Ġmenulis":2169,"ne":2170,"Ġteori":2171,"Ġe":2172,"isten":2173,"Sel":2174,"resi":2175,"ans":2176,"ĠStr":2177,"Ġop":2178,"Ġsekolah":2179,"ĠDNA":2180,"hkan":2181,"Ġfisik":2182,"Ġsemakin":2183,"ĠTiongkok":2184,"ater":2185,"Ġmasing":2186,"Ġmengambil":2187,"Ġmenemukan":2188,"198":2189,"enderal":2190,"Ġdidirikan":2191,"Ġsungai":2192,"gantikan":2193,"lobal":2194,"ektor":2195,"unani":2196,"emuan":2197,"ilangan":2198,"Ġterc":2199,"Ġmata":2200,"ĠEd":2201,"Ġsal":2202,"Ġmenurut":2203,"Ġkemampuan":2204,"arg":2205,"akni":2206,"apor":2207,"Ġgag":2208,"Ġpengembangan":2209,"etua":2210,"Ġhampir":2211,"amaan":2212,"ĠInternational":2213,"II":2214,"Ġmul":2215,"ĠGe":2216,"are":2217,"itur":2218,"ĠYah":2219,"Ġ2007":2220,"Ġlayanan":2221,"vinsi":2222,"Ġindividu":2223,"co":2224,"Ġmed":2225,"ice":2226,"ĠCo":2227,"ash":2228,"ĠRes":2229,"ĠIns":2230,"Ġ[":2231,"ulau":2232,"Ġoperasi":2233,"Ġ2006":2234,"Ġyakni":2235,"one":2236,"atar":2237,"Ġpasi":2238,"ĠĠĠĠĠĠĠĠĠĠĠĠĠĠĠĠĠĠĠĠĠ":2239,"ret":2240,"Ġpendek":2241,"23":2242,"Ġ,":2243,"etapkan":2244,"Ġmetode":2245,"ahir":2246,"anak":2247,"Ġpet":2248,"Ġberw":2249,"ĠYunani":2250,"Ġpemain":2251,"eluarkan":2252,"irip":2253,"ca":2254,"ve":2255,"ahaya":2256,"isah":2257,"ace":2258,"ĠIndia":2259,"Ġhi":2260,"Ġ978":2261,"endali":2262,"21":2263,"Ġnon":2264,"Ġdibandingkan":2265,"com":2266,"ĠSec":2267,"uman":2268,"ĠTengah":2269,"Ġkonsep":2270,"ris":2271,"Ġruang":2272,"obil":2273,"impi":2274,"arm":2275,"iar":2276,"erak":2277,"yang":2278,"Ġserangan":2279,"Ġkelas":2280,"Ġkepala":2281,"24":2282,"adem":2283,"ĠJohn":2284,"okus":2285,"iputi":2286,"Ġprib":2287,"Ġsitus":2288,"Ġ2014":2289,"Ġmah":2290,"ask":2291,"ement":2292,"Ġangk":2293,"atasan":2294,"Ġudara":2295,"akang":2296,"ejak":2297,"ekerj":2298,"ĠSen":2299,"ĠKons":2300,"ganti":2301,"Ġsenjata":2302,"erta":2303,"Ġtindakan":2304,"Ġvideo":2305,"Ġterbesar":2306,"ĠAustralia":2307,"Ġmedia":2308,"ĠMic":2309,"Ġgangguan":2310,"Ġim":2311,"erasi":2312,"Ġpartai":2313,"akter":2314,"ektur":2315,"edaan":2316,"evisi":2317,"hy":2318,"Ġkita":2319,"adakan":2320,"Ġjalan":2321,"Ġ2024":2322,"ilang":2323,"Ġ2017":2324,"Ġkerajaan":2325,"ĠKed":2326,"ĠDewan":2327,"alis":2328,"agn":2329,"Ġge":2330,"uno":2331,"Ġkuat":2332,"Ġkawasan":2333,"Ġsebesar":2334,"Ġfr":2335,"anian":2336,"aim":2337,"oba":2338,"ĠUntuk":2339,"old":2340,"Ġkematian":2341,"unak":2342,"ĠSe":2343,"uruhan":2344,"Ġmeliputi":2345,"Ġdiperl":2346,"Ġmencakup":2347,"ungkinan":2348,"isiko":2349,"ho":2350,"Ġed":2351,"Ġhujan":2352,"acam":2353,"Ġwanita":2354,"lm":2355,"Ġpat":2356,"ĠPang":2357,"aul":2358,"Ġrep":2359,"Ġmon":2360,"Ġbarat":2361,"ĠSultan":2362,"uri":2363,"ĠTel":2364,"RI":2365,"Ġdirilis":2366,"ĠSebagai":2367,"Ġmisalnya":2368,"ĠPel":2369,"Ġasli":2370,"Ġmusim":2371,"Ġberat":2372,"ĠKon":2373,"Ġtimb":2374,"Ġberf":2375,"ĠIr":2376,"impinan":2377,"Ġ25":2378,"Ġ2016":2379,"ekanan":2380,"Ġtip":2381,"terian":2382,"Ġform":2383,"enda":2384,"ilaku":2385,"lik":2386,"ĠSw":2387,"Ġtangan":2388,"Ġband":2389,"ĠIb":2390,"abatan":2391,"tifikasi":2392,"ĠPl":2393,"ugas":2394,"ĠMenurut":2395,"ĠKerajaan":2396,"tumb":2397,"ira":2398,"ĠTan":2399,"ĠYahudi":2400,"operasi":2401,"untu":2402,"elih":2403,"ĠSch":2404,"Ġ2013":2405,"Ġterkenal":2406,"bi":2407,"enang":2408,"estasi":2409,"Ġibu":2410,"alisis":2411,"urangi":2412,"Ġkebijakan":2413,"ĠBritan":2414,"sek":2415,"Ġpener":2416,"akit":2417,"Ġbangsa":2418,"ame":2419,"iden":2420,"Ġselatan":2421,"Ġkarakter":2422,"tug":2423,"ila":2424,"ĠKal":2425,"ĠKeb":2426,"Ġgambar":2427,"Ġperkembangan":2428,"kannya":2429,"ematika":2430,"enaga":2431,"ĠMeskipun":2432,"Ġ11":2433,"Ġmelihat":2434,"Ġ2019":2435,"Ġditulis":2436,"Ġmengandung":2437,"02":2438,"Ġposisi":2439,"ĠYork":2440,"Ġpember":2441,"Ġhutan":2442,"Ġkeras":2443,"Ġpanas":2444,"ĠBl":2445,"Ġaktif":2446,"ĠNo":2447,"ĠDem":2448,"Ġaliran":2449,"ĠKec":2450,"Ġes":2451,"ĠPemb":2452,"Ġelektron":2453,"08":2454,"{\\":2455,"organ":2456,"ĠHar":2457,"Ġkonf":2458,"aratan":2459,"Ġsup":2460,"Ġmengubah":2461,"ĠRaya":2462,"orong":2463,"ĠMin":2464,"ĠDep":2465,"utuhkan":2466,"Ġlahan":2467,"ĠAir":2468,"ĠPT":2469,"ĠBo":2470,"Ġne":2471,"ĠCl":2472,"Ġasam":2473,"Ġmik":2474,"intang":2475,"Ġpar":2476,"Ġ24":2477,"Ġ2005":2478,"impiade":2479,"AN":2480,"Ġbuah":2481,"Ġbelakang":2482,"Ġperdagangan":2483,"usun":2484,"Ġasal":2485,"04":2486,"Ġlunak":2487,"uluh":2488,"ĠĠĠĠĠĠĠĠĠĠĠĠĠĠĠĠĠ":2489,"Ġbank":2490,"io":2491,"Ġtitik":2492,"ela":2493,"Ġdigital":2494,"anggung":2495,"ikat":2496,"ĠSal":2497,"Ġsepanjang":2498,"Ġsatelit":2499,"sal":2500,"Ġur":2501,"Ġpsik":2502,"Ġbuku":2503,"22":2504,"uhu":2505,"Ġdikembangkan":2506,"ĠComm":2507,"insip":2508,"aksa":2509,"elompok":2510,"Ġ2000":2511,"ĠGunung":2512,"empuan":2513,"Ar":2514,"Ġterg":2515,"umsi":2516,"ĠAnd":2517,"Ġgelar":2518,"Ġet":2519,"Ġ2020":2520,"Ġkekuatan":2521,"Ġ1945":2522,"etahuan":2523,"ministr":2524,"Ġlistrik":2525,"Ġawalnya":2526,"Ġgerakan":2527,"tumbuhan":2528,"ĠBumi":2529,"angani":2530,"Ġbebas":2531,"Ġalbum":2532,"ukungan":2533,"Ġmengembangkan":2534,"ID":2535,"atuh":2536,"Ġsisi":2537,"Ġmengatakan":2538,"ech":2539,"ows":2540,"Ġkm":2541,"ĠPas":2542,"uksi":2543,"egi":2544,"Ġkegi":2545,"Ġkegiatan":2546,"empuran":2547,"Ġgrup":2548,"atin":2549,"Ġbis":2550,"Ġperan":2551,"Ġmelawan":2552,"Ġketiga":2553,"Ġutara":2554,"Ġbadan":2555,"Ġlima":2556,"anjutnya":2557,"Ġkemungkinan":2558,"Ġlembaga":2559,"udul":2560,"Ġperistiwa":2561,"Ġmenyediakan":2562,"Ġmenciptakan":2563,"ĠJenderal":2564,"Ġpembangunan":2565,"05":2566,"aum":2567,"vensi":2568,"ĠKarena":2569,"adian":2570,"ĠSam":2571,"Ġunit":2572,"Ġrakyat":2573,"abor":2574,"obatan":2575,"Ġ2015":2576,"undang":2577,"ica":2578,"Ġgaya":2579,"inc":2580,"itasi":2581,"Ġbantu":2582,"Ġterbentuk":2583,"ler":2584,"iss":2585,"ĠSumat":2586,"Ġtertu":2587,"Ġ2021":2588,"Ġobjek":2589,"ĠAngk":2590,"Ġtradisional":2591,"akses":2592,"Ġberubah":2593,"orn":2594,"Ġmew":2595,"ĠMel":2596,"ĠMet":2597,"Ġkeadaan":2598,"Ġmembangun":2599,"ambat":2600,"Ġpertanian":2601,"utuhan":2602,"aksin":2603,"Ġkomunikasi":2604,"Åį":2605,"Ġkeamanan":2606,"juan":2607,"Ġdarah":2608,"Ġstudi":2609,"umumkan":2610,"oft":2611,"pek":2612,"ĠSul":2613,"ĠWil":2614,"Ġstandar":2615,"Al":2616,"Ġrasa":2617,"ĠBritania":2618,"Ġwarga":2619,"ĠSementara":2620,"ĠDPR":2621,"bo":2622,"Ġped":2623,"ona":2624,"ĠPan":2625,"OS":2626,"Indonesia":2627,"ĠCon":2628,"egang":2629,"Ġgas":2630,"Ġmembawa":2631,"tein":2632,"Ġperlu":2633,"Ġberlangsung":2634,"ammad":2635,"kirakan":2636,"una":2637,"03":2638,"ĠTuhan":2639,"otal":2640,"evel":2641,"mer":2642,"ĠPal":2643,"olek":2644,"ĠNomor":2645,"Ġpengaruh":2646,"Ġpulau":2647,"erit":2648,"inal":2649,"eman":2650,"itis":2651,"Ġ2004":2652,"Ġkesel":2653,"gabung":2654,"angkap":2655,"Ġ/":2656,"Ġukuran":2657,"ĠEl":2658,"sy":2659,"Ġtambahan":2660,"elaskan":2661,"ĠLib":2662,"Ġtimur":2663,"06":2664,"lor":2665,"Ġpribadi":2666,"sel":2667,"Ġpopuler":2668,"tic":2669,"andang":2670,"Ġgaris":2671,"enalkan":2672,"Ġ2022":2673,"Ġsi":2674,"ĠLaut":2675,"ajib":2676,"Ġprak":2677,"Ġkode":2678,"oritas":2679,"ĠHindu":2680,"Ġmilik":2681,"ĠMon":2682,"ram":2683,"Ġsy":2684,"org":2685,"versi":2686,"ampilkan":2687,"Ġah":2688,"Ġkulit":2689,"encan":2690,"Ġmateri":2691,"Ġ100":2692,"Ġpesawat":2693,"ultanan":2694,"Ġtersedia":2695,"dalam":2696,"ementerian":2697,"Ġsenyawa":2698,"Ġreaksi":2699,"Ġtengah":2700,"ĠWorld":2701,"09":2702,"iring":2703,"Ġmemperk":2704,"Ġtinggal":2705,"Ġby":2706,"Ġtumbuhan":2707,"Ġ:":2708,"Ġikan":2709,"Ġsik":2710,"engahan":2711,"apun":2712,"ĠBaru":2713,"Ġharga":2714,"ral":2715,"ĠSalah":2716,"agam":2717,"uki":2718,"Ġmengurangi":2719,"alahan":2720,"ĠHe":2721,"Ġdirinya":2722,"Ġberwarna":2723,"alang":2724,"indows":2725,"asia":2726,"ĠMusi":2727,"Ġpeningkatan":2728,"29":2729,"aitan":2730,"ĠAgung":2731,"Ġenergi":2732,"Ġupaya":2733,"alon":2734,"Ġingin":2735,"ajaran":2736,"anjutan":2737,"Ġdisebabkan":2738,"iwa":2739,"Ġkompl":2740,"Ġzaman":2741,"alian":2742,"Ġtugas":2743,"ipsi":2744,"Ġdepan":2745,"ger":2746,"Ġide":2747,"airan":2748,"eku":2749,"Ġaktivitas":2750,"uncak":2751,"Ġang":2752,"her":2753,"Ġkayu":2754,"ĠPut":2755,"ekerjaan":2756,"Ġproyek":2757,"Ġterbuka":2758,"ualitas":2759,"Ġmaj":2760,"eperti":2761,"isaran":2762,"ations":2763,"Ġteknik":2764,"enggara":2765,"argaan":2766,"28":2767,"ics":2768,"luk":2769,"Ġdukungan":2770,"Ġsurat":2771,"unggal":2772,"Ġperilaku":2773,"alaupun":2774,"Ġminyak":2775,"olekul":2776,"ĠSup":2777,"Ġpertumbuhan":2778,"Ġberisi":2779,"ambang":2780,"Ġtumbuh":2781,"ene":2782,"Ġsuku":2783,"ebasan":2784,"aysia":2785,"ĠBandung":2786,"let":2787,"ĠSoc":2788,"Ġjawab":2789,"Ġbarang":2790,"Setelah":2791,"ean":2792,"Ġpublik":2793,"Ġ2018":2794,"uju":2795,"ĠVol":2796,"uddin":2797,"Ġ\\":2798,"ĠPulau":2799,"epatan":2800,"Ġsuhu":2801,"amah":2802,"isata":2803,"ĠOb":2804,"Ġulang":2805,"Ġperempuan":2806,"ĠKetika":2807,"Ġunsur":2808,"Ġmuda":2809,"ikiran":2810,"Ġberper":2811,"erh":2812,"Ġkur":2813,"ĠMo":2814,"Ġmemilih":2815,"andia":2816,"ts":2817,"Ġsaya":2818,"ĠRakyat":2819,"Ġdibentuk":2820,"Ġmeter":2821,"atasi":2822,"ambah":2823,"Ġselalu":2824,"abang":2825,"egah":2826,"Ġlokal":2827,"mal":2828,"ĠBi":2829,"ĠRob":2830,"ww":2831,"akil":2832,"ĠMaj":2833,"uncurkan":2834,"Â°":2835,"Ġpad":2836,"Ġmenarik":2837,"Ġperh":2838,"ĠTekn":2839,"Ġneg":2840,"Ġmenjabat":2841,"Ġmus":2842,"edakan":2843,"Ġfaktor":2844,"ĠOlimpiade":2845,"esir":2846,"stan":2847,"Ġdihasilkan":2848,"Ġacara":2849,"ius":2850,"Ġpresiden":2851,"Ġtokoh":2852,"ĠUmum":2853,"26":2854,"aring":2855,"Ġmengirim":2856,"Ġmengikuti":2857,"Ġpengg":2858,"Ġdibangun":2859,"su":2860,"Ġko":2861,"sir":2862,"Ġlanjut":2863,"ĠBesar":2864,"ĠKorea":2865,"identifikasi":2866,"Ġahli":2867,"ĠCar":2868,"otensi":2869,"Ġins":2870,"awesi":2871,"pe":2872,"âĢĻ":2873,"uali":2874,"yo":2875,"ariasi":2876,"iman":2877,"Ġpenulis":2878,"Ġkebutuhan":2879,"enuhi":2880,"01":2881,"Ġmerah":2882,"Ġdaun":2883,"Ġbantuan":2884,"07":2885,"enti":2886,"ĠSa":2887,"Ġpemimpin":2888,"196":2889,"tual":2890,"teroid":2891,"197":2892,"ondon":2893,"Ġtepat":2894,"Ġbl":2895,"ĠSungai":2896,"unga":2897,"anyakan":2898,"isk":2899,"ĠSaat":2900,"ĠMuh":2901,"ology":2902,"sat":2903,"ĠTe":2904,"Ġseni":2905,"landia":2906,"ly":2907,"Ġbiaya":2908,"ĠMak":2909,"etus":2910,"enj":2911,"Ġpohon":2912,"utr":2913,"ĠKristen":2914,"Ġbatu":2915,"rok":2916,"Ġrisiko":2917,"Ġwarna":2918,"...":2919,"rid":2920,"arakan":2921,"Ġtentara":2922,"ĠCen":2923,"Ġbenar":2924,"ĠPara":2925,"Ġlahir":2926,"Ġjalur":2927,"Ġberbentuk":2928,"Ġmur":2929,"Ġtua":2930,"Ġmenuju":2931,"ĠGu":2932,"Ġprof":2933,"ombang":2934,"Ġperbedaan":2935,"line":2936,"tok":2937,"enz":2938,"Ġpajak":2939,"ahankan":2940,"ĠOrgan":2941,"aporkan":2942,"onen":2943,"ĠComp":2944,"gunaan":2945,"Ġdinam":2946,"Ġbergerak":2947,"ahatan":2948,"ĠDir":2949,"Ġsig":2950,"Ġgunung":2951,"Ġdipimpin":2952,"ĠĠĠĠĠĠĠĠĠĠĠĠĠĠĠĠĠĠĠ":2953,"ĠâĪĴ":2954,"Pemb":2955,"TP":2956,"ward":2957,"yan":2958,"Ġdom":2959,"Ġtotal":2960,"ĠKan":2961,"ĠBar":2962,"Ġmendirikan":2963,"ĠKap":2964,"imer":2965,"Ġkini":2966,"ĠAceh":2967,"Ġlokasi":2968,"ĠSing":2969,"ĠBahasa":2970,"ĠHist":2971,"Ġmelibatkan":2972,"Ġmemperoleh":2973,"ĠInstitu":2974,"Catatan":2975,"sol":2976,"ĠPor":2977,"ĠMed":2978,"Ġberbasis":2979,"Ġdiperlukan":2980,"Ġalami":2981,"Ġbumi":2982,"ĠSet":2983,"port":2984,"Ġpak":2985,"Ġsaham":2986,"urunan":2987,"sh":2988,"Ġoksi":2989,"Ġmirip":2990,"ĠPet":2991,"Ġpopulasi":2992,"Situs":2993,"ulus":2994,"Ġpengetahuan":2995,"ejala":2996,"unda":2997,"tahankan":2998,"sis":2999,"apura":3000,"ĠKetua":3001,"udukan":3002,"Ġtekanan":3003,"Ġantaranya":3004,"Ġradio":3005,"Ġposi":3006,"St":3007,"asiun":3008,"ekaisaran":3009,"ĠInternasional":3010,"Ġditerbit":3011,"Ġdo":3012,"Ġatom":3013,"ĠMalaysia":3014,"aus":3015,"ĠMat":3016,"okrat":3017,"ear":3018,"ãĥ":3019,"Ġsakit":3020,"ĠMesir":3021,"ainya":3022,"antor":3023,"Ġbisnis":3024,"Ġid":3025,"ĠMa":3026,"ĠData":3027,"Ġterlibat":3028,"aksanakan":3029,"Ġmemberi":3030,"ĠPemerintah":3031,"abila":3032,"afat":3033,"Ġ1980":3034,"ĠPangeran":3035,"ĠSulawesi":3036,"ke":3037,"Ġcerita":3038,"Ġarah":3039,"ĠHukum":3040,"Ġmencari":3041,"agaman":3042,"Ġditerbitkan":3043,"awanan":3044,"egun":3045,"entitas":3046,"NI":3047,"der":3048,"yc":3049,"Ġdag":3050,"ĠBadan":3051,"Ġmatematika":3052,"tis":3053,"Ġbangunan":3054,"Ġ22":3055,"Ġpenuh":3056,"Ġpenerb":3057,"ĠLondon":3058,"ĠFr":3059,"Ġmenggambarkan":3060,"Ġep":3061,"Ġusaha":3062,"akul":3063,"epas":3064,"Ġ1990":3065,"ĠHindia":3066,"PD":3067,"Ġart":3068,"Ġsebanyak":3069,"lanet":3070,"Ġkamera":3071,"Ġmenolak":3072,"ĠCr":3073,"Ġ2023":3074,"ber":3075,"ĠBur":3076,"egitu":3077,"ES":3078,"jo":3079,"ale":3080,"ekaan":3081,"Ġbergabung":3082,"Ġmenjalan":3083,"Pr":3084,"oro":3085,"Ġjabatan":3086,"erangan":3087,"edy":3088,"asilitas":3089,"ink":3090,"Ġkew":3091,"ĠMod":3092,"Ġmenghad":3093,"ĠJika":3094,"Ġglobal":3095,"ujuk":3096,"ĠPers":3097,"Ġkhususnya":3098,"entasi":3099,"nif":3100,"atkan":3101,"Ġpemro":3102,"Ġkarbon":3103,"enarnya":3104,"wakilan":3105,"Kar":3106,"Ġam":3107,"Ġimp":3108,"atis":3109,"Ġmenentukan":3110,"ĠKementerian":3111,"izin":3112,"faatkan":3113,"Ġtipe":3114,"Ġpantai":3115,"ĠFilm":3116,"ight":3117,"ju":3118,"uskan":3119,"Ġvaksin":3120,"eliti":3121,"TA":3122,"rap":3123,"itam":3124,"Ġ23":3125,"ajukan":3126,"Ġilmiah":3127,"ĠAbd":3128,"ĠAngkatan":3129,"27":3130,"ĠPap":3131,"Ġprotein":3132,"eliharaan":3133,"Ġul":3134,"esaikan":3135,"Ġterh":3136,"Ġdiberi":3137,"Ġgug":3138,"Ġmencegah":3139,"ph":3140,"rata":3141,"anjutkan":3142,"Ġdaftar":3143,"inet":3144,"oni":3145,"Ġfoto":3146,"ĠĠĠĠĠĠĠĠĠĠĠĠĠĠĠĠĠĠĠĠĠĠĊ":3147,"Ġdisel":3148,"Ġputih":3149,"Ġsuk":3150,"Ġkaum":3151,"ĠMe":3152,"ĠKat":3153,"okok":3154,"Ġder":3155,"Ġbal":3156,"andingan":3157,"asiswa":3158,"Ġusia":3159,"arta":3160,"emi":3161,"omun":3162,"Ġjarak":3163,"ĠLatin":3164,"Ġapi":3165,"Ġdel":3166,"Ġsa":3167,"ĠDari":3168,"Ġjelas":3169,"andat":3170,"ĠPerd":3171,"erdekaan":3172,"Ġmolekul":3173,"Ġpl":3174,"Ġtunggal":3175,"ilip":3176,"ayar":3177,"ĠGro":3178,"ampilan":3179,"ayaan":3180,"Ġrock":3181,"do":3182,"lasi":3183,"ora":3184,"kar":3185,"Ġmekan":3186,"Ġbukti":3187,"Ġpembentukan":3188,"ous":3189,"Ġfitur":3190,"IS":3191,"ajemen":3192,"ĠRomawi":3193,"Ġburung":3194,"PP":3195,"ĠCS":3196,"ubern":3197,"entingan":3198,"artemen":3199,"Ġterlihat":3200,"Ġayah":3201,"ĠPar":3202,"Ġpekerjaan":3203,"inf":3204,"inj":3205,"Ġtampak":3206,"ĠSol":3207,"Ġterbatas":3208,"ono":3209,"ĠPak":3210,"urus":3211,"arto":3212,"Ġpola":3213,");":3214,"janjian":3215,"Ġrata":3216,"oks":3217,"uw":3218,"zim":3219,"oran":3220,"oral":3221,"aria":3222,"ĠUU":3223,"osa":3224,"eum":3225,"aranya":3226,"Ġbola":3227,"jau":3228,"Ġpenyel":3229,"Ġbatas":3230,"ings":3231,"ĠSecara":3232,"Ġdisi":3233,"adai":3234,"Ġmemulai":3235,"Ġjangka":3236,"Ġcm":3237,"ambahkan":3238,"indah":3239,"umpulan":3240,"link":3241,"Ġsignif":3242,"AM":3243,"elola":3244,"abuhan":3245,"ustaka":3246,"utuskan":3247,"Ġdatang":3248,"ekar":3249,"Ġmeman":3250,"Ġmengeluarkan":3251,"awarkan":3252,"alanan":3253,"itab":3254,"Undang":3255,"Ġben":3256,"ames":3257,"unge":3258,"Ġ26":3259,"ĠWindows":3260,"ĠUS":3261,"anjung":3262,"ĠMuhammad":3263,"ubernur":3264,"ĠKenn":3265,"Ġstrateg":3266,"ahari":3267,"Ġbagai":3268,"utasi":3269,"rogen":3270,"aksanaan":3271,"Ġkeseluruhan":3272,"Ġangin":3273,"ĠPi":3274,"ĠEur":3275,"Ġvol":3276,"Ġtahap":3277,"akah":3278,"Ġken":3279,"Ġmenurun":3280,"Ġtern":3281,"Ġ28":3282,"Ġmiliar":3283,"Ġberikutnya":3284,"Ġlapisan":3285,"Ġrelatif":3286,"Ġlogam":3287,"Ġsignifikan":3288,"pro":3289,"alih":3290,"ĠSan":3291,"Ġperp":3292,"ourn":3293,"yataan":3294,"ipta":3295,"rael":3296,"enangkan":3297,"ĠDav":3298,"Ġberlaku":3299,"ĠKemudian":3300,"Ġkompleks":3301,"Ġhad":3302,"gus":3303,"ĠKong":3304,"utup":3305,"Ġberpend":3306,"Ġinfeksi":3307,"Ġberfungsi":3308,"ayanan":3309,"Ġkeputusan":3310,"Ġalasan":3311,"Ġkomunitas":3312,"ontrol":3313,"ba":3314,"Ġth":3315,"Ġkand":3316,"Ġcamp":3317,"Ġpertengahan":3318,"Ġ2003":3319,"Ġorganisme":3320,"Ġpositif":3321,"IA":3322,"rah":3323,"tp":3324,"ultur":3325,"Ġmeminta":3326,"Ġmenggantikan":3327,"Ġjiwa":3328,"ĠContoh":3329,"indungi":3330,"elajari":3331,"usak":3332,"ĠIm":3333,"Ġ27":3334,"ĠRo":3335,"ican":3336,"ĠPendidikan":3337,"iew":3338,"kh":3339,"Ġ21":3340,"erahkan":3341,"ava":3342,"anyol":3343,"Ġtelevisi":3344,"lmu":3345,"Ġtimbal":3346,"ercaya":3347,"Ġbegitu":3348,"osiasi":3349,"Ġakses":3350,"Ġterlalu":3351,"Ġstatus":3352,"Ġtertinggi":3353,"me":3354,"Ġsebenarnya":3355,"imantan":3356,"Ġdipakai":3357,"ĠGereja":3358,"atal":3359,"iner":3360,"ĠTur":3361,"Ġpemilihan":3362,"aksud":3363,"enom":3364,"Ġdiambil":3365,"ĠSosial":3366,"ajah":3367,"inggu":3368,"ulauan":3369,"ĠSed":3370,"esu":3371,"uth":3372,"Ġmenjelaskan":3373,"Ġefektif":3374,"ku":3375,"Ġmisi":3376,"ato":3377,"aktif":3378,"acaan":3379,"ĠEr":3380,"uji":3381,"imbol":3382,"Ġkejahatan":3383,"Ġdana":3384,"ume":3385,"taf":3386,"Ġkepentingan":3387,"ekuensi":3388,"ford":3389,"asinya":3390,"Ġtulang":3391,"Ġbir":3392,"arier":3393,"arikan":3394,"okrasi":3395,"Ġbertahan":3396,"erhana":3397,"tasi":3398,"iksi":3399,"itkan":3400,"ĠLa":3401,"ujian":3402,"Ġmemperl":3403,"Ġdimana":3404,"dus":3405,"ies":3406,"Ġsulit":3407,"emu":3408,"ĠStudi":3409,"Ġmenimb":3410,"Ġberakhir":3411,"Ġkepem":3412,"ĠPeny":3413,"Ġdesa":3414,"Ġgenetik":3415,"ĠKecamatan":3416,"PT":3417,"ĠSci":3418,"omet":3419,"Ġmengatur":3420,"ĠDiakses":3421,"ĠUndang":3422,"ĠEng":3423,"Ġsesuatu":3424,"ki":3425,"rush":3426,"Ġment":3427,"Ġmenik":3428,"ĠBanyak":3429,"Ġmengumumkan":3430,"antara":3431,"ental":3432,"PA":3433,"Ġleg":3434,"Ġmemenuhi":3435,"omo":3436,"ogle":3437,"alif":3438,"stilah":3439,"turunan":3440,"Ġstabil":3441,"ĠÎ":3442,"Ġmati":3443,"Ġtenaga":3444,"ĠAda":3445,"oman":3446,"Ġnomor":3447,"ĠCor":3448,"Ġselanjutnya":3449,"Ġberkaitan":3450,"ĠKomun":3451,"akultas":3452,"ool":3453,"Ġata":3454,"alin":3455,"akaan":3456,"ley":3457,"Ġsekaligus":3458,"Ġtanda":3459,"ĠTok":3460,"edung":3461,"empatkan":3462,"ifikasi":3463,"Ġemas":3464,"sen":3465,"Ã¡":3466,"Ġmobil":3467,"asaan":3468,"Ġbertu":3469,"Ġjatuh":3470,"Ġnan":3471,"ĠWar":3472,"chev":3473,"ue":3474,"ĠTinggi":3475,"Ġdesain":3476,"ĠKet":3477,"unci":3478,"ko":3479,"irkan":3480,"ampung":3481,"angkah":3482,"ĠâĢĶ":3483,"Ġpasien":3484,"Ġdistr":3485,"rosoft":3486,"45":3487,"core":3488,"lar":3489,"nam":3490,"Ġ$":3491,"Ġmit":3492,"ahulu":3493,"ĠDis":3494,"Ġref":3495,"ĠIsrael":3496,"Ġkorban":3497,"Ġlar":3498,"Ġserupa":3499,"timb":3500,"ĠDaerah":3501,"ox":3502,"asaran":3503,"Ġkend":3504,"uruan":3505,"antik":3506,"Ġsederhana":3507,"Ġdiperk":3508,"ĠKennedy":3509,"rushchev":3510,"uma":3511,"Ġsamping":3512,"Ġpesan":3513,"gabungkan":3514,"egunungan":3515,"Beberapa":3516,"elan":3517,"urangan":3518,"Ġmemutuskan":3519,"row":3520,"ministrasi":3521,"Ġmassa":3522,"Ġmempertahankan":3523,"orium":3524,"ty":3525,"Ġnorm":3526,"Ġoper":3527,"ĠSpanyol":3528,"ektorat":3529,"hal":3530,"raga":3531,"ering":3532,"sist":3533,"Ġmenampilkan":3534,"Ġmembutuhkan":3535,"ĠMarx":3536,"ĠBe":3537,"Ġkonsumen":3538,"okan":3539,"ĠTrans":3540,"ayang":3541,"ĠSang":3542,"andai":3543,"Ġasteroid":3544,"ĠIII":3545,"erlukan":3546,"ropis":3547,"Ġmeninggalkan":3548,"Or":3549,"uz":3550,"Ġdew":3551,"ĠPusat":3552,"Ġprinsip":3553,"Ġplat":3554,"Ġmemerlukan":3555,"Ġkeuangan":3556,"Ġditetapkan":3557,"Ġmm":3558,"Ġbuatan":3559,"Ġberjudul":3560,"ĠPasal":3561,"idik":3562,"ĠWilayah":3563,"Ġdiperkirakan":3564,"Ġ50":3565,"Ġsaluran":3566,"kota":3567,"ahami":3568,"tup":3569,"onis":3570,"abit":3571,"Ġekstr":3572,"Ġputra":3573,"Ġgelombang":3574,"aisar":3575,"Ġfils":3576,"efinisikan":3577,"ĠKalimantan":3578,"AT":3579,"apatan":3580,"ĠDan":3581,"Ġataupun":3582,"olar":3583,"Ġrib":3584,"Ġkomponen":3585,"Ġteks":3586,"oli":3587,"abi":3588,"alahkan":3589,"Ġsus":3590,"own":3591,"ance":3592,"Ġenam":3593,"Ġpraktik":3594,"iw":3595,"Ġer":3596,"astra":3597,"Ġmenyerang":3598,"Pend":3599,"kadang":3600,"Ġsar":3601,"Ġteg":3602,"igh":3603,"rib":3604,"ino":3605,"Ġlem":3606,"uler":3607,"Ġperc":3608,"Ġperjalanan":3609,"uny":3610,"ĠSc":3611,"ĠMad":3612,"ulat":3613,"Ġpelangg":3614,"ood":3615,"ĠAy":3616,"ular":3617,"ternatif":3618,"liam":3619,"ĠUnit":3620,"Ġmenimbulkan":3621,"Ġsaling":3622,"usul":3623,"Ġhip":3624,"Ġch":3625,"ipil":3626,"gn":3627,"Ġla":3628,"Ġsebelah":3629,"Ġvan":3630,"Ġkeduanya":3631,"aden":3632,"truktur":3633,"ĠGen":3634,"Ġfasilitas":3635,"ambut":3636,"ĠOn":3637,"Ġpembuatan":3638,"uasai":3639,"TM":3640,"Ġevolusi":3641,"ankan":3642,"Ġmerujuk":3643,"anjar":3644,"indak":3645,"Ġkhas":3646,"ukul":3647,"Ġhati":3648,"okasi":3649,"Ġfrom":3650,"igi":3651,"Ġberjalan":3652,"BB":3653,"Ch":3654,"ated":3655,"Ġinstr":3656,"ĠTenggara":3657,"Ġpenguasa":3658,"indungan":3659,"Ġdimiliki":3660,"ĠKhrushchev":3661,"Ġgagal":3662,"solini":3663,"ania":3664,"Ġbay":3665,"ĠSim":3666,"ĠSub":3667,"otik":3668,"Ġkerus":3669,"Ġpersen":3670,"arno":3671,"Ġkuno":3672,"ebaran":3673,"ĠSi":3674,"ĠKomp":3675,"ĠFran":3676,"ĠHistory":3677,"Ġdampak":3678,"Ġpej":3679,"itif":3680,"ukur":3681,"unjukan":3682,"Ad":3683,"ound":3684,"Ġsitu":3685,"intah":3686,"ĠPolandia":3687,"Ġdokumen":3688,"Ġmikro":3689,"echn":3690,"ins":3691,"Ġkualitas":3692,"ekat":3693,"abu":3694,"Ġ2001":3695,"Ġketidak":3696,"ĠDesa":3697,"Ġgereja":3698,"Ġmembuka":3699,"ĠProf":3700,"Ġditerima":3701,"akaran":3702,"Ġdiadakan":3703,"ĠKekaisaran":3704,"Ġcabang":3705,"ower":3706,"Ġberpendapat":3707,"ercayaan":3708,"ket":3709,"Ġtop":3710,"Ġketurunan":3711,"enteng":3712,"jadikan":3713,"ĠPemeliharaan":3714,"arget":3715,"Ġberperan":3716,"adinya":3717,"Ġpria":3718,"Ġorbit":3719,"erdapat":3720,"ekaragaman":3721,"Ġbagaimana":3722,"uara":3723,"Ġbakar":3724,"sil":3725,"iksa":3726,"ĠSistem":3727,"Ġlaki":3728,"Ġketu":3729,"ĠWakil":3730,"Ġ1999":3731,"Ġresp":3732,"ategori":3733,"ange":3734,"unuhan":3735,"tum":3736,"olik":3737,"olongan":3738,"umur":3739,"epend":3740,"Ġ29":3741,"Ġcahaya":3742,"Ġasing":3743,"eski":3744,"erdasarkan":3745,"Ġmengakibatkan":3746,"Ġmalam":3747,"Ġdijadikan":3748,"ĠRp":3749,"ĠFor":3750,"iba":3751,"Ġstasiun":3752,"ĠSebuah":3753,"Ġkalangan":3754,"mat":3755,"Ġdiam":3756,"ĠPat":3757,"Ġberusaha":3758,"udut":3759,"Ġ2002":3760,"Ġarea":3761,"Ġ1960":3762,"ĠMuslim":3763,"48":3764,"ĠProvinsi":3765,"enggarakan":3766,"Ġarus":3767,"udayaan":3768,"untungan":3769,"Ġpandangan":3770,"Ġpekerja":3771,"elar":3772,"Ġcender":3773,"Ġmendorong":3774,"Ġkebebasan":3775,"Ġdingin":3776,"oner":3777,"aji":3778,"graman":3779,"ĠYang":3780,"Ġberhubungan":3781,"Untuk":3782,"Ġujung":3783,"Ġtercatat":3784,"iel":3785,"enangan":3786,"Ġpuncak":3787,"oma":3788,"acu":3789,"Ġbergantung":3790,"Ġtemp":3791,"Ġmenawarkan":3792,"epak":3793,"iro":3794,"ĠDar":3795,"Ġmenganggap":3796,"abrik":3797,"ĠRI":3798,"acara":3799,"Ġkereta":3800,"eskr":3801,"ye":3802,"ĠPasi":3803,"Ġselain":3804,"Ġdikirim":3805,"Ġseks":3806,"Ġperhatian":3807,"laki":3808,"Ġtab":3809,"Ġmerasa":3810,"Ġ1970":3811,"Ġcenderung":3812,"PI":3813,"iyah":3814,"ĠÃ":3815,"entikan":3816,"udra":3817,"Ġgenre":3818,"Ġnegatif":3819,"ournal":3820,"//":3821,"60":3822,"ail":3823,"erk":3824,"Ġkadang":3825,"itung":3826,"ominasi":3827,"ĠTidak":3828,"ubungkan":3829,"angkaian":3830,"ĠAllah":3831,"Ġsemb":3832,"elis":3833,"engar":3834,"ĠSk":3835,"azi":3836,"ĠGoogle":3837,"ĠMicrosoft":3838,"Ġtulis":3839,"Ġhilang":3840,"Ġuni":3841,"Ġkonflik":3842,"seperti":3843,"tle":3844,"ann":3845,"Ġtemb":3846,"ĠPark":3847,"ĠKo":3848,"Ġgitar":3849,"Ġdiny":3850,"Ġistr":3851,"Ġsana":3852,"Ġlemb":3853,"Ġdiproduksi":3854,"ĠRobert":3855,"\")":3856,"40":3857,"://":3858,"Ak":3859,"ĠBh":3860,"ĠBat":3861,"Ġinti":3862,"guna":3863,"Ġmenyer":3864,"ĠSelama":3865,"ux":3866,"ikal":3867,"aih":3868,"istan":3869,"ĠYog":3870,"intaan":3871,"Ġbunga":3872,"Ġdiikuti":3873,"abaya":3874,"osfer":3875,"intesis":3876,"Ġ1998":3877,"Sek":3878,"Ġdif":3879,"ĠBanjar":3880,"ĠCir":3881,"inggian":3882,"umpulkan":3883,"Ġpemberont":3884,"satunya":3885,"Sp":3886,"ka":3887,"Äģ":3888,"ektif":3889,"Ġprop":3890,"yakarta":3891,"Ġdibagi":3892,"Ġ40":3893,"Ġsis":3894,"anto":3895,"opsi":3896,"indari":3897,"ujud":3898,"ĠProgram":3899,"Ġmenjaga":3900,"AR":3901,"Ġdiak":3902,"ĠSm":3903,"ĠJos":3904,"Ġgejala":3905,"truksi":3906,"ajian":3907,"Ġapabila":3908,"ĠMussolini":3909,"Ġkeberadaan":3910,"ĠKedua":3911,"Ġend":3912,"ĠTV":3913,"ubung":3914,"gota":3915,"Ġera":3916,"atorium":3917,"Ġsur":3918,"uning":3919,"Ġku":3920,"ĠCol":3921,"etuj":3922,"tokol":3923,"CO":3924,"Dir":3925,"ein":3926,"ero":3927,"atihan":3928,"Ġpartikel":3929,"Ġsimbol":3930,"onia":3931,"lex":3932,"Ġkecepatan":3933,"Ġsegera":3934,"Selain":3935,"askah":3936,"la":3937,"aha":3938,"Ġkunci":3939,"Ġorganik":3940,"engkap":3941,"ĠSystem":3942,"47":3943,"59":3944,"fek":3945,"iat":3946,"les":3947,"Ġhitam":3948,"Ġalternatif":3949,"Ġberdiri":3950,"ĠOleh":3951,"Menurut":3952,"ĠPortug":3953,"lus":3954,"nu":3955,"Ã¼":3956,"Ġus":3957,"erj":3958,"sion":3959,"ĠPKI":3960,"Ġreg":3961,"Ġwith":3962,"Ġuji":3963,"ĠPapua":3964,"peng":3965,"sor":3966,"Ġpal":3967,"akl":3968,"ise":3969,"ĠPD":3970,"eph":3971,"irasi":3972,"ĠNama":3973,"Ġadat":3974,"Ġmenyimp":3975,"ĠPerjanjian":3976,"Ġaspek":3977,"Ġelektronik":3978,"Ġangka":3979,"Ġplanet":3980,"ahl":3981,"ile":3982,"ĠMisalnya":3983,"ukit":3984,"uhkan":3985,"ĠHol":3986,"ĠInt":3987,"Ġpengobatan":3988,"erintahan":3989,"ersial":3990,"Ġinvestasi":3991,"Ġangkasa":3992,"ĠOrganisasi":3993,"andatangani":3994,"isahkan":3995,"ĠKam":3996,"irian":3997,"ĠCO":3998,"ujuh":3999,"ife":4000,"Ġterpilih":4001,"Ġelemen":4002,"fa":4003,"ĠSejak":4004,"epon":4005,"Ġmengkl":4006,"icara":4007,"Ġkehilangan":4008,"rancang":4009,"Ġmakna":4010,"ĠKanada":4011,"Ġkos":4012,"Ġdirancang":4013,"ĠSri":4014,"ĠMeng":4015,"ĠKel":4016,"ĠNus":4017,"ayakan":4018,"ikasikan":4019,"ker":4020,"Ġditentukan":4021,"Ġkebanyakan":4022,"lasik":4023,"ĠCenter":4024,"abitat":4025,"etujui":4026,"Ġ_{":4027,"Ġmotor":4028,"ĠIlmu":4029,"ĠDin":4030,"ugh":4031,"Ġhard":4032,"Ġzat":4033,"Ġotak":4034,"Ġpemrograman":4035,"OC":4036,"top":4037,"Ġdiubah":4038,"entrasi":4039,"ĠYogyakarta":4040,"cal":4041,"asta":4042,"onf":4043,"Ġpercaya":4044,"Ġrencana":4045,"Ġnaik":4046,"anye":4047,"ĠSedangkan":4048,"PS":4049,"ĠPur":4050,"ĠBali":4051,"edit":4052,"awar":4053,"atikan":4054,"Ġmembunuh":4055,"Ġdilihat":4056,"Ġvari":4057,"Ġpenyebab":4058,"Ġbelajar":4059,"Ġiklan":4060,"angi":4061,"ĠPaul":4062,"ĠNational":4063,"okter":4064,"Ġpermintaan":4065,"sch":4066,"inter":4067,"akuan":4068,"Ġbatang":4069,"Ġmenemp":4070,"Ġ(\"":4071,"Ġny":4072,"oko":4073,"Ġ1950":4074,"Ġapakah":4075,"Ġkabar":4076,"Ġtergantung":4077,"ten":4078,"zi":4079,"anekaragaman":4080,"Ġmantan":4081,"ĠFir":4082,"Ġpasangan":4083,"Ġmatahari":4084,"Ġmenghadapi":4085,"38":4086,"hari":4087,"kamah":4088,"erus":4089,"Ġtiba":4090,"ony":4091,"iling":4092,"ĠSer":4093,"ute":4094,"ullah":4095,"egr":4096,"ĠGre":4097,"Ġfot":4098,"Ġpengel":4099,"Bahasa":4100,"adah":4101,"Ġmemainkan":4102,"Ġketinggian":4103,"unjuk":4104,"ĠSurabaya":4105,"Ġdrum":4106,"CA":4107,"lav":4108,"Ġsw":4109,"Ġanalisis":4110,"37":4111,"berg":4112,"dan":4113,"hak":4114,"Ġsudut":4115,"ĠKej":4116,"gaw":4117,"Ġprodus":4118,"Ġkemerdekaan":4119,"Ġsegala":4120,"Ġmenyelesaikan":4121,"ilu":4122,"Ġmenetapkan":4123,"Ġperal":4124,"Ġprovinsi":4125,"ĠInternet":4126,"Ġbertujuan":4127,"MA":4128,"lop":4129,"Ġpotensi":4130,"Ġtropis":4131,"orge":4132,"ĠAh":4133,"Ġkil":4134,"ĠMil":4135,"inginkan":4136,"ive":4137,"ĠEkonomi":4138,"ĠSumatera":4139,"ridge":4140,"Ġidentitas":4141,"Ã¶":4142,"Ġdarat":4143,"Ġfokus":4144,"lien":4145,"ancasil":4146,"arisan":4147,"ĠSekolah":4148,"bur":4149,"Ġmenengah":4150,"ĠUs":4151,"Ġsepenuh":4152,"erikut":4153,"Ġburuk":4154,"Ġdigantikan":4155,"ilasi":4156,"ĠBal":4157,"Ġkomersial":4158,"hael":4159,"ĠWilliam":4160,"ĠGroup":4161,"wal":4162,"ãĤ":4163,"ĠSat":4164,"ĠPubl":4165,"Ġmenekan":4166,"eteksi":4167,"ĠBagian":4168,"ĠNe":4169,"ĠNazi":4170,"Ġseri":4171,"ĠSingapura":4172,"Ġsituasi":4173,"Sem":4174,"tes":4175,"Ġpilihan":4176,"oris":4177,"ime":4178,"ĠUd":4179,"Ġvir":4180,"Ġkepercayaan":4181,"frac":4182,"ĠKepala":4183,"Ġkendaraan":4184,"rit":4185,"Ġkub":4186,"Ġmengetahui":4187,"Ġundang":4188,"Ġmelanjutkan":4189,"IN":4190,"Ġsh":4191,"ĠSin":4192,"ukai":4193,"ebihan":4194,"intas":4195,"Ġmemproduksi":4196,"Ġmempelajari":4197,"Ġkontrol":4198,"right":4199,"Ġhadir":4200,"Ġkerusakan":4201,"Ġdiangkat":4202,"onial":4203,"inding":4204,"gabungan":4205,"Ġdokter":4206,"ĠSuper":4207,"Ġtep":4208,"Ġmerilis":4209,"Ġkecuali":4210,"artisip":4211,"Ġialah":4212,"Ang":4213,"Ġgagasan":4214,"Ġmenjalankan":4215,"ll":4216,"orit":4217,"Ġrantai":4218,"Ġcatatan":4219,"ĠFin":4220,"embangunan":4221,"Ġterpisah":4222,"ĠSoek":4223,"ancasila":4224,"Ġsepenuhnya":4225,"Kep":4226,"yal":4227,"Ġsempat":4228,"Ġmenteri":4229,"upati":4230,"ĠPerm":4231,"ĠPeraturan":4232,"Ġbertanggung":4233,"Ġbersamaan":4234,"Ġformat":4235,"57":4236,"99":4237,"ET":4238,"ĠBers":4239,"ometer":4240,"Ġrum":4241,"ĠJournal":4242,"istal":4243,"Ġinternet":4244,"ĠKesultanan":4245,"retaris":4246,"ĠDavid":4247,"Ġikut":4248,"Ġpabrik":4249,"Ġsang":4250,"Ġsil":4251,"ebon":4252,"Ġpergi":4253,"Ġpengalaman":4254,"itual":4255,"Ġmencoba":4256,"Ġ1997":4257,"versitas":4258,"Ġmahasiswa":4259,"Ġdewasa":4260,"As":4261,"Ek":4262,"Ġsemp":4263,"aknya":4264,"amil":4265,"ĠSuk":4266,"Ġjasa":4267,"Ġjarang":4268,"Ġcalon":4269,"icu":4270,"alau":4271,"Ġspesifik":4272,"engkapi":4273,"eskripsi":4274,"eria":4275,"itor":4276,"ĠTaman":4277,"Ġmelindungi":4278,"Ġpendapatan":4279,"Ġkeker":4280,"Ġmekanisme":4281,"enakan":4282,"Ġturun":4283,"ilangkan":4284,"ington":4285,"Ġjari":4286,"ĠInv":4287,"Ġpertempuran":4288,"Ġneut":4289,"asasti":4290,"utar":4291,"Ġmemenangkan":4292,"angkit":4293,"Ġaksi":4294,"ĠAmerican":4295,"Ġmenikah":4296,"jana":4297,"Ġkategori":4298,"empatan":4299,"Ġdiperoleh":4300,"Ġ1996":4301,"Ġdidasarkan":4302,"Ġpendekatan":4303,"etusan":4304,"Bacaan":4305,"Ġtahanan":4306,"Ġbus":4307,"ĠSitus":4308,"idaknya":4309,"ograp":4310,"Ġmenyebar":4311,"Ġpelunc":4312,"iety":4313,"Ġlayar":4314,"56":4315,"ook":4316,"anti":4317,"Ġsipil":4318,"Ġkantor":4319,"etw":4320,"Ġmenggabungkan":4321,"abah":4322,"ĠKesehatan":4323,"ÃŃ":4324,"ekas":4325,"ĠĠĠĠĠĠĠĠĠĠĠĠĠĠĠĠĠĠĠĠĠĠĠĠĊ":4326,"ĠAgama":4327,"arlemen":4328,"aliknya":4329,"80":4330,"Man":4331,"uisi":4332,"Ġpustaka":4333,"rof":4334,"imen":4335,"Ġsepak":4336,"ewas":4337,"Ġmewak":4338,"Meng":4339,"anam":4340,"Ġtujuh":4341,"Ġberoperasi":4342,"agan":4343,"Ġkapas":4344,"Ġpesi":4345,"ams":4346,"ĠSunda":4347,"ĠMul":4348,"ĠMaka":4349,"ome":4350,"ĠĠĠĊ":4351,"Ġsehari":4352,"erm":4353,"ando":4354,"odi":4355,"Ġilmuwan":4356,"Ġdaging":4357,"omunikasi":4358,"emahan":4359,"ĠSar":4360,"ĠPe":4361,"agar":4362,"ĠMart":4363,"ĠTechn":4364,"abis":4365,"ĠPerusahaan":4366,"Ġakadem":4367,"Ġefisi":4368,"Ġterjadinya":4369,"Ġplatform":4370,"eal":4371,"Ġumat":4372,"Ġmacam":4373,"ept":4374,"ĠTerb":4375,"Ġmanajemen":4376,"aitkan":4377,"46":4378,"ekt":4379,"olong":4380,"ĠMac":4381,"ĠBerb":4382,"ĠIran":4383,"egal":4384,"ayati":4385,"Ġcur":4386,"ĠFilip":4387,"ution":4388,"Ġperlindungan":4389,"ĠKonstitusi":4390,"Ġmaterial":4391,"gas":4392,"ensa":4393,"ingat":4394,"ĠTa":4395,"ĠHak":4396,"anggu":4397,"Ġmodal":4398,"ĠSebagian":4399,"Ġkonteks":4400,".)":4401,"Kons":4402,"PU":4403,"hluk":4404,"jid":4405,"ria":4406,"saan":4407,"Ġpec":4408,"Ġpimpinan":4409,"Ġtewas":4410,"omas":4411,"Ġwisata":4412,"onton":4413,"Ġprofesi":4414,"36":4415,"SP":4416,"ez":4417,"inginan":4418,"ĠCamb":4419,"Ġaturan":4420,"erbitkan":4421,"ijaya":4422,"encanaan":4423,"ĠUUD":4424,"irk":4425,"Ġmengk":4426,"Ġmengacu":4427,"ĠNor":4428,"indahkan":4429,"grasi":4430,"Ġaset":4431,"ĠProses":4432,"ĠMahkamah":4433,"ĠSumatra":4434,"hargaan":4435,"Ġolah":4436,"Ġperg":4437,"ĠGubernur":4438,"Ġpendukung":4439,"Ġgrunge":4440,"mpan":4441,".;":4442,"Ġbenda":4443,"Ġdiatur":4444,"itra":4445,"ĠKol":4446,"epaskan":4447,"ĠDen":4448,"ĠDip":4449,"Ġnamanya":4450,"ĠGal":4451,"ote":4452,"entuan":4453,"Ġmempengaruhi":4454,"sekarang":4455,"tugas":4456,"Ġcampuran":4457,"cr":4458,"sama":4459,"Ġdiduk":4460,"Ġhist":4461,"Ġpenurunan":4462,"oda":4463,"Ġseles":4464,"Ġdikeluarkan":4465,"Ġakar":4466,"Ġpembunuhan":4467,"Ġpelaksanaan":4468,"aiko":4469,"Ġbertemu":4470,"Ġdepresi":4471,"entral":4472,"Ġdidukung":4473,"bar":4474,"bin":4475,"ĠJalan":4476,"ayan":4477,"ĠEc":4478,"Ġmenjadikan":4479,"angkal":4480,"Ġstres":4481,"Ġkritik":4482,"Ġhijau":4483,"ĠDepartemen":4484,"enomena":4485,"Ġmewakili":4486,"kop":4487,"Ġartikel":4488,"sida":4489,"Ġrah":4490,"ĠEv":4491,"}}}":4492,"39":4493,"Te":4494,"Ġberv":4495,"ĠKek":4496,"ĠDo":4497,"Ġmengadakan":4498,"Ġpengadilan":4499,"Ġdipilih":4500,"Ġterbaik":4501,"Ġdigambarkan":4502,"Ġpenerbangan":4503,"ependen":4504,"go":4505,"Ġmoral":4506,"Ġton":4507,"eharto":4508,"able":4509,"okal":4510,"Ġpeman":4511,"osistem":4512,"Kem":4513,"yd":4514,"Ġtangga":4515,"ĠPo":4516,"Ġlebar":4517,"arawan":4518,"Ġkeg":4519,"anker":4520,"Ġbermain":4521,"caman":4522,"tahun":4523,"Ġdahulu":4524,"Ġsul":4525,"Ġkendali":4526,"adopsi":4527,"ĠMc":4528,"Ġmembah":4529,"Ġgenerasi":4530,"Ġmedis":4531,"Ġbaw":4532,"Ġbesi":4533,"adu":4534,"Ġlengkap":4535,"eder":4536,"ayaran":4537,"ambangan":4538,"Ġmenyebutkan":4539,"ĠCambridge":4540,"log":4541,"uel":4542,"Ġdial":4543,"isual":4544,"Ġresi":4545,"Ġguru":4546,"Ġkonstitusi":4547,"ject":4548,"ĠMay":4549,"Ġringan":4550,"ĠRec":4551,"awatan":4552,"aina":4553,"ecara":4554,"ĠAlam":4555,"Ġmenghindari":4556,"31":4557,"IV":4558,"baik":4559,"Ġex":4560,"Ġmagn":4561,"Ġbila":4562,"Ġkre":4563,"Ġhalaman":4564,"ĠWeb":4565,"ujukan":4566,"ancurkan":4567,"Ġ189":4568,"ĠOrang":4569,"portasi":4570,"bil":4571,"Ã³":4572,"Ġkeuntungan":4573,"ensif":4574,"Ġdipengaruhi":4575,"Ġmengakui":4576,"ition":4577,"Ġiklim":4578,"ĠUdara":4579,"tai":4580,"ualan":4581,"Ġminggu":4582,"ĠBen":4583,"35":4584,"OM":4585,"TV":4586,"asang":4587,"esta":4588,"ĠInf":4589,"Ġpertunjukan":4590,"ĠSebelum":4591,"Ġbelas":4592,"Ġlapangan":4593,"Ġmemastikan":4594,"Ġpadat":4595,"ĠEurop":4596,"ĠSoekarno":4597,"seb":4598,"ware":4599,"Ġaman":4600,"Ġberagam":4601,"Ġmengarah":4602,"ewat":4603,"Ġpelabuhan":4604,"ocok":4605,"Peny":4606,"Ġpenghargaan":4607,"ĠTanah":4608,"Ġmemperkenalkan":4609,"Ġbenua":4610,"32":4611,"79":4612,"put":4613,"Ġbilangan":4614,"Ġmenerbitkan":4615,"Ġland":4616,"itz":4617,"ĠMem":4618,"aba":4619,"Ġdiluncurkan":4620,"Ġtelepon":4621,"ĠTeknik":4622,"Ġmemanfaatkan":4623,"Ġbervariasi":4624,"Ġperintah":4625,"Ġpeneliti":4626,"Ġfase":4627,"Ġ1995":4628,"Ġditerapkan":4629,"ĠMass":4630,"ĠKepulauan":4631,"ines":4632,"isode":4633,"Ġdilaporkan":4634,"Ġtersebar":4635,"Ġlaporan":4636,"elajaran":4637,"Ġmengklaim":4638,"ates":4639,"alat":4640,"Ġsah":4641,"Ġberusia":4642,"ĠAv":4643,"araf":4644,"Ġmeraih":4645,"Ġpengujian":4646,"Ġpertemuan":4647,"ĠChris":4648,"hail":4649,"endalikan":4650,"ĠSetiap":4651,"Ġdiperkenalkan":4652,"ĠFilipina":4653,"mar":4654,"yn":4655,"Ø§":4656,"ahap":4657,"eth":4658,"andan":4659,"Ġkeanekaragaman":4660,"ĠWal":4661,"Ġsetengah":4662,"Ġberkel":4663,"anyi":4664,"kraina":4665,"Kom":4666,"Mas":4667,"Ġbet":4668,"estiv":4669,"ingatan":4670,"irik":4671,"amban":4672,"Ġdimaksud":4673,"ĠChr":4674,"hoa":4675,"ĠSociety":4676,"Ġselesai":4677,"ix":4678,"lement":4679,"no":4680,"ĠÐ":4681,"Ġme":4682,"Ġberukuran":4683,"ĠPersia":4684,"onghoa":4685,"Ġtelur":4686,"ewa":4687,"amaian":4688,"ĠPancasila":4689,"Ġmeneg":4690,"istribusi":4691,"Ġmemasuki":4692,"MS":4693,"ser":4694,"Ġbalik":4695,"ago":4696,"ains":4697,"Ġdewa":4698,"ĠInstitute":4699,"ion":4700,"Ġu":4701,"ahter":4702,"ĠPembangunan":4703,"ĠKamp":4704,"Ġmempr":4705,"ehidupan":4706,"egrasi":4707,"ĠCharl":4708,"ĠPemerintahan":4709,"Ġpernyataan":4710,"Ġmakhluk":4711,"Sebagai":4712,"ĠPasifik":4713,"ee":4714,"Ġklasik":4715,"etisi":4716,"Ġberc":4717,"ĠKur":4718,"Ġinduk":4719,"ĠDh":4720,"Ġsetidaknya":4721,"ormasi":4722,"Ġpenyimp":4723,"ĠAss":4724,"Ġpunk":4725,"Ġreal":4726,"Ġdinyatakan":4727,"artisipasi":4728,"Ġolahraga":4729,"sed":4730,"ansi":4731,"arus":4732,"akt":4733,"Ġbud":4734,"Ġkiri":4735,"ester":4736,"olaan":4737,"ito":4738,"Ġrilis":4739,"Ġcair":4740,"Ġmencatat":4741,"ietnam":4742,"idae":4743,"Ġdoi":4744,"Ġseksual":4745,"estival":4746,"IT":4747,"Ġsim":4748,"Ġboleh":4749,"Ġmenambahkan":4750,"Ġlip":4751,"Ġhabitat":4752,"ĠTentara":4753,"abol":4754,"Ġgraf":4755,"ication":4756,"Ġalih":4757,"ovel":4758,"Ġperalatan":4759,"IP":4760,"aram":4761,"Ġlel":4762,"olahan":4763,"Ġrevolusi":4764,"Ġnit":4765,"ĠLaw":4766,"lahir":4767,"Ġ186":4768,"Prof":4769,"}^{":4770,"atih":4771,"Ġpo":4772,"Ġbatuan":4773,"Ġperaturan":4774,"omosi":4775,"ĠRef":4776,"osh":4777,"Ġpertandingan":4778,"Ġpenjualan":4779,"Ġklor":4780,"unyi":4781,"benar":4782,"hiri":4783,"esan":4784,"ogn":4785,"otop":4786,"ture":4787,"rav":4788,"Ġkarakteristik":4789,"izinkan":4790,"Ġstrategi":4791,"49":4792,"86":4793,"Mod":4794,"ling":4795,"lain":4796,"Ġkaya":4797,"urasi":4798,"Ġunik":4799,"Ġrem":4800,"ahana":4801,"Ġdikaitkan":4802,"Ġpertamanya":4803,"Ġmendek":4804,"ĠAntar":4805,"Ġdisebutkan":4806,"Ġskala":4807,"ĠÂ°":4808,"Ġtant":4809,"ure":4810,"Ġperairan":4811,"ĠDj":4812,"imal":4813,"trans":4814,"ĠHat":4815,"isian":4816,"presi":4817,"Ġ60":4818,"ĠMichael":4819,"Ġdistribusi":4820,"Ġpejabat":4821,"rus":4822,"Ġpegunungan":4823,"Ġbag":4824,"Ġkanker":4825,"emahkan":4826,"aparan":4827,"ĠAward":4828,"ĠBangsa":4829,"ĠRed":4830,"ĠEm":4831,"ĠUkraina":4832,"Ġalk":4833,"ĠArch":4834,"Ġ1994":4835,"Ġteknis":4836,"ĠSoeharto":4837,"Ġneutron":4838,"Ġpengan":4839,"iny":4840,"Ġsam":4841,"Ġbes":4842,"Ġlensa":4843,"Ġmemengaruhi":4844,"Ġmemegang":4845,"ĠIstilah":4846,"atic":4847,"ĠUr":4848,"Ġpemikiran":4849,"Ġsemacam":4850,"Ġ1992":4851,"spirasi":4852,"Ġsikap":4853,"75":4854,"Amer":4855,"pem":4856,"Ġajaran":4857,"iaan":4858,"ĠFakultas":4859,"otong":4860,"ĠArt":4861,"Ġeksp":4862,"Ġnormal":4863,"ĠFrank":4864,"RT":4865,"ril":4866,"ermin":4867,"Ġmengal":4868,"aju":4869,"elahiran":4870,"ungkapkan":4871,"ĠAkibat":4872,"gerakan":4873,"Ġmental":4874,"Ġfilsafat":4875,"bel":4876,"bert":4877,"ĠÂ":4878,"ubang":4879,"Ġciri":4880,"Ġmembeli":4881,"Ġarsip":4882,"ella":4883,"Ġputri":4884,"Ġmenerapkan":4885,"ĠTionghoa":4886,"ĠPhil":4887,"ĠMusim":4888,"Ġhardcore":4889,"500":4890,"Dengan":4891,"Ġaut":4892,"Ġtahan":4893,"arif":4894,"ĠMedia":4895,"Ġmemimpin":4896,"Ġflu":4897,"Ġsebagaimana":4898,"endak":4899,"otel":4900,"ĠPerb":4901,"ĠPerwakilan":4902,"Ġberbahaya":4903,"ontal":4904,"eluarga":4905,"Ġfrekuensi":4906,"www":4907,"misalnya":4908,"out":4909,"emuk":4910,"Ġlangkah":4911,"entangan":4912,"ampaikan":4913,"Ġpemilik":4914,"Ġberkas":4915,"sitektur":4916,"unjungi":4917,"etujuan":4918,"arki":4919,"earch":4920,"Ġpesisir":4921,"mosfer":4922,"enjata":4923,"akal":4924,"isang":4925,"ĠIV":4926,"Ġmengumpulkan":4927,"Ġkonsentrasi":4928,"Ġterkadang":4929,"omatis":4930,"aboratorium":4931,"ajiban":4932,"Ġsaudara":4933,"FA":4934,"ras":4935,"Ġdefinisi":4936,"akta":4937,"Ġkak":4938,"onj":4939,"apol":4940,"ĠDua":4941,"ĠLiga":4942,"ĠWh":4943,"ĠWik":4944,"ĠVietnam":4945,"Ġ31":4946,"Ġdekade":4947,"ĠKeputusan":4948,"Ġpetani":4949,"Ġayahnya":4950,"ner":4951,"weg":4952,"Ġmay":4953,"Ġpos":4954,"adari":4955,"Ġancaman":4956,"ĠPenelitian":4957,"Ġrekaman":4958,"Ġhiper":4959,"Ge":4960,"Meskipun":4961,"Ġpid":4962,"ahaman":4963,"its":4964,"ĠColl":4965,"riv":4966,"Ġsektor":4967,"Ġ1991":4968,"Ġ1993":4969,"http":4970,"ĠKomite":4971,"Ġkejadian":4972,"PDF":4973,"Ke":4974,"Keb":4975,"zh":4976,"Ġkuning":4977,"Ġmenguasai":4978,"Ġdikatakan":4979,"ĠVik":4980,"onsumsi":4981,"Ġmenghubungkan":4982,"Ġ1969":4983,"ĠManusia":4984,"Ġmemasukkan":4985,"ĠDemokrat":4986,"ĠUnited":4987,"Kr":4988,"Pel":4989,"Th":4990,"eaksi":4991,"arapkan":4992,"agang":4993,"utaan":4994,"Ġdalamnya":4995,"ayasan":4996,"oci":4997,"ustakaan":4998,"board":4999,"Ġsukses":5000,"44":5001,"55":5002,"Candi":5003,"GKI":5004,"mad":5005,"etakan":5006,"Ġberita":5007,"Ġhib":5008,"adio":5009,"ĠLuar":5010,"ewati":5011,"ediaan":5012,"Ġantariksa":5013,"Ġpaket":5014,"ĠCirebon":5015,"ĠPortugis":5016,"etwork":5017,"SD":5018,"Ġteb":5019,"Ġtersi":5020,"usulkan":5021,"ire":5022,"Ġmengalahkan":5023,"edak":5024,"Ġmelainkan":5025,"Ġmelaksanakan":5026,"yakini":5027,"ĠKomisi":5028,"ĠPertempuran":5029,"Ġkursi":5030,"Ada":5031,"CL":5032,"ahat":5033,"Ġtapi":5034,"Ġklien":5035,"Ġlib":5036,"ĠBek":5037,"ĠTor":5038,"ĠTet":5039,"Ġmelaporkan":5040,"Ġkering":5041,"Ġasasi":5042,"ĠAnda":5043,"ĠGeorge":5044,"ĠTokyo":5045,"Ġseng":5046,"ahu":5047,"Ġjadi":5048,"edisi":5049,"ĠRev":5050,"ĠJames":5051,"Ġwalaupun":5052,"uantum":5053,"asilan":5054,"ejahter":5055,"Ġdemi":5056,"Ġnukle":5057,"Ġmengirimkan":5058,"ĠKatolik":5059,"iwayat":5060,"33":5061,"Bank":5062,"En":5063,"be":5064,"duc":5065,"rec":5066,"uaran":5067,"va":5068,"Ġdaratan":5069,"ild":5070,"ĠSu":5071,"ĠPBB":5072,"ĠMos":5073,"ĠBan":5074,"Ġno":5075,"ĠInter":5076,"acun":5077,"anggal":5078,"angkut":5079,"Ġdibawa":5080,"Ġpertahanan":5081,"unjung":5082,"off":5083,"Ġklub":5084,"Ġsinyal":5085,"Ġkepemimpinan":5086,"Cl":5087,"yub":5088,"erc":5089,"Ġplas":5090,"Ġbekas":5091,"Ġkadar":5092,"amen":5093,"adaran":5094,"isensi":5095,"aptasi":5096,"aid":5097,"Ġperingkat":5098,"Ġmemahami":5099,"ĠTro":5100,"andiri":5101,"ĠCap":5102,"ĠYou":5103,"ervasi":5104,"ĠLibya":5105,"yclop":5106,"Ġvolume":5107,"epakatan":5108,"Met":5109,"visi":5110,"zo":5111,"Ġkanan":5112,"esa":5113,"ĠJava":5114,"Ġmeluncurkan":5115,"sesan":5116,"Ġindependen":5117,"Ġkonten":5118,"Ġmemperkuat":5119,"Ġmi":5120,"Ġmenit":5121,"Ġfisi":5122,"ĠFac":5123,"ĠFre":5124,"ĠOff":5125,"Ġanal":5126,"ĠAll":5127,"TML":5128,"hailand":5129,"Ab":5130,"}\\":5131,"onik":5132,"esti":5133,"Ġlintas":5134,"olasi":5135,"Ġditangkap":5136,"Ġdilengkapi":5137,"Ġterbuat":5138,"Ġarti":5139,"Ġenzim":5140,"ĠKarya":5141,"Ġinteraksi":5142,"Ġoksigen":5143,"infeksi":5144,"Ġkekerasan":5145,"Gen":5146,"etan":5147,"etas":5148,"anjir":5149,"Ġdibutuhkan":5150,"Ġkesalahan":5151,"ĠProduk":5152,"Ġekosistem":5153,"uduki":5154,"Ġdijual":5155,"ĠAtl":5156,"ĠTeknologi":5157,"Ġmenurunkan":5158,"pel":5159,"sum":5160,"ader":5161,"etri":5162,"Ġbertugas":5163,"Ġhayati":5164,"ĠTak":5165,"ĠYo":5166,"Ġsemuanya":5167,"ĠAli":5168,"Ġagen":5169,"2009":5170,"ornia":5171,"100":5172,"Ġdinding":5173,"Ġti":5174,"Ġbadai":5175,"isin":5176,"ĠMy":5177,"indahan":5178,"ĠAnti":5179,"umpang":5180,"Ġbertindak":5181,"Ġhalus":5182,"lamasi":5183,"Ġsubjek":5184,"Ġprodusen":5185,"AL":5186,"Ketua":5187,"Sh":5188,"ikir":5189,"agama":5190,"Ġterm":5191,"Ġmengajukan":5192,"Ġgedung":5193,"ĠWalaupun":5194,"ĠOx":5195,"Ġdilaksanakan":5196,"igasi":5197,"plor":5198,"Ġ1965":5199,"ĠEnc":5200,"ografis":5201,"Ġkolonial":5202,"Ġikatan":5203,"Ġintel":5204,"alifornia":5205,"Ġev":5206,"Ġkami":5207,"Ġlewat":5208,"Ġbiji":5209,"ancangan":5210,"Ġkristal":5211,"Ġmulti":5212,"Ġangkatan":5213,"Ġdisimpan":5214,"58":5215,"Kes":5216,"red":5217,"sc":5218,"win":5219,"erahan":5220,"enaran":5221,"Ġdieks":5222,"abr":5223,"Ġnot":5224,"Ġgolongan":5225,"Ġcairan":5226,"angkapan":5227,"Ġsetara":5228,"Ġsetempat":5229,"orial":5230,"2005":5231,"ĠPertama":5232,"Ġtahu":5233,"ĠKonf":5234,"ield":5235,"Ġpemberontakan":5236,"Ġprofesional":5237,"Ġpuluh":5238,"Ġtran":5239,"elasan":5240,"ĠKuno":5241,"ante":5242,"Ġsosialis":5243,"ĠMasyarakat":5244,"Ġperdana":5245,"Ġutamanya":5246,"ĠSwedia":5247,"Ġurutan":5248,"Ġsiswa":5249,"--":5250,"Sub":5251,"via":5252,"Ð°":5253,"Ġpop":5254,"Ġtata":5255,"amai":5256,"ekatan":5257,"ĠAz":5258,"irm":5259,"esies":5260,"Ġserver":5261,"Ġatmosfer":5262,"eriksaan":5263,"2004":5264,"encanakan":5265,"misi":5266,"Ġlambat":5267,"omend":5268,"ĠRos":5269,"awal":5270,"Ġkerangka":5271,"Ġmineral":5272,"abilitas":5273,"ichard":5274,"Dari":5275,"IC":5276,"Pers":5277,"by":5278,"dy":5279,"ataran":5280,"Ġpin":5281,"Ġpindah":5282,"Ġbr":5283,"Ġdimasuk":5284,"uruf":5285,"usuf":5286,"ulitan":5287,"Ġmengidentifikasi":5288,"ĠTerdapat":5289,"ative":5290,"Ġberpengaruh":5291,"Ġinternal":5292,"ĠAyyub":5293,"Ġkilometer":5294,"emar":5295,"ille":5296,"ĠSab":5297,"agram":5298,"roversi":5299,"ott":5300,"Ġpasti":5301,"Ġgenus":5302,"2008":5303,"kripsi":5304,"ĠMuseum":5305,"eur":5306,"sinya":5307,"Ġmaksi":5308,"apus":5309,"ĠSun":5310,"agamaan":5311,"urung":5312,"ĠBush":5313,"Ġmemang":5314,"Ġnyata":5315,"Ġdibuka":5316,"ancarkan":5317,"Ġsampel":5318,"iji":5319,"ĠSemua":5320,"ĠObat":5321,"Ġketua":5322,"okteran":5323,"ER":5324,"cess":5325,"Ġsimp":5326,"yaw":5327,"ĠDel":5328,"Ġmengaku":5329,"embak":5330,"andangan":5331,"awas":5332,"adion":5333,"ĠWest":5334,"amping":5335,"Ġprotokol":5336,"Ġdidefinisikan":5337,"Ġ2025":5338,"orth":5339,"ĠRoma":5340,"Ġkampanye":5341,"Ġinstrumen":5342,"Ketika":5343,"SS":5344,"Sistem":5345,"bes":5346,"elang":5347,"iru":5348,"ĠTw":5349,"ĠJo":5350,"ĠGlobal":5351,"oth":5352,"osp":5353,"Ġkesempatan":5354,"Ġmenghilangkan":5355,"Ġ500":5356,"imbah":5357,"Ġmusuh":5358,"ĠAbdul":5359,"Ked":5360,"lang":5361,"asakan":5362,"ĠMag":5363,"Ġganda":5364,"aluasi":5365,"Ġditandai":5366,"Ġdirek":5367,"umpul":5368,"uci":5369,"ĠApp":5370,"evelop":5371,"Bi":5372,"ier":5373,"ãģ":5374,"Ġpe":5375,"Ġbend":5376,"Ġdiman":5377,"amakan":5378,"ĠRumah":5379,"Ġpenemuan":5380,"ĠCalifornia":5381,"ĠĠĠĠĠĠĠĠĠĠĠĠĠĠĠĠĠĠĠĠĠĠĠ":5382,"Ġkebudayaan":5383,"2006":5384,"Ġpeluncuran":5385,"Ġkapasitas":5386,"Berikut":5387,"Mar":5388,"Secara":5389,"aton":5390,"Ġtema":5391,"Ġbasis":5392,"Ġbintang":5393,"Ġdiant":5394,"ebat":5395,"ĠMobil":5396,"ĠBos":5397,"ĠBupati":5398,"ĠLi":5399,"ĠPerubahan":5400,"Ġ188":5401,"atural":5402,"Ġpakaian":5403,"Ġrespons":5404,"ĠNorweg":5405,"ĠCharles":5406,"IM":5407,"Komp":5408,"Ġ...":5409,"ĠParis":5410,"utip":5411,"ĠBidang":5412,"ĠBudd":5413,"iau":5414,"Ġnada":5415,"ĠLin":5416,"Ġfenomena":5417,"ĠMaros":5418,"formation":5419,"2007":5420,"ordinasi":5421,"unggu":5422,"Ġroket":5423,"sedur":5424,"70":5425,"PC":5426,"band":5427,"Ġsastra":5428,"Ġtiap":5429,"Ġtarget":5430,"amkan":5431,"ilikan":5432,"asifikasi":5433,"ĠKu":5434,"ĠBab":5435,"Ġrekan":5436,"ĠRatu":5437,"ĠGor":5438,"endalian":5439,"Ġmembayar":5440,"umbu":5441,"ĠArg":5442,"ĠPengadilan":5443,"assar":5444,"ashington":5445,"ĠPerdana":5446,"Ġdiakui":5447,"cus":5448,"mark":5449,"Ġkelahiran":5450,"amu":5451,"Ġmemakai":5452,"Ġseiring":5453,"anggar":5454,"Ġkonvensi":5455,"Ġ1986":5456,"ordin":5457,"Ġtransportasi":5458,"ASA":5459,"operasikan":5460,"Saat":5461,"ref":5462,"arut":5463,"emaat":5464,"sial":5465,"ĠSil":5466,"ĠPC":5467,"ĠPop":5468,"Ġlevel":5469,"ayani":5470,"adium":5471,"Ġmerebut":5472,"Ġcocok":5473,"ĠAnt":5474,"Ġawan":5475,"Ġhalnya":5476,"que":5477,"Ġsingkat":5478,"isar":5479,"ĠPart":5480,"ĠPadang":5481,"olan":5482,"ĠDana":5483,"ĠRah":5484,"ayasa":5485,"onstr":5486,"Ġbiologis":5487,"Ġkonstruksi":5488,"embalikan":5489,"ĠUtama":5490,"Ġmemperluas":5491,"Ġtulisan":5492,"Ġmenandatangani":5493,"olo":5494,"ĠBulan":5495,"ĠThailand":5496,"ĠRevolusi":5497,"tau":5498,"ĠOp":5499,"yakinan":5500,"Ġberkurang":5501,"Ġmanfaat":5502,"eknologi":5503,"Ġonline":5504,"ĠTurki":5505,"Ġdimasukkan":5506,"DA":5507,"dt":5508,"orf":5509,"ĠSum":5510,"Ġjantung":5511,"embatan":5512,"Ġkeempat":5513,"ĠLong":5514,"Ġtahunan":5515,"anyaan":5516,"oph":5517,"Ġkertas":5518,"imbangan":5519,"ĠAdministrasi":5520,"Ġkomunis":5521,"Ġistana":5522,"Ġsayap":5523,"Ġartinya":5524,"ĠEconom":5525,"Jenis":5526,"code":5527,"eo":5528,"Ġ}":5529,"Ġparah":5530,"ors":5531,"ĠSatu":5532,"epsi":5533,"ĠDarat":5534,"ĠTanjung":5535,"Ġnaskah":5536,"ajuan":5537,"Ġdikar":5538,"Ġditempatkan":5539,"Ġdimainkan":5540,"Ġkomb":5541,"Ġwakil":5542,"urnal":5543,"Ġmaju":5544,"ĠOxford":5545,"US":5546,"ake":5547,"Ġbas":5548,"Ġburuh":5549,"ado":5550,"ĠDaftar":5551,"ĠDingin":5552,"ĠHo":5553,"Ġdiduga":5554,"ĠSeperti":5555,"Ġotomatis":5556,"Ġkabel":5557,"Ġmedan":5558,"Ġgugus":5559,"Ġdiselenggarakan":5560,"sisten":5561,"%.":5562,"sin":5563,"ahit":5564,"une":5565,"ario":5566,"ĠKaisar":5567,"Ġmengin":5568,"tri":5569,"adiah":5570,"Ġcok":5571,"anganan":5572,"Ġmelewati":5573,"Ġwajib":5574,"ensis":5575,"rium":5576,"Ġ32":5577,"Ġpendiri":5578,"Ġ90":5579,"Ġpeserta":5580,"Ġperbankan":5581,"Ġperjuangan":5582,"Ġkalinya":5583,"Ġhidrok":5584,"Ġpasir":5585,"Ag":5586,"Kab":5587,"Ġmal":5588,"untuk":5589,"Ġmenentang":5590,"utl":5591,"ĠRi":5592,"ĠUp":5593,"site":5594,"fras":5595,"unggung":5596,"Ġdiciptakan":5597,"oksida":5598,"Ġtoko":5599,"eritakan":5600,"Ġmajalah":5601,"Ġternak":5602,"Ġekstrem":5603,"ĠNusantara":5604,",\"":5605,"rich":5606,"wira":5607,"akti":5608,"Ġkarier":5609,"emasan":5610,"ĠSumber":5611,"Ġlang":5612,"ariat":5613,"ĠIT":5614,"ĠEs":5615,"anji":5616,"impunan":5617,"Ġkesadaran":5618,"Ġspir":5619,"2003":5620,"Ġ1989":5621,"Ġhidupnya":5622,"Ġimun":5623,"ĠSosialis":5624,"Ġuniversitas":5625,"dari":5626,"jan":5627,"kel":5628,"po":5629,"ano":5630,"Ġmode":5631,"ike":5632,"Ġberguna":5633,"ument":5634,"ĠBu":5635,"Ġsebutan":5636,"ayam":5637,"ĠHid":5638,"angkalan":5639,"egaraan":5640,"change":5641,"Ġterbang":5642,"minal":5643,"ĠBekasi":5644,"76":5645,"meng":5646,"way":5647,"ĠÏ":5648,"adangan":5649,"itungan":5650,"Ġpersi":5651,"ĠCity":5652,"aksana":5653,"Ġmenjual":5654,"Ġperbatasan":5655,"Ġberfokus":5656,"Ġberkelanjutan":5657,"Ġdiantaranya":5658,".).":5659,"Ker":5660,"Seperti":5661,"jukan":5662,"Ġil":5663,"Ġpetu":5664,"idur":5665,"ĠTujuan":5666,"Ġnovel":5667,"ĠLet":5668,"antinya":5669,"osom":5670,"Ġkesepakatan":5671,"Ġbukanlah":5672,"Sebuah":5673,"41":5674,"gasi":5675,"za":5676,"Ġdar":5677,"Ġpew":5678,"Ġteman":5679,"Ġperwakilan":5680,"ĠRel":5681,"ĠĠĠĠĠĠĠĠĠĠĠĠĠĠĠĠĠĠĠĠĠĠĠĠĠ":5682,"Ġdibunuh":5683,"inda":5684,"Ġpendapat":5685,"Ġberlanjut":5686,"erdasan":5687,"Ġmengakhiri":5688,"Ġsinar":5689,"ĠKonvensi":5690,"esuaikan":5691,"KB":5692,"Ġmag":5693,"Ġdiinginkan":5694,"Ġlanjutan":5695,"Ġsebag":5696,"ĠCE":5697,"ĠEfek":5698,"angkai":5699,"Ġsekitarnya":5700,"ĠKerja":5701,"Ġkandungan":5702,"timbangkan":5703,"ĠViking":5704,"Ġpul":5705,"Ġpubl":5706,"als":5707,"Ġkogn":5708,"amilan":5709,"ading":5710,"orsi":5711,"Ġlulus":5712,"Ġmengungkapkan":5713,"ehi":5714,"Ġrump":5715,"osen":5716,"Ġpemul":5717,"Ġserangkaian":5718,"ĠDig":5719,"Ġkedalaman":5720,"Ġkewajiban":5721,"lasifikasi":5722,"Ġpelanggan":5723,"ĠEncyclop":5724,"AD":5725,"Contoh":5726,"MD":5727,"wi":5728,"à¤":5729,"ĠSamp":5730,"Ġletusan":5731,"itr":5732,"ĠWe":5733,"ĠFl":5734,"Ġvulkan":5735,"otaan":5736,"Ġbiologi":5737,"Ġpenerapan":5738,"42":5739,"BA":5740,"BS":5741,"CD":5742,"HP":5743,"Ġport":5744,"akh":5745,"Ġdiw":5746,"ilia":5747,"ĠSej":5748,"etis":5749,"ĠAkan":5750,"Ġmemakan":5751,"roid":5752,"ĠRNA":5753,"tron":5754,"ĠHari":5755,"Ġvariasi":5756,"obaan":5757,"Ġmassal":5758,"Ġpembelajaran":5759,"Ġdipandang":5760,"Ġpred":5761,"Ġresep":5762,"Ġditujukan":5763,"ĠTeluk":5764,"ĠIbnu":5765,"egional":5766,"Ġtertulis":5767,"ĠScience":5768,"evelopment":5769,"88":5770,"pi":5771,"ven":5772,"Ġizin":5773,"Ġpisang":5774,"els":5775,"Ġterapi":5776,"ĠAlex":5777,"Ġkeagamaan":5778,"egahan":5779,"Ġgame":5780,"ection":5781,"Ġsejenis":5782,"ĠPemilihan":5783,"Ġ1966":5784,"mbol":5785,"Ġupacara":5786,"Ġkontrak":5787,"ĠMakassar":5788,"ĠInstitut":5789,"Ġbiru":5790,"Ġsarana":5791,"Ġlemah":5792,"Direktorat":5793,"Ġpenyimpanan":5794,"43":5795,"Tr":5796,"Ð¸":5797,"Ġkumpulan":5798,"Ġdian":5799,"amina":5800,"agen":5801,"Ġpergerakan":5802,"ĠBa":5803,"ĠBog":5804,"ĠBlu":5805,"Ġhe":5806,"Ġhuruf":5807,"ĠDasar":5808,"Ġgigi":5809,"ube":5810,"anggil":5811,"under":5812,"tivasi":5813,"Ġeksper":5814,"ungguh":5815,"Ġkapital":5816,"ĠResearch":5817,"ĠMajelis":5818,"ejahteraan":5819,"math":5820,"}{":5821,"Ġ;":5822,"asama":5823,"Ġtik":5824,"Ġklin":5825,"estor":5826,"Ġmenempatkan":5827,"Ġlimbah":5828,"urusan":5829,"ĠKub":5830,"Ġras":5831,"ĠHen":5832,"ĠWali":5833,"Ġmembatasi":5834,"Ġkartu":5835,"Ġdisetujui":5836,"ormatan":5837,"Ġmenghentikan":5838,"Ġagak":5839,"tive":5840,"Ġ1964":5841,"aisal":5842,"Ġtimbul":5843,"Ġpemberian":5844,"ĠKomunis":5845,"Ġswasta":5846,"Sumber":5847,"over":5848,"xt":5849,"Ġir":5850,"Ġungg":5851,"inga":5852,"ĠKeh":5853,"imaan":5854,"ĠHasil":5855,"ĠWashington":5856,"Ġdisingkat":5857,"Ġdisert":5858,"tanian":5859,"Ġpasca":5860,"erson":5861,"Ġ80":5862,"Ġzona":5863,"udio":5864,"Ġgelap":5865,"Ġkontak":5866,"ĠBlack":5867,"Ġmembahas":5868,"Ġbeserta":5869,"Sejak":5870,"base":5871,"tidak":5872,"yaratan":5873,"Ġpp":5874,"Ġpangan":5875,"inja":5876,"Ġliar":5877,"itamin":5878,"Ġperawatan":5879,"uktikan":5880,"iano":5881,"upsi":5882,"ĠLife":5883,"entina":5884,"Ġpemasaran":5885,"ĠVal":5886,"arakter":5887,"Ġdidapat":5888,"Ġapapun":5889,"Ġpandang":5890,"ĠIrlandia":5891,"ĠSamudra":5892,"Ġtampaknya":5893,"Ġmenekankan":5894,"Ġkombinasi":5895,"BC":5896,"SM":5897,"Uni":5898,"ster":5899,"ê¦":5900,"Ġisi":5901,"Ġsini":5902,"Ġtun":5903,"Ġbaja":5904,"Ġlatar":5905,"olk":5906,"Ġberapi":5907,"ĠMis":5908,"ĠKl":5909,"ĠKas":5910,"irinya":5911,"Ġhel":5912,"Ġmengangkat":5913,"egan":5914,"Ġmenderita":5915,"Ġsatuan":5916,"erintahkan":5917,"Ġberpartisipasi":5918,"Ġdagang":5919,"baiki":5920,"Ph":5921,"Tidak":5922,"hatikan":5923,"jah":5924,"mum":5925,"Ġbulat":5926,"orta":5927,"Ġmenangani":5928,"olf":5929,"agalan":5930,"urit":5931,"usti":5932,"tions":5933,"Ġmengeks":5934,"ĠTenaga":5935,"Ġsebab":5936,"ĠJaya":5937,"ĠNas":5938,"ĠInc":5939,"indung":5940,"ĠYusuf":5941,"Ġsejarawan":5942,"Ġpersetujuan":5943,"ĠAnggota":5944,"Ġmurni":5945,"Pendidikan":5946,"met":5947,"ny":5948,"nan":5949,"Ġta":5950,"Ġmemori":5951,"Ġmemerintahkan":5952,"Ġpemak":5953,"Ġkepad":5954,"Ġkesultanan":5955,"Ġpelayanan":5956,"ilaian":5957,"Ġdeath":5958,"Ġteater":5959,"Ġgratis":5960,"ĠSemarang":5961,"roskop":5962,"Ġtertutup":5963,"Ġbayi":5964,"Ġmenyimpan":5965,"DE":5966,"kas":5967,"ymp":5968,"Ġpukul":5969,"inci":5970,"Ġsisa":5971,"amili":5972,"olitik":5973,"Ġperak":5974,"Ġjudul":5975,"ĠRRI":5976,"2010":5977,"angsawan":5978,"2002":5979,"Ġterhubung":5980,"Ġdimanfaatkan":5981,"kes":5982,"lad":5983,"Ġkuantum":5984,"ikahan":5985,"ĠSeh":5986,"ĠMoh":5987,"ull":5988,"ĠRichard":5989,"ajat":5990,"ĠOperasi":5991,"ĠIndustri":5992,"arth":5993,"onsel":5994,"Ġpasal":5995,"Ġdiharapkan":5996,"Ġdrama":5997,"untutan":5998,"Ġdelapan":5999,"Ġistri":6000,"ĠAkibatnya":6001,"frastruktur":6002,"Ġsebagainya":6003,"Nama":6004,"Pert":6005,"lima":6006,"pu":6007,"Ġgabungan":6008,"atik":6009,"Ġsaraf":6010,"Ġtomb":6011,"aktik":6012,"eliling":6013,"isl":6014,"Ġlaboratorium":6015,"Ġmemuat":6016,"Ġpengirim":6017,"ĠFed":6018,"Ġberbicara":6019,"ĠProyek":6020,"2000":6021,"Ġemosi":6022,"Ġhidrogen":6023,"untut":6024,"Ġmengalir":6025,"Ger":6026,"Si":6027,"TTP":6028,"cong":6029,"Ġkop":6030,"Ġkajian":6031,"agung":6032,"urna":6033,"Ġmengab":6034,"Ġmengatasi":6035,"ander":6036,"egangan":6037,"Ġpengembang":6038,"oso":6039,"Ġsepuluh":6040,"ohol":6041,"Ġpolisi":6042,"Ġkekayaan":6043,"Ġkekurangan":6044,"Ġdasarnya":6045,"ĠSchool":6046,"ĠSaudi":6047,"Is":6048,"Tahun":6049,"Ã¤":6050,"Ġmo":6051,"Ġsay":6052,"Ġturut":6053,"Ġperek":6054,"idat":6055,"ĠNg":6056,"ĠHer":6057,"Ġmelepaskan":6058,"ĠEff":6059,"Ġserius":6060,"obati":6061,"Ġberbagi":6062,"ovasi":6063,"Ġkesulitan":6064,"akau":6065,"Ġ1963":6066,"Ġ1942":6067,"ĠPolit":6068,"Ġ1957":6069,"Ġperlawanan":6070,"Selama":6071,"biotik":6072,"utrisi":6073,"emukakan":6074,"Salah":6075,"nilai":6076,"uaca":6077,"Ð¾":6078,"Ġdosis":6079,"Ġparuh":6080,"Ġdiumumkan":6081,"Ġmenangkap":6082,"Ġlabel":6083,"Ġlepas":6084,"Ġinilah":6085,"ĠCina":6086,"ĠFlor":6087,"Ġprosedur":6088,"ewi":6089,"intasi":6090,"ĠVen":6091,"Ġterbaru":6092,"Ġmenghancurkan":6093,"Ġkonsumsi":6094,"eksiko":6095,"omba":6096,"ĠTimor":6097,"uliah":6098,"Ġotoritas":6099,"ĠExchange":6100,"BM":6101,"Gr":6102,"Jika":6103,"iasaan":6104,"Ġaf":6105,"Ġdaring":6106,"akkan":6107,"Ġdiakses":6108,"ĠSeri":6109,"ĠSejarah":6110,"usn":6111,"ĠMuda":6112,"tipe":6113,"ĠId":6114,"ĠDom":6115,"Ġmengunjungi":6116,"ĠTo":6117,"ĠTNI":6118,"Ġrat":6119,"ĠCan":6120,"awai":6121,"entar":6122,"usif":6123,"ĠVOC":6124,"chi":6125,"Ġterbukti":6126,"Ġtransaksi":6127,"Ġpatogen":6128,"ĠSwiss":6129,"inerja":6130,"ĠCorpor":6131,"Ġtepi":6132,"Ġkognitif":6133,"90":6134,"Film":6135,"kap":6136,"we":6137,"Ġkot":6138,"Ġlirik":6139,"ĠBas":6140,"udal":6141,"Ġmembedakan":6142,"turut":6143,"ĠAcadem":6144,"Ġfungsional":6145,"ĠAustria":6146,"Ġopsi":6147,"ĠPlay":6148,"Ġurusan":6149,"aborasi":6150,"Ġefisien":6151,"refour":6152,"dengan":6153,"ÙĦ":6154,"aritas":6155,"Ġdiab":6156,"ils":6157,"Ġle":6158,"ĠKa":6159,"ĠKi":6160,"iraan":6161,"ĠTri":6162,"ĠRam":6163,"Ġkeyakinan":6164,"ĠCons":6165,"ĠGame":6166,"perti":6167,"indrom":6168,"Ġ35":6169,"isma":6170,"ancang":6171,"Ġdemokrasi":6172,"Ġisotop":6173,"omatik":6174,"Ġsyarat":6175,"ometri":6176,"Ġvirtual":6177,"AP":6178,"Br":6179,"Banyak":6180,"bah":6181,"argan":6182,"inaan":6183,"Ġbenteng":6184,"emui":6185,"ĠRat":6186,"upu":6187,"ĠHan":6188,"Ġpengawasan":6189,"ico":6190,"2011":6191,"ency":6192,"ernakan":6193,"Ġberlebihan":6194,"Ġberhenti":6195,"Ġ1979":6196,"ĠDinasti":6197,"Ġmayoritas":6198,"ĠNorwegia":6199,"Dem":6200,"Mem":6201,"ganya":6202,"gorit":6203,"vir":6204,"aly":6205,"Ġsapi":6206,"onel":6207,"esor":6208,"uklir":6209,"Ġmemicu":6210,"Ġadministrasi":6211,"otesis":6212,"odo":6213,"Ġmenyerahkan":6214,"Ġdisk":6215,"asihat":6216,"ĠContohnya":6217,"Ġpengelolaan":6218,"ST":6219,"jemahkan":6220,"muka":6221,"Ġdewan":6222,"adis":6223,"ĠSir":6224,"ĠPenc":6225,"olisian":6226,"Ġbersa":6227,"utif":6228,"Ġmengelola":6229,"Ġgender":6230,"anth":6231,"odifikasi":6232,"Ġpemahaman":6233,"Ġarsitektur":6234,"Ġkrisis":6235,"ĠSpace":6236,"Ġberjumlah":6237,"Ġmengganggu":6238,"kira":6239,"agnosis":6240,"Ġdimaksudkan":6241,"Ġmendekati":6242,"66":6243,"Kehidupan":6244,"uaraan":6245,"erat":6246,"atistik":6247,"Ġtuan":6248,"Ġbab":6249,"sic":6250,"iset":6251,"Ġlubang":6252,"ingkan":6253,"ĠMor":6254,"ĠMatar":6255,"Ġkeinginan":6256,"ĠGuru":6257,"icial":6258,"Ġpembel":6259,"Ġpendirian":6260,"Ġterbagi":6261,"undur":6262,"ĠProt":6263,"Ġpersamaan":6264,"Ġaorta":6265,"ĠSekutu":6266,"larasi":6267,"ribadian":6268,"ĠMobile":6269,"een":6270,"iarkan":6271,"sesi":6272,"war":6273,"Ġtur":6274,"etapan":6275,"Ġperencanaan":6276,"ĠBudaya":6277,"ĠLang":6278,"endek":6279,"Ġberbahasa":6280,"Ġbij":6281,"ijen":6282,"Ġ70":6283,"ĠâĢĺ":6284,"Ġperdamaian":6285,"ĠQu":6286,"Ġneur":6287,"ĠCompany":6288,"Ġdinamakan":6289,"ĠModel":6290,"Ġcurah":6291,"taire":6292,"ĠChrisye":6293,"Ġmenegaskan":6294,"Amerika":6295,"Se":6296,"cam":6297,"jen":6298,"lon":6299,"ng":6300,"nama":6301,"tika":6302,"Ġamb":6303,"Ġbanjir":6304,"Ġkisah":6305,"ĠPad":6306,"esm":6307,"ĠMPR":6308,"ĠKode":6309,"ĠCamp":6310,"ĠNASA":6311,"Ġfl":6312,"ĠOpen":6313,"ĠPerk":6314,"Ġvokal":6315,"stensi":6316,"Ġditunjuk":6317,"Ġdipl":6318,"2014":6319,"Ġpenyebaran":6320,"ĠUnion":6321,"ublikasikan":6322,"ĠAkadem":6323,"Ġion":6324,"gawai":6325,"Berdasarkan":6326,"ham":6327,"yu":6328,"Ġmis":6329,"ahul":6330,"ebalan":6331,"ĠPember":6332,"ĠMeksiko":6333,"Ġrangka":6334,"Ġmerusak":6335,"ĠFound":6336,"ambu":6337,"emplat":6338,"ĠVersi":6339,"versal":6340,"Ġmetabol":6341,"Ġabu":6342,"ĠPengembangan":6343,"ski":6344,"ĠSMA":6345,"Ġformal":6346,"Ġkonferensi":6347,"ĠMataram":6348,"34":6349,"CH":6350,"utur":6351,"Ġdll":6352,"Ġmuatan":6353,"inn":6354,"ason":6355,"Ġtaman":6356,"Ġhlm":6357,"omen":6358,"ĠWi":6359,"ambangkan":6360,"ertian":6361,"onald":6362,"stein":6363,"Ġpenderita":6364,"Ġsuci":6365,"ondisi":6366,"Ġteor":6367,"ĠThomas":6368,"Ġsatunya":6369,"Ġjamur":6370,"Ġradiasi":6371,"ĠAyyubiyah":6372,".:":6373,"52":6374,"Bangsa":6375,"set":6376,"atangan":6377,"Ġtidur":6378,"app":6379,"olit":6380,"asir":6381,"ĠNetwork":6382,"ĠWis":6383,"ĠFaisal":6384,"obi":6385,"plikasi":6386,"Ġpersyaratan":6387,"ĠTerbaik":6388,"TI":6389,"Ġpang":6390,"alk":6391,"Ġsiap":6392,"unk":6393,"onim":6394,"ektar":6395,"Ġmenutup":6396,"eton":6397,"adaban":6398,"ĠMur":6399,"ĠMerah":6400,"ĠBus":6401,"ĠBerdasarkan":6402,"ĠTai":6403,"iawan":6404,"Ġcuaca":6405,"Ġmelarikan":6406,"ĠUN":6407,"Ġpemeriksaan":6408,"ongg":6409,"ternal":6410,"mann":6411,"sitas":6412,"Ġekor":6413,"ĠBrasil":6414,"ĠOlymp":6415,"elajah":6416,"Ġkepemilikan":6417,"abiskan":6418,"Ġbawaan":6419,"51":6420,"Partai":6421,"UN":6422,"fi":6423,"enalan":6424,"alid":6425,"Ġdiajukan":6426,"ĠSemen":6427,"ole":6428,"omi":6429,"ĠTata":6430,"ĠRek":6431,"ege":6432,"ĠJul":6433,"ĠJenis":6434,"tain":6435,"trin":6436,"ĠHa":6437,"ĠGar":6438,"Ġsetu":6439,"Ġserangga":6440,"Ġdikelola":6441,"arankan":6442,"Ġkerj":6443,"Ġdimensi":6444,"Ġkomposisi":6445,"ĠâĨ":6446,"ĠMasehi":6447,"Ġhakim":6448,"Penggunaan":6449,"Penghargaan":6450,"ontribusi":6451,"ĠMelayu":6452,"Ġsusu":6453,"Ġmenempati":6454,"Ġuap":6455,"Badan":6456,"so":6457,"Ðµ":6458,"erap":6459,"Ġmundur":6460,"Ġponsel":6461,"sisi":6462,"ese":6463,"ĠMada":6464,"Ġmemerintah":6465,"embah":6466,"Ġpenonton":6467,"Ġcomp":6468,"ĠGol":6469,"isisi":6470,"ĠWid":6471,"Ġmelintasi":6472,"Ġketentuan":6473,"Ġ300":6474,"ĠAnak":6475,"Ġberkisar":6476,"Ġpelatihan":6477,"imbang":6478,"Ġmusisi":6479,"Ġgenom":6480,"Ġgenetika":6481,"Ġekspl":6482,"mail":6483,"ĠSekretaris":6484,"gantian":6485,"Ġsiklus":6486,"ĠSocial":6487,"Ġstrategis":6488,"bilitas":6489,"Ġpintu":6490,"AI":6491,"CE":6492,"til":6493,"Ġpep":6494,"kand":6495,"ĠBuruh":6496,"ĠChe":6497,"Ġcac":6498,"ibatan":6499,"ĠVan":6500,"Ġprim":6501,"erikatan":6502,"Ġ1983":6503,"Ġ1940":6504,"Ġ1977":6505,"Ġklasifikasi":6506,"ĠKeamanan":6507,"Ġinvasi":6508,"Ġblok":6509,"ouse":6510,"Ġvulkanik":6511,"OR":6512,"ao":6513,"beda":6514,"cel":6515,"linya":6516,"yanya":6517,"Ġpsil":6518,"Ġtaj":6519,"esain":6520,"itch":6521,"ĠKart":6522,"ĠIC":6523,"ĠHAM":6524,"Ġditambahkan":6525,"orientasi":6526,"sky":6527,"ĠBerlin":6528,"ĠStrateg":6529,"ĠCommun":6530,"ĠCarrefour":6531,"ahlawan":6532,"ĠPublish":6533,"Teori":6534,"Ġbudak":6535,"53":6536,"Ap":6537,"uy":6538,"âĪ":6539,"Ġ<":6540,"arahan":6541,"Ġpuisi":6542,"alas":6543,"etasi":6544,"Ġtertar":6545,"ĠMid":6546,"Ġruangan":6547,"ĠReg":6548,"ĠCD":6549,"uhur":6550,"ĠNuklir":6551,"ĠHam":6552,"ters":6553,"ĠInformasi":6554,"ĠLand":6555,"ĠFestival":6556,"Ġpertanyaan":6557,"ological":6558,"Ġpembakaran":6559,"Ġditanam":6560,"masalahan":6561,"tory":6562,"Ġkecamatan":6563,"Ġpelanggaran":6564,"ĠUsaha":6565,"72":6566,"Ter":6567,"ces":6568,"atalkan":6569,"Ġpikiran":6570,"Ġbe":6571,"Ġbit":6572,"esp":6573,"ĠBol":6574,"Ġja":6575,"upan":6576,"ĠLingk":6577,"ajang":6578,"ajurit":6579,"Ġmelayani":6580,"ohan":6581,"ormati":6582,"ĠAlg":6583,"ĠChem":6584,"Ġpenyanyi":6585,"Ġterkena":6586,"Ġ1967":6587,"Ġ1975":6588,"ĠMaluku":6589,"Ġputr":6590,"Ġdeprec":6591,"Ġfisika":6592,"III":6593,"karya":6594,"Ġdeprecated":6595,"ren":6596,"Ġduduk":6597,"Ġbot":6598,"Ġdiidentifikasi":6599,"ĠMong":6600,"Ġmemec":6601,"Ġhom":6602,"Ġrusak":6603,"ĠCur":6604,"Ġcer":6605,"ĠEp":6606,"Ġmenyadari":6607,"Ġberkuasa":6608,"ova":6609,"Ġkedudukan":6610,"ĠMars":6611,"Ġarg":6612,"ustrial":6613,"Ġ1961":6614,"Ġ1987":6615,"Ġ1978":6616,"ĠKeuangan":6617,"Ġkampung":6618,"Ġedisi":6619,"ĠAndroid":6620,"Ġtertua":6621,"enza":6622,"Ġribu":6623,"burg":6624,"ĠDigital":6625,"ĠBogor":6626,"68":6627,"mada":6628,"Ġmark":6629,"Ġbencana":6630,"ebaskan":6631,"ĠPort":6632,"esh":6633,"olid":6634,"usunan":6635,"ĠKelompok":6636,"ĠBro":6637,"Ġmengund":6638,"ĠRadio":6639,"Ġnutrisi":6640,"ĠHuman":6641,"ĠLembaga":6642,"ajarkan":6643,"Ġpengec":6644,"Ġkebenaran":6645,"Ġsehat":6646,"Ġterlebih":6647,"Ġsentr":6648,"etakkan":6649,"Ġinflu":6650,"Ġgeografis":6651,"ĠClark":6652,"Ġistrinya":6653,"Ġdikarenakan":6654,"Istilah":6655,"Ġpil":6656,"asari":6657,"Ġturunan":6658,"Ġkat":6659,"siden":6660,"apahit":6661,"ĠSl":6662,"ĠStan":6663,"itter":6664,"ĠBay":6665,"Ġinang":6666,"ĠRock":6667,"ĠChad":6668,"oditas":6669,"Ġseluas":6670,"ĠStalin":6671,"ĠPenggunaan":6672,"eliop":6673,"ĠGerakan":6674,"Ġoptim":6675,"Ġmenjalani":6676,"ĠEngine":6677,"Ġoperator":6678,"ĠGreen":6679,"ociation":6680,"ĠArgentina":6681,"Dep":6682,"Tube":6683,"mel":6684,"mon":6685,"oper":6686,"rama":6687,"sus":6688,"yp":6689,"Ġmuka":6690,"ameter":6691,"iku":6692,"itim":6693,"Ġmengendalikan":6694,"upai":6695,"upaya":6696,"Ġmerokok":6697,"acter":6698,"Ġco":6699,"Ġcon":6700,"ĠVic":6701,"tivis":6702,"iteria":6703,"Ġpencipta":6704,"ĠAbad":6705,"Ġideal":6706,"Ġribuan":6707,"Ġremaja":6708,"73":6709,"lagu":6710,"Ġayat":6711,"Ġpadi":6712,"Ġpunggung":6713,"Ġsultan":6714,"Ġsolusi":6715,"ĠSud":6716,"Ġluka":6717,"ariah":6718,"ĠAf":6719,"ĠKos":6720,"Ġmengingat":6721,"Ġguna":6722,"Ġpengas":6723,"ambatan":6724,"Ġdisusun":6725,"Ġprimer":6726,"2019":6727,"Ġkecerdasan":6728,"Ġdipercaya":6729,"Ġkekh":6730,"Ġkehamilan":6731,"Ġeksek":6732,"eae":6733,"Ġ1976":6734,"Ġpencarian":6735,"ĠAbu":6736,"Ġdijelaskan":6737,"Ġmedali":6738,"armasi":6739,"Ġpenerima":6740,"ĠHarv":6741,"ĠVoltaire":6742,"ĠÃĹ":6743,"ĠChrist":6744,"Ġpetugas":6745,"Gunung":6746,"bagian":6747,"ney":6748,"Ġbangsawan":6749,"isahan":6750,"ĠPeter":6751,"Ġmenet":6752,"Ġlemp":6753,"ĠBad":6754,"ĠItu":6755,"ĠDur":6756,"ĠRaden":6757,"ĠLagu":6758,"isit":6759,"ĠForm":6760,"otan":6761,"ĠUl":6762,"stal":6763,"Ġpembayaran":6764,"Ġpeluruhan":6765,"Ġmunculnya":6766,"loe":6767,"aporan":6768,"elihara":6769,"Ġpsikologi":6770,"ĠMajapahit":6771,"ĠBersama":6772,"Ġkegagalan":6773,"69":6774,"Mel":6775,"bl":6776,"bu":6777,"Ġdef":6778,"Ġmar":6779,"aleri":6780,"Ġsambil":6781,"asana":6782,"Ġkan":6783,"emuka":6784,"sifat":6785,"Ġperwira":6786,"ĠRoy":6787,"Ġpengolahan":6788,"endo":6789,"ipe":6790,"ambaran":6791,"ĠOS":6792,"ĠVer":6793,"Ġdipindahkan":6794,"ĠAnton":6795,"2015":6796,"ĠSelanjutnya":6797,"unjukkan":6798,"Ġanggaran":6799,"hanus":6800,"Ġ1962":6801,"Ġ1984":6802,"illa":6803,"Ġ1973":6804,"Ġklaim":6805,"âĢĿ.":6806,"ĠGeorg":6807,"ĠTeori":6808,"Ġternyata":6809,"Pas":6810,"gia":6811,"Ġkud":6812,"olet":6813,"Ġberulang":6814,"Ġmemf":6815,"ĠJapan":6816,"ĠLap":6817,"Ġfakta":6818,"ĠOper":6819,"osibin":6820,"Ġsemi":6821,"ĠAlbum":6822,"uck":6823,"ĠKabinet":6824,"Ġisu":6825,"Ġkontroversi":6826,"aklukkan":6827,"arusnya":6828,"ĠBuddha":6829,"Ġsetuju":6830,"64":6831,"Karier":6832,"Mer":6833,"PL":6834,"Tel":6835,"Trans":6836,"Wakil":6837,"oa":6838,"Ð½":6839,"Ġsint":6840,"Ġtem":6841,"Ġtampilan":6842,"Ġbasa":6843,"ĠPM":6844,"ĠPil":6845,"ĠKata":6846,"ĠBata":6847,"abut":6848,"ayak":6849,"ĠHigh":6850,"enting":6851,"Ġkemenangan":6852,"ĠYayasan":6853,"2012":6854,"2013":6855,"ĠAmerica":6856,"Ġsensor":6857,"Ġ1985":6858,"Ġ1971":6859,"Ġdijalan":6860,"Ġ1939":6861,"ĠPanas":6862,"Ġsiaran":6863,"Ġmurah":6864,"ĠPiala":6865,"Ġklinis":6866,"ĠCorporation":6867,"ĠâĨĴ":6868,"54":6869,"Templat":6870,"lia":6871,"amer":6872,"amar":6873,"sian":6874,"elakaan":6875,"ĠPes":6876,"ĠBahkan":6877,"iras":6878,"Ġpenumpang":6879,"Ġgaram":6880,"ĠListrik":6881,"Ġcoba":6882,"ĠPertanian":6883,"Ġaslinya":6884,"ove":6885,"ĠChina":6886,"Ġkomputasi":6887,"Ġ1948":6888,"Ġperbaikan":6889,"antum":6890,"Ġditutup":6891,"iliun":6892,"ĠAngel":6893,"Ġkabinet":6894,"adarai":6895,"Ġsengaja":6896,"77":6897,"Perb":6898,"Set":6899,"hasilan":6900,"serv":6901,"arap":6902,"Ġparlemen":6903,"alisi":6904,"Ġsc":6905,"Ġdihad":6906,"Ġlisensi":6907,"ĠKen":6908,"ĠBant":6909,"ĠDaya":6910,"Ġmengizinkan":6911,"rob":6912,"ehan":6913,"ĠHingga":6914,"Ġsemesta":6915,"Ġdisediakan":6916,"Ġkesejahteraan":6917,"eriksa":6918,"avy":6919,"timewa":6920,"ĠPolitik":6921,"ĠAkhir":6922,"Ġkabupaten":6923,"untungkan":6924,"ĠGrup":6925,"utradarai":6926,"ĠKongres":6927,"Ġlarutan":6928,"islatif":6929,"eliophanus":6930,"Heliophanus":6931,"for":6932,"oot":6933,"Å«":6934,"Ġpanggung":6935,"adiran":6936,"olution":6937,"ĠBuku":6938,"Ġregional":6939,"abad":6940,"ande":6941,"ĠCal":6942,"ĠHTTP":6943,"ĠEmp":6944,"Ġmenyampaikan":6945,"ambilan":6946,"atifikasi":6947,"ĠPenyakit":6948,"Ġkredit":6949,"ello":6950,"Ġdemokrat":6951,"Ġantarmuka":6952,"Ġdicapai":6953,"Ġemisi":6954,"Ġmahal":6955,"aklukan":6956,"Ġrahasia":6957,"BI":6958,"Bel":6959,"Mus":6960,"Ġpulang":6961,"ebunan":6962,"ister":6963,"iki":6964,"itte":6965,"Ġperingatan":6966,"ĠBah":6967,"Ġmemandang":6968,"andard":6969,"Ġgula":6970,"ĠHel":6971,"ications":6972,"Ġkepribadian":6973,"ĠVir":6974,"Ġmendefinisikan":6975,"2018":6976,"Ġbersenjata":6977,"Ġseniman":6978,"Ġbertambah":6979,"ĠBrit":6980,"Ġperbuatan":6981,"ĠSpec":6982,"Ġotot":6983,"Ġkoin":6984,"Ġepisode":6985,"Ġtantangan":6986,"ĠFoundation":6987,"kata":6988,"Ġdetik":6989,"ahnya":6990,"Ġkasar":6991,"ĠServ":6992,"ariw":6993,"Ġperasaan":6994,"Ġmengadopsi":6995,"ĠTex":6996,"awaran":6997,"ĠNag":6998,"ĠGK":6999,"ĠOt":7000,"Ġserat":7001,"Ġvitamin":7002,"Ġsetahun":7003,"ugu":7004,"Ġagresi":7005,"Ġpersegi":7006,"Ġ1988":7007,"ords":7008,"Ġminat":7009,"Ġinstitusi":7010,"ĠDirektur":7011,"Ġsembilan":7012,"Anggota":7013,"onjol":7014,"65":7015,"HO":7016,"Ġdataran":7017,"Ġmam":7018,"asy":7019,"ĠSyah":7020,"ĠPlat":7021,"Ġlurus":7022,"ĠJumlah":7023,"Ġadministr":7024,"ĠGajah":7025,"Ġmelarang":7026,"usik":7027,"ensitas":7028,"Ġsekunder":7029,"Ġalgorit":7030,"Ġ1949":7031,"amatkan":7032,"Ġetnis":7033,"ĠPerdagangan":7034,"Ġlautan":7035,"ĠPermainan":7036,"âĪĴ":7037,"Fi":7038,"RL":7039,"hta":7040,"my":7041,"reg":7042,"walnya":7043,"Ġdolar":7044,"Ġmeski":7045,"ĠStu":7046,"ĠAri":7047,"ulator":7048,"awali":7049,"entik":7050,"Ġpengaturan":7051,"Ġwajah":7052,"ĠUE":7053,"Ġmenjadikannya":7054,"Ġkemajuan":7055,"Ġketerl":7056,"umbang":7057,"ĠMark":7058,"aksinasi":7059,"Intern":7060,"Ġterkemuka":7061,"Ġsampah":7062,"umpur":7063,"Karena":7064,"Ġkreatif":7065,"aktat":7066,"cepat":7067,"raja":7068,"ĠØ":7069,"Ġumur":7070,"Ġmula":7071,"inum":7072,"Ġsing":7073,"Ġbukit":7074,"Ġkitab":7075,"ebatan":7076,"ĠStar":7077,"ĠAug":7078,"ulin":7079,"Ġmemaksa":7080,"Ġmengobati":7081,"ĠTop":7082,"Ġrambut":7083,"ĠHTML":7084,"ĠGran":7085,"Ġfamili":7086,"ĠFe":7087,"anja":7088,"Ġdibedakan":7089,"Ġpendudukan":7090,"ingkatkan":7091,"Ġkebiasaan":7092,"onomian":7093,"Ġkrom":7094,"Ġ1944":7095,"Ġpernikahan":7096,"Ġrok":7097,"ĠMalaka":7098,"organisasi":7099,"Ġvariabel":7100,"Ġbendera":7101,"arganegaraan":7102,"LA":7103,"VID":7104,"eam":7105,"kitab":7106,"nd":7107,"ois":7108,"Ġdebut":7109,"akat":7110,"Ġdias":7111,"ult":7112,"ĠBet":7113,"ĠBul":7114,"ĠBakteri":7115,"rot":7116,"ĠLog":7117,"antis":7118,"istis":7119,"ambi":7120,"ĠĠĠĠĠĠĠĠĠĠĠĠĠĠĠĠĠĠĠĠĠĠĠĠĠĠĊ":7121,"uary":7122,"Ġmendarat":7123,"ugian":7124,"ences":7125,"Ġdiperb":7126,"ĠProject":7127,"ustru":7128,"ĠStock":7129,"ĠStates":7130,"Ġkrim":7131,"Ġ1946":7132,"ĠSebaliknya":7133,"Ġantibiotik":7134,"Ġpandemi":7135,"ĠSalib":7136,"ĠSalahuddin":7137,"Ġpercobaan":7138,"lavia":7139,"itraan":7140,"congloe":7141,"ĠAkademi":7142,"ariwisata":7143,"ON":7144,"Ġpir":7145,"Ġtengg":7146,"Ġtampil":7147,"Ġkaisar":7148,"eling":7149,"ĠKing":7150,"ĠDevelopment":7151,"ĠRus":7152,"termasuk":7153,"otongan":7154,"Ġover":7155,"osof":7156,"Ġseluler":7157,"stana":7158,"Ġketat":7159,"oca":7160,"Ġseharusnya":7161,"Ġtanggapan":7162,"eknik":7163,"istribusikan":7164,"ĠTetapi":7165,"Ġratusan":7166,"AA":7167,"Am":7168,"Komb":7169,"Para":7170,"rary":7171,"Î±":7172,"Ġemp":7173,"Ġkinerja":7174,"esaan":7175,"ĠMeski":7176,"ĠBatu":7177,"ĠTar":7178,"imat":7179,"Ġpenilaian":7180,"ĠFrancis":7181,"ampur":7182,"Ġvisual":7183,"Ġprajurit":7184,"ree":7185,"Ġdirencanakan":7186,"Ġbertentangan":7187,"ĠStatus":7188,"Ġberpindah":7189,"Ġkritis":7190,"Ġmau":7191,"ĠMiliter":7192,"ography":7193,"plorasi":7194,"Da":7195,"El":7196,"Namun":7197,"Penc":7198,"Terdapat":7199,"mati":7200,"Ġbabi":7201,"ĠSand":7202,"uton":7203,"ĠBak":7204,"Ġinfrastruktur":7205,"Ġrit":7206,"Ġrasi":7207,"Ġrapat":7208,"Ġreferensi":7209,"Ġgua":7210,"ĠHit":7211,"Ġmelebih":7212,"Ġmeluas":7213,"Ġwahana":7214,"ĠFri":7215,"iber":7216,"Ġdilanjutkan":7217,"Ġprasasti":7218,"Ġpelajaran":7219,"Ġ45":7220,"Ġberdampak":7221,"Ġ1982":7222,"}}\\":7223,"izi":7224,"Ġkalender":7225,"ĠIrak":7226,"ĠMartin":7227,"ĠMosk":7228,"irmasi":7229,"Ġlangit":7230,"EE":7231,"Ia":7232,"SN":7233,"Ġnya":7234,"eno":7235,"Ġso":7236,"Ġsir":7237,"isolasi":7238,"Ġmenilai":7239,"Ġmenuntut":7240,"ĠMorgan":7241,"ĠBern":7242,"Ġhamil":7243,"Ġmengkr":7244,"ĠCatatan":7245,"ĠJon":7246,"ĠNi":7247,"Ġpengertian":7248,"Ġmembaca":7249,"empor":7250,"Ġmembuatnya":7251,"epatitis":7252,"Ġrezim":7253,"Ġpenjara":7254,"Ġkurangnya":7255,"kuit":7256,"Ġkubis":7257,"injauan":7258,"Ġinfluenza":7259,"96":7260,"98":7261,"SC":7262,"mo":7263,"mem":7264,"ric":7265,"sche":7266,"Ä«":7267,"Ġmandiri":7268,"astr":7269,"unkan":7270,"adaptasi":7271,"apak":7272,"Ġberalih":7273,"Ġperut":7274,"Ġjustru":7275,"ĠNik":7276,"ĠHy":7277,"ampa":7278,"Ġproperti":7279,"ecahan":7280,"rix":7281,"gresi":7282,"Ġditampilkan":7283,"Ġmemperkirakan":7284,"aksasa":7285,"ĠTimes":7286,"ĠSoya":7287,"Ġpenjelasan":7288,"Ġkaryawan":7289,"ities":7290,"ĠPasukan":7291,"ĠBiasanya":7292,"Ġnano":7293,"Ġtombol":7294,"74":7295,"FF":7296,"eni":7297,"Ġsl":7298,"Ġtuntutan":7299,"unsur":7300,"Ġkuliah":7301,"ebook":7302,"ista":7303,"uruk":7304,"Ġmengenal":7305,"Ġri":7306,"Ġpengamatan":7307,"endemen":7308,"ativ":7309,"ĠEth":7310,"indo":7311,"Ġmendeteksi":7312,"manen":7313,"Ġmemperbaiki":7314,"Ġkompetisi":7315,"estik":7316,"ucu":7317,"orts":7318,"Ġ1943":7319,"Ġbersih":7320,"Ġpsikologis":7321,"ĠDPRD":7322,"yanogen":7323,"ĠModern":7324,"ĠPakistan":7325,"Ġerat":7326,"Ġpegawai":7327,"ĠLinux":7328,"Negara":7329,"dik":7330,"get":7331,"enian":7332,"Ġtra":7333,"Ġkul":7334,"Ġdiyakini":7335,"emia":7336,"uto":7337,"umor":7338,"ĠMik":7339,"ĠIk":7340,"Ġrudal":7341,"iansi":7342,"embal":7343,"acy":7344,"ots":7345,"Ġpemegang":7346,"Ġkelamin":7347,"Ġmenghabiskan":7348,"Ġkedokteran":7349,"ĠAdams":7350,"Ġminuman":7351,"Ġpunah":7352,"Ġmengenakan":7353,"erluan":7354,"Ġlogika":7355,"Ġkeselamatan":7356,"ĠMoncongloe":7357,"Ġdinamai":7358,"Ġdomain":7359,"Ġmitologi":7360,"eskripsikan":7361,"Str":7362,"ashi":7363,"Ġmenya":7364,"Ġmenambah":7365,"inger":7366,"utin":7367,"usta":7368,"ĠMont":7369,"akanan":7370,"ungutan":7371,"ĠDek":7372,"ĠDid":7373,"Ġpenutup":7374,"ĠNur":7375,"ĠGi":7376,"Ġbahaya":7377,"usiaan":7378,"Ġpra":7379,"Ġberkontribusi":7380,"ign":7381,"Ġsuasana":7382,"Ġharta":7383,"Ġberharga":7384,"timurung":7385,"ĠiOS":7386,"1999":7387,"Ġ1956":7388,"seud":7389,"Ġinvestor":7390,"Ġkamar":7391,"Ġmulut":7392,"ĠSeni":7393,"Ġtergolong":7394,"Ġpsilosibin":7395,"ittee":7396,"Ġmelebihi":7397,"Edisi":7398,"PM":7399,"juk":7400,"erapan":7401,"Ġpokok":7402,"ĠBukit":7403,"Ġpenambahan":7404,"ĠNat":7405,"ĠHi":7406,"Ġ1920":7407,"Ġpengurangan":7408,"Ġmelambangkan":7409,"ĠUK":7410,"ophy":7411,"Ġvert":7412,"Ġmenduduki":7413,"Ġditambah":7414,"Ġkerap":7415,"Ġpres":7416,"Ġkebakaran":7417,"Ġkedaul":7418,"Ġtanggung":7419,"2001":7420,"Ġ1981":7421,"Ġhukuman":7422,"1997":7423,"Ġdominan":7424,"ĠKetiga":7425,"ĠCOVID":7426,"ĠEffect":7427,"Ġmengundurkan":7428,"Ġkedaulatan":7429,"Masa":7430,"bital":7431,"ÑĢ":7432,"Ġpur":7433,"Ġbat":7434,"Ġkg":7435,"Ġmenonjol":7436,"ĠKop":7437,"ĠBill":7438,"Ġhektar":7439,"Ġjurnal":7440,"ĠHong":7441,"olehkan":7442,"Ġmenyusun":7443,"osida":7444,"Ġkoneksi":7445,"inder":7446,"Ġkeperluan":7447,"Ġketer":7448,"inea":7449,"ugat":7450,"ization":7451,"Ġtakut":7452,"ross":7453,"klusif":7454,"Ġmenyelenggarakan":7455,"Ġpedagang":7456,"Karya":7457,"Ġfilsuf":7458,"erjakan":7459,"Ġperguruan":7460,"omosikan":7461,"Ġliberal":7462,"ĠBantimurung":7463,"elilingi":7464,"EC":7465,"New":7466,"tin":7467,"Ġpriv":7468,"unahan":7469,"add":7470,"orak":7471,"ĠPand":7472,"olakan":7473,"Ġterminal":7474,"ĠAI":7475,"ulosis":7476,"Ġmemisahkan":7477,"Ġrute":7478,"ĠCre":7479,"Ġwarisan":7480,"ĠFar":7481,"anggapi":7482,"Ġpemilu":7483,"Ġkarb":7484,"asilitasi":7485,"Ġpembagian":7486,"Ġsejauh":7487,"unculan":7488,"ancar":7489,"umpai":7490,"angsaan":7491,"Ġ1968":7492,"Ġsosialisme":7493,"opuler":7494,"menia":7495,"Ġmakin":7496,"Ġtembakau":7497,"Ġsempurna":7498,"Ġgrafis":7499,"hip":7500,"kol":7501,"td":7502,"Ġpip":7503,"Ġparu":7504,"Ġsand":7505,"Ġbeta":7506,"ĠSah":7507,"Ġberupaya":7508,"ĠKantor":7509,"ukunya":7510,"tukaran":7511,"ĠDok":7512,"Ġmengukur":7513,"Ġpenangkapan":7514,"Ġcinta":7515,"ĠGl":7516,"angkitan":7517,"empah":7518,"Ġdibawah":7519,"erial":7520,"ĠAmbon":7521,"Ġberkata":7522,"ĠPemilu":7523,"Ġtakhta":7524,"Ġtransfer":7525,"Ġ1958":7526,"ĠEks":7527,"retariat":7528,"faatan":7529,"ĠFinlandia":7530,"Ġdarurat":7531,"ĠSehingga":7532,"Ġtajam":7533,"ĠBatavia":7534,"John":7535,"PK":7536,"keb":7537,"Ġmutasi":7538,"Ġpita":7539,"alum":7540,"Ġsab":7541,"Ġdiganti":7542,"ebarkan":7543,"iler":7544,"oleran":7545,"itmen":7546,"ĠMotor":7547,"Ġpermasalahan":7548,"ĠDec":7549,"ataan":7550,"udang":7551,"awak":7552,"ĠNa":7553,"try":7554,"ĠHard":7555,"ajer":7556,"Ġpengendalian":7557,"Ġmelahir":7558,"osok":7559,"empa":7560,"ensial":7561,"Ġdipasang":7562,"Ġdilarang":7563,"Ġpelaku":7564,"Ġdiperd":7565,"Ġberpotensi":7566,"ĠAdam":7567,"Ġ1974":7568,"mentasi":7569,"Ġbeban":7570,"Ġsiapa":7571,"Ġblack":7572,"Ġulasan":7573,"ĠJoseph":7574,"ĠAssociation":7575,"Ġsamudra":7576,"Ġtransisi":7577,"Ġrumput":7578,"Ġketerlibatan":7579,"Kombes":7580,"Ġmelahirkan":7581,"',":7582,"Efek":7583,"Kon":7584,"Kec":7585,"oter":7586,"anin":7587,"ateral":7588,"Ġpapan":7589,"akna":7590,"Ġlantai":7591,"ĠMi":7592,"araja":7593,"Ġmenguntungkan":7594,"Ġraksasa":7595,"Ġadil":7596,"Ġcipta":7597,"Ġpengakuan":7598,"Ġmenyetujui":7599,"intendo":7600,"utub":7601,"Ġharapan":7602,"Ġdimakan":7603,"ihatkan":7604,"Ġwebsite":7605,"Ġcontohnya":7606,"Ġtipis":7607,"Ġsaud":7608,"ĠStudies":7609,"Ġmempromosikan":7610,"Ġmaksimum":7611,"ĠLingkungan":7612,"De":7613,"SI":7614,"kon":7615,"mah":7616,"well":7617,"zu":7618,"}=":7619,"Ġuran":7620,"anaman":7621,"Ġpant":7622,"iks":7623,"ĠSurat":7624,"Ġlawan":7625,"ĠBung":7626,"Ġred":7627,"Ġrup":7628,"ĠCentr":7629,"ĠLebih":7630,"ĠUg":7631,"ose":7632,"Ġsepeda":7633,"Ġdikonsumsi":7634,"unjungan":7635,"ancam":7636,"eau":7637,"Ġrekayasa":7638,"Ġfilosof":7639,"ĠLee":7640,"ĠCommittee":7641,"ĠMusik":7642,"Ġkandidat":7643,"Ġrespon":7644,"ĠHatta":7645,"ontalo":7646,"ĠYouTube":7647,"besaran":7648,"ĠDanau":7649,"ĠEncyclopedia":7650,"ĠSemenanjung":7651,"Ġdijalankan":7652,"dom":7653,"oe":7654,"wijaya":7655,"Ġok":7656,"aruan":7657,"Ġmutl":7658,"Ġph":7659,"inspirasi":7660,"Ġstaf":7661,"Ġsintesis":7662,"Ġtarik":7663,"umahan":7664,"Ġpermanen":7665,"ĠTiga":7666,"Ġund":7667,"Ġret":7668,"atanya":7669,"ĠWes":7670,"osit":7671,"Ġpembuat":7672,"Ġbanyaknya":7673,"Ġkebun":7674,"Ġkomandan":7675,"Ġmatemat":7676,"isika":7677,"Ġrob":7678,"Ġreaktor":7679,"ĠOrde":7680,"Ġtersendiri":7681,"ĠNews":7682,"Ġsegi":7683,"ĠPhilip":7684,"Program":7685,"utrad":7686,"Ġoksid":7687,"cript":7688,"Ġalkohol":7689,"ĠCollege":7690,"Ac":7691,"Kel":7692,"Latar":7693,"PN":7694,"Wilayah":7695,"hat":7696,"ps":7697,"reh":7698,"Ø±":7699,"Ġemb":7700,"Ġetika":7701,"Ġdulu":7702,"atukan":7703,"ako":7704,"aktu":7705,"Ġbom":7706,"Ġbass":7707,"apas":7708,"ĠSus":7709,"ĠSid":7710,"Ġperadaban":7711,"ĠLeg":7712,"ĠLuc":7713,"ajikan":7714,"ĠFrom":7715,"ĠURL":7716,"ĠVill":7717,"Ġdisutradarai":7718,"umbuhan":7719,"utanasia":7720,"Ġmeningkatnya":7721,"erlakukan":7722,"Ġ1959":7723,"Proses":7724,"ĠMetode":7725,"injal":7726,"Ġmenyerap":7727,"CLC":7728,"Ġkonvensional":7729,"Dr":7730,"Rep":7731,"eor":7732,"juga":7733,"lok":7734,"mod":7735,"the":7736,"Ġiri":7737,"Ġpangg":7738,"uningan":7739,"Ġbip":7740,"Ġkotor":7741,"elat":7742,"Ġberganti":7743,"ĠMend":7744,"ĠBor":7745,"Ġmengusulkan":7746,"ĠTingkat":7747,"Ġsebaliknya":7748,"Ġrentang":7749,"Ġnil":7750,"ĠJac":7751,"ĠLou":7752,"ĠLtd":7753,"entan":7754,"ĠWah":7755,"ĠWill":7756,"ipati":7757,"Ġdiserahkan":7758,"Ġdipahami":7759,"Ġkeset":7760,"Ġmempertimbangkan":7761,"Ġpolimer":7762,"Ġdirektur":7763,"ĠBelalang":7764,"Ġberpikir":7765,"Perk":7766,"enggaraan":7767,"Ġtransmisi":7768,"1992":7769,"Ġibunya":7770,"Ġfile":7771,"Ġderajat":7772,"Ġtersisa":7773,"ĠApple":7774,"ĠAcademy":7775,"Ġsentral":7776,"Berb":7777,"Mat":7778,"On":7779,"SA":7780,"Sep":7781,"net":7782,"ray":7783,"tempat":7784,"val":7785,"Ġpingg":7786,"alai":7787,"onisasi":7788,"ĠSik":7789,"Ġmenang":7790,"ages":7791,"ĠBandar":7792,"Ġhany":7793,"ĠDAS":7794,"omer":7795,"roses":7796,"Ġginjal":7797,"ĠHasan":7798,"ĠHow":7799,"ĠLos":7800,"Ġpengikut":7801,"Ġwafat":7802,"Ġvarian":7803,"eciras":7804,"ancuran":7805,"Ġ1947":7806,"Ġperkebunan":7807,"ĠKarl":7808,"ĠGrand":7809,"ĠMaha":7810,"ĠReal":7811,"Ġlegislatif":7812,"Ġpidato":7813,"ĠOlympic":7814,"Ġmenetap":7815,"\").":7816,"FC":7817,"Kol":7818,"baru":7819,"lef":7820,"Ã¨":7821,"alem":7822,"Ġbut":7823,"Ġkaca":7824,"aminasi":7825,"ungun":7826,"iris":7827,"edge":7828,"Ġritual":7829,"ĠRama":7830,"taur":7831,"ĠHanya":7832,"perial":7833,"Ġmember":7834,"ĠOc":7835,"Ġkaryanya":7836,"Ġpembukaan":7837,"Ġsemangat":7838,"Ġmenceritakan":7839,"reen":7840,"Ġkecemasan":7841,"Ġobl":7842,"Ġ1972":7843,"ĠAsosiasi":7844,"Ġgram":7845,"Ġmengancam":7846,"Ġinteg":7847,"Ġkampus":7848,"ĠDeath":7849,"ĠPutih":7850,"Ġsusunan":7851,"ĠTechnology":7852,"71":7853,"Hak":7854,"ML":7855,"Pol":7856,"Sc":7857,"Versi":7858,"anusiaan":7859,"sium":7860,"ĠSD":7861,"ĠPost":7862,"Ġlink":7863,"ollo":7864,"itia":7865,"Ġterikat":7866,"ĠMich":7867,"ĠBentuk":7868,"Ġhantu":7869,"ĠRaj":7870,"andakan":7871,"Ġnet":7872,"ĠCom":7873,"ĠWork":7874,"Ġmembran":7875,"Ġakun":7876,"Ġ33":7877,"masalah":7878,"Ġterbit":7879,"2020":7880,"estina":7881,"ĠPenerb":7882,"ĠSoep":7883,"Ġkontribusi":7884,"Sebelum":7885,"Ġsuper":7886,"enze":7887,"ĠPerserikatan":7888,"Ġmentah":7889,"Ġrumit":7890,"ograph":7891,"Ġdisertai":7892,"Ġargumen":7893,"ĠVictor":7894,"Ġkromosom":7895,"Rujukan":7896,"So":7897,"wara":7898,"Ġayam":7899,"Ġsains":7900,"isaris":7901,"ĠPasar":7902,"ĠPegunungan":7903,"ukiman":7904,"Ġmengembalikan":7905,"Ġpemuda":7906,"angkutan":7907,"empurn":7908,"Ġkonstan":7909,"Ġdikuasai":7910,"duktor":7911,"Ġkesatuan":7912,"esktop":7913,"Ġpasang":7914,"Ġtriliun":7915,"Ġeksternal":7916,"angkau":7917,"Perang":7918,"Ġminim":7919,"Ġelekt":7920,"Ġkeluarganya":7921,"ĠManag":7922,"Ġlayak":7923,"oyang":7924,"ĠGram":7925,"Ġlogo":7926,"iayaan":7927,"coin":7928,"organisme":7929,"egiatan":7930,"ĠElec":7931,"Ġmenyerupai":7932,"Ġkosong":7933,"At":7934,"Raja":7935,"barang":7936,"kons":7937,"nel":7938,"oo":7939,"uage":7940,"wang":7941,"yl":7942,"ÙĬ":7943,"enek":7944,"arum":7945,"atch":7946,"Ġpay":7947,"Ġsidang":7948,"Ġtek":7949,"Ġkira":7950,"apasan":7951,"ĠSastra":7952,"ekomunikasi":7953,"ĠBib":7954,"Ġhadiah":7955,"ĠDon":7956,"Ġmengam":7957,"ĠTj":7958,"Ġrangkaian":7959,"ĠNorth":7960,"Ġadik":7961,"ajahan":7962,"usir":7963,"ĠIndo":7964,"ilikon":7965,"ĠPerg":7966,"afi":7967,"Ġpembatasan":7968,"Ġkelima":7969,"Ġpenderit":7970,"Ġkomik":7971,"ave":7972,"eskop":7973,"Ġarke":7974,"ĠBrah":7975,"1993":7976,"Ġmengakses":7977,"ĠSekitar":7978,"ĠPertahanan":7979,"ĠPertengahan":7980,"Ġpeternakan":7981,"ĠKebijakan":7982,"Ġgugatan":7983,"Organ":7984,"ATO":7985,"Ġmagma":7986,"ungguhnya":7987,"Ġpengiriman":7988,"esmikan":7989,"Ġuranium":7990,"Dewan":7991,"ED":7992,"Ex":7993,"Pl":7994,"Pet":7995,"Pusat":7996,"kelompok":7997,"vo":7998,"Ġ|":7999,"arp":8000,"ĠPos":8001,"ektual":8002,"Ġmenu":8003,"Ġliter":8004,"ett":8005,"ukar":8006,"ĠTab":8007,"tay":8008,"esium":8009,"antungan":8010,"Ġpengukuran":8011,"Ġpengambilan":8012,"Ġmenyerah":8013,"ecil":8014,"inggalan":8015,"rea":8016,"Ġ400":8017,"ĠSouth":8018,"Ġperkara":8019,"etail":8020,"incin":8021,"oftware":8022,"pektif":8023,"injaman":8024,"Ġreformasi":8025,"ĠFirenze":8026,"Ġnitrogen":8027,"ĠGorontalo":8028,"Ġspiritual":8029,"63":8030,"Galeri":8031,"MI":8032,"OL":8033,"Ol":8034,"Saya":8035,"Ur":8036,"langga":8037,"Ġanj":8038,"Ġden":8039,"Ġpost":8040,"Ġpaparan":8041,"inia":8042,"Ġtambang":8043,"Ġkamb":8044,"adel":8045,"isnis":8046,"Ġmenandai":8047,"Ġterinfeksi":8048,"ungaria":8049,"awasi":8050,"Ġgubernur":8051,"Ġcitra":8052,"Ġfolk":8053,"antasi":8054,"Ġpengganti":8055,"isitas":8056,"Ġmelanggar":8057,"ebutan":8058,"oder":8059,"ists":8060,"Ġresolusi":8061,"Ġekspresi":8062,"Ġaudio":8063,"And":8064,"ĠKebudayaan":8065,"ĠLibrary":8066,"stansi":8067,"Ġlemak":8068,"Ġtopik":8069,"Ġkosm":8070,"Ġhistoris":8071,"ĠITB":8072,"ĠKuba":8073,"Co":8074,"RA":8075,"Sungai":8076,"Tim":8077,"mus":8078,"oj":8079,"Ã§":8080,"Ùİ":8081,"Ġq":8082,"Ġmg":8083,"Ġpiano":8084,"Ġtali":8085,"Ġbulu":8086,"adana":8087,"ĠParlemen":8088,"esak":8089,"ĠBoy":8090,"tiba":8091,"ĠIl":8092,"ĠGun":8093,"ĠWan":8094,"Ġout":8095,"Ġpemenang":8096,"ĠPerp":8097,"Ġkerugian":8098,"saingan":8099,"Ġpenyedia":8100,"umpan":8101,"Ġbertahap":8102,"Ġperkiraan":8103,"1998":8104,"Ġpenerimaan":8105,"Ġstudio":8106,"Ġoksida":8107,"Ġoperasional":8108,"Ġhilangnya":8109,"Ġpecahan":8110,"Ġhiburan":8111,"ĠMongol":8112,"ĠBanten":8113,"%,":8114,"87":8115,"EA":8116,"Le":8117,"Off":8118,"TC":8119,"bold":8120,"mata":8121,"Â²":8122,"enanya":8123,"artikan":8124,"Ġsend":8125,"emah":8126,"elai":8127,"ĠPed":8128,"urity":8129,"usa":8130,"Ġmengikat":8131,"ĠCard":8132,"ĠJam":8133,"ĠJoh":8134,"ĠNintendo":8135,"ĠHip":8136,"ubarkan":8137,"ĠWright":8138,"Ġpemas":8139,"ikanan":8140,"Ġdibantu":8141,"Ġmenghambat":8142,"Ġmenjamin":8143,"erbang":8144,"Ġpasc":8145,"ĠIsmail":8146,"Ġpesat":8147,"ĠEnter":8148,"ĠSpesies":8149,"azz":8150,"enderungan":8151,"ĠEduc":8152,"ĠDirektorat":8153,"Ġdomestik":8154,"ĠAhmad":8155,"ĠDenmark":8156,"Ġdialek":8157,"duction":8158,"omendasikan":8159,"eurisma":8160,"Ġkudeta":8161,"Ġmengkritik":8162,"bor":8163,"Å¡":8164,"Ùħ":8165,"Ġdamai":8166,"Ġbukunya":8167,"emik":8168,"amera":8169,"ĠSS":8170,"umentasi":8171,"ĠAtas":8172,"ĠBag":8173,"Ġhendak":8174,"ĠTal":8175,"Ġraya":8176,"Ġpenanganan":8177,"acteri":8178,"ents":8179,"ĠOCLC":8180,"Ġvon":8181,"Ġakurat":8182,"ujung":8183,"Ġmendengar":8184,"2024":8185,"achus":8186,"ĠProtes":8187,"avi":8188,"ĠBelgia":8189,"ĠPenj":8190,"ertakan":8191,"Ġ1941":8192,"ather":8193,"1995":8194,"Ġ1930":8195,"ĠKemerdekaan":8196,"Ġmenyimpulkan":8197,"Ġperekonomian":8198,"ĠTaiwan":8199,"\"),":8200,"Pos":8201,"dip":8202,"eimbangan":8203,"yana":8204,"á¨":8205,"iness":8206,"Ġsuka":8207,"Ġsindrom":8208,"kandung":8209,"ĠSK":8210,"ĠSuh":8211,"ĠSeorang":8212,"estr":8213,"Ġlambang":8214,"Ġhulu":8215,"tisida":8216,"edar":8217,"iana":8218,"ĠResi":8219,"Ġpenampilan":8220,"awin":8221,"ĠNH":8222,"ĠGh":8223,"ĠGedung":8224,"Ġpengusaha":8225,"Ġselam":8226,"eff":8227,"Ġkonsisten":8228,"Ġditandatangani":8229,"Ġdipublikasikan":8230,"evan":8231,"2016":8232,"ĠSelandia":8233,"Ġkompati":8234,"pres":8235,"ĠStev":8236,"Ġkriteria":8237,"Ġpernapasan":8238,"Ġpolitikus":8239,"awatiran":8240,"Ġskor":8241,"waktu":8242,"ĠEdward":8243,"Ġblog":8244,"Ġradioaktif":8245,"ĠKomunikasi":8246,"ĠOnline":8247,"Ġdiamati":8248,"Ġdiameter":8249,"Ġpropelan":8250,"ĠAviv":8251,"erminkan":8252,"ĠHenry":8253,"ĠRatna":8254,"Ġpengasingan":8255,"Asal":8256,"jenis":8257,"klin":8258,"parti":8259,"ys":8260,"enam":8261,"ĠpH":8262,"Ġtayang":8263,"Ġtaiko":8264,"Ġberas":8265,"Ġterinspirasi":8266,"ĠMun":8267,"ĠBaik":8268,"ĠBintang":8269,"tip":8270,"ĠIMD":8271,"Ġrancangan":8272,"abar":8273,"ĠNot":8274,"truk":8275,"Ġfos":8276,"Ġprot":8277,"Ġselamat":8278,"ĠĠĠĠĠĠĠĠĠĠĠĠĠĠĠĠĠĠĠĠĠĠĠĠĠĠĠĠĊ":8279,"Ġantena":8280,"Ġmask":8281,"Ġ36":8282,"igran":8283,"2017":8284,"2021":8285,"Ġekologi":8286,"anyikan":8287,"Ġberpusat":8288,"ombinasi":8289,"ĠDeep":8290,"Ġoptik":8291,"Ġperhitungan":8292,"Ġsukar":8293,"Ġnyeri":8294,"ĠHidayat":8295,"ĠAlgeciras":8296,"Ġputranya":8297,"ĠGranada":8298,"utradara":8299,"'.":8300,"84":8301,"Kek":8302,"OH":8303,"ype":8304,"arch":8305,"Ġkalau":8306,"Ġditur":8307,"adat":8308,"isen":8309,"ĠSaw":8310,"ĠSisi":8311,"ĠPlanet":8312,"etes":8313,"ĠBang":8314,"iringan":8315,"upiter":8316,"ĠInformation":8317,"endam":8318,"pers":8319,"osil":8320,"Ġveg":8321,"Ġatlet":8322,"ĠAnn":8323,"Ġpeluang":8324,"Ġkomando":8325,"umpah":8326,"ĠZub":8327,"ĠAsasi":8328,"lass":8329,"Ġpentingnya":8330,"ografer":8331,"Ġperdebatan":8332,"Ġ1955":8333,"Ġmerekam":8334,"ĠâĪĳ":8335,"Ġtabung":8336,"ĠSmith":8337,"Ġakademik":8338,"ĠEuropean":8339,"Ġpenganut":8340,"Ġtebal":8341,"Ġkotak":8342,"Ber":8343,"Hal":8344,"Rob":8345,"cl":8346,"lihat":8347,"mur":8348,"panjang":8349,"rol":8350,"ville":8351,"Ġamat":8352,"atrium":8353,"Ġpagi":8354,"Ġsasaran":8355,"Ġkala":8356,"ape":8357,"Ġmenahan":8358,"ĠKy":8359,"ĠBon":8360,"ĠDante":8361,"embahan":8362,"ĠCara":8363,"Ġgurun":8364,"Ġgrav":8365,"ĠNATO":8366,"Ġfiksi":8367,"Ġseleksi":8368,"Ġoff":8369,"Ġterdaftar":8370,"Ġkekalahan":8371,"prinsip":8372,"inansial":8373,"Ġmenunjuk":8374,"ĠShin":8375,"ĠIbu":8376,"ĠKecil":8377,"ĠPalembang":8378,"Ġpraktis":8379,"Ġsarjana":8380,"Ġpemberontak":8381,"ĠMassachus":8382,"ĠAtlantik":8383,"Ġtertarik":8384,"Jepang":8385,"Kh":8386,"Nya":8387,"UU":8388,"dian":8389,"ktika":8390,"uch":8391,"ÙĨ":8392,"Ġamp":8393,"Ġest":8394,"Ġmalu":8395,"Ġsaw":8396,"unting":8397,"ĠSap":8398,"esc":8399,"eser":8400,"Ġmenara":8401,"Ġledakan":8402,"Ġintr":8403,"Ġmengej":8404,"Ġ150":8405,"Ġrentan":8406,"Ġneb":8407,"ĠHIV":8408,"esign":8409,"Ġmelancarkan":8410,"otanya":8411,"ambung":8412,"Ġkemanusiaan":8413,"Ġdipegang":8414,"ĠSelat":8415,"Ġkomoditas":8416,"aksikan":8417,"daerah":8418,"erto":8419,"text":8420,"ĠAstr":8421,"aniel":8422,"erland":8423,"ategor":8424,"Ġkoleksi":8425,"Ġdiselesaikan":8426,"ulture":8427,"Ġkuant":8428,"Ġkritikus":8429,"Ġrasio":8430,"emporer":8431,"ĠProtestan":8432,"95":8433,"leks":8434,"pemb":8435,"á¹":8436,"enario":8437,"atuhan":8438,"Ġkalah":8439,"Ġdialami":8440,"ĠSaf":8441,"ĠPaus":8442,"ĠAgr":8443,"ulum":8444,"ĠBagi":8445,"Ġmemeriksa":8446,"ĠTom":8447,"Ġrutin":8448,"Ġfer":8449,"ĠWir":8450,"Ġmembagi":8451,"ĠFer":8452,"anggotaan":8453,"ibut":8454,"angkatan":8455,"Ġbaris":8456,"ĠPrinc":8457,"Ġkehadiran":8458,"ature":8459,"engkapan":8460,"Ġpencegahan":8461,"intangi":8462,"Ġtepatnya":8463,"iskin":8464,"ĠMax":8465,"esuaian":8466,"Ġlarut":8467,"Ġlandasan":8468,"Kedutaan":8469,"Hukum":8470,"Pang":8471,"Pasal":8472,"paru":8473,"rak":8474,"view":8475,"anah":8476,"anaan":8477,"Ġsit":8478,"Ġkunjungan":8479,"Ġdiukur":8480,"etts":8481,"olos":8482,"Ġberumur":8483,"ĠKawasan":8484,"ĠDik":8485,"Ġjantan":8486,"Ġrev":8487,"Ġkeadilan":8488,"ĠLim":8489,"aceae":8490,"ubur":8491,"Ġcap":8492,"ody":8493,"heimer":8494,"rio":8495,"ĠYas":8496,"ĠVo":8497,"Ġditolak":8498,"Ġmencerminkan":8499,"Ġdipelajari":8500,"ĠAlbert":8501,"manfaat":8502,"Perusahaan":8503,"Ġminimal":8504,"ĠTanaman":8505,"symbol":8506,"Ġdinamis":8507,"Ġimplement":8508,"Ġhipotesis":8509,"ĠOffice":8510,"Kabupaten":8511,"ĠSejumlah":8512,"ĠHitler":8513,"Bur":8514,"EN":8515,"Sy":8516,"fungsi":8517,"ky":8518,"kah":8519,"Ġit":8520,"Ġbaku":8521,"adir":8522,"esaian":8523,"Ġht":8524,"ĠDim":8525,"eher":8526,"imi":8527,"Ġriset":8528,"act":8529,"Ġfinal":8530,"ĠEst":8531,"ĠFort":8532,"ipulasi":8533,"ĠOne":8534,"ĠPerl":8535,"obe":8536,"obel":8537,"ĠDivisi":8538,"Ġkecelakaan":8539,"Ġkekebalan":8540,"ersediaan":8541,"ĠState":8542,"ĠAdapun":8543,"ĠKonsep":8544,"ĠPalestina":8545,"Ġideologi":8546,"ĠTeater":8547,"ĠMedan":8548,"Ġidentik":8549,"Ġpaladium":8550,"onfirmasi":8551,"anthus":8552,"boldsymbol":8553,"ĠIMDb":8554,"ĠMassachusetts":8555,"85":8556,"94":8557,"It":8558,"Mal":8559,"RC":8560,"bahan":8561,"gaskan":8562,"otr":8563,"Ñģ":8564,"Ġpaksa":8565,"asit":8566,"Ġtabel":8567,"Ġdiadopsi":8568,"Ġlangka":8569,"ited":8570,"itorial":8571,"ĠAth":8572,"Ġpertukaran":8573,"ĠBir":8574,"Ġmemindahkan":8575,"idemi":8576,"Ġjenderal":8577,"Ġjamban":8578,"edral":8579,"Ġrec":8580,"ĠRas":8581,"Ġnom":8582,"ĠCy":8583,"ĠCek":8584,"ĠCont":8585,"awakan":8586,"egoro":8587,"Ġadegan":8588,"ĠLayanan":8589,"acak":8590,"anjangan":8591,"enaz":8592,"ingginya":8593,"Ġdiletakkan":8594,"Ġpresi":8595,"raz":8596,"Ġarmada":8597,"Ġditerjemahkan":8598,"azim":8599,"urnamen":8600,"ĠClub":8601,"Pembentukan":8602,"Pembangkit":8603,"ĠSinode":8604,"Ġlipat":8605,"ĠReview":8606,"Ġintelektual":8607,"Ġeksperimen":8608,"Ġmetabolisme":8609,"yanogenMod":8610,"Ġirigasi":8611,"Ġpenderitaan":8612,"Ġnebula":8613,"82":8614,"Air":8615,"Be":8616,"Reaksi":8617,"ae":8618,"kem":8619,"Ġumb":8620,"inam":8621,"aktur":8622,"Ġkekaisaran":8623,"ĠSama":8624,"ekor":8625,"Ġbereaksi":8626,"Ġmengisi":8627,"ihkan":8628,"ĠHon":8629,"ĠLew":8630,"ampi":8631,"Ġmenyukai":8632,"Ġkepulauan":8633,"Ġditunjukkan":8634,"uransi":8635,"lahraga":8636,"Ġberkomunikasi":8637,"ugerah":8638,"ift":8639,"oriz":8640,"Ġdiminta":8641,"Ġdimodifikasi":8642,"owo":8643,"Ġmenjalin":8644,"illus":8645,"Ġditugaskan":8646,"1996":8647,"spedisi":8648,"urnian":8649,"Ġpenulisan":8650,"Ġmurid":8651,"Ġstabilitas":8652,"ĠSimal":8653,"Sementara":8654,"Ġsempit":8655,"ocaust":8656,"Ġbipolar":8657,".âĢĿ":8658,"DM":8659,"Min":8660,"Mic":8661,"bag":8662,"jam":8663,"pulau":8664,"rab":8665,"ze":8666,"Ġdeb":8667,"alitas":8668,"akangan":8669,"Ġbatasan":8670,"emas":8671,"yair":8672,"ĠSaya":8673,"Ġberinter":8674,"ĠAyah":8675,"ĠKampung":8676,"ĠBenteng":8677,"Ġmengoperasikan":8678,"andu":8679,"ĠJadi":8680,"Ġgam":8681,"ĠNO":8682,"ĠNic":8683,"Ġadap":8684,"ĠLock":8685,"ache":8686,"Ġdibatasi":8687,"integrasi":8688,"Ġaktor":8689,"rijadi":8690,"Ġsekelompok":8691,"ĠYear":8692,"chen":8693,"Ġmencetak":8694,"Ġberkumpul":8695,"reat":8696,"aksaan":8697,"Ġorbital":8698,"tivisme":8699,"ĠZh":8700,"Ġanaknya":8701,"ĠPolda":8702,"ustin":8703,"}}_{":8704,"Ġtransl":8705,"ĠGreg":8706,"astis":8707,"Ġintegrasi":8708,"ĠGowa":8709,"Ġjabatannya":8710,"idiki":8711,"Ġtempur":8712,"ĠColumb":8713,"erjaan":8714,"ĠPDI":8715,"Ġfotografi":8716,"ĠPhilos":8717,"ĠGolkar":8718,"Ġditurunkan":8719,"++":8720,"Im":8721,"bas":8722,"field":8723,"iaran":8724,"sman":8725,"ery":8726,"ereng":8727,"enya":8728,"Ġpunc":8729,"Ġdist":8730,"onya":8731,"ingu":8732,"uting":8733,"Ġteratur":8734,"ĠKus":8735,"Ġinsiden":8736,"Ġmengganti":8737,"Ġjembatan":8738,"Ġpensi":8739,"Ġnasi":8740,"ĠHouse":8741,"ĠGel":8742,"Ġwabah":8743,"Ġmembuktikan":8744,"odon":8745,"ibu":8746,"rani":8747,"Ġketak":8748,"ream":8749,"ĠArmenia":8750,"Ġkecenderungan":8751,"ĠAdv":8752,"Ġlingkup":8753,"1994":8754,"Ġsegar":8755,"ektrum":8756,"Ġkabur":8757,"ĠKhusus":8758,"ĠâĪĤ":8759,"Ġsupaya":8760,"ĠAirlangga":8761,"Ġsystem":8762,"tokoh":8763,"Ġuniversal":8764,"tlee":8765,"Ġvarietas":8766,"erusalem":8767,"ĠAhli":8768,"Ġefisiensi":8769,"Ġpoin":8770,"Ġekspedisi":8771,"ordinat":8772,"Ġmemfasilitasi":8773,"Ġadministratif":8774,"ĠMoskow":8775,"ampaui":8776,"partial":8777,"Ġhttp":8778,"\";":8779,"300":8780,"SL":8781,"ioid":8782,"pura":8783,"rut":8784,"semb":8785,"alisasi":8786,"alth":8787,"Ġsensi":8788,"Ġkuda":8789,"Ġlaju":8790,"uss":8791,"ĠMari":8792,"Ġhorm":8793,"ĠNet":8794,"ĠHubungan":8795,"ĠLit":8796,"ajakan":8797,"ĠPerangkat":8798,"Ġdibanding":8799,"ĠVirus":8800,"Ġketahanan":8801,"evaluasi":8802,"toran":8803,"ugos":8804,"Ġsesungguhnya":8805,"istry":8806,"Ġekonom":8807,"ĠPenghargaan":8808,"Ġkronis":8809,"Ġlingkaran":8810,"ĠEnd":8811,"ĠMalang":8812,"Ġ1953":8813,"Sebagian":8814,"umania":8815,"Ġeditor":8816,"Ġmonarki":8817,"Ġmikroskop":8818,"Ġperpustakaan":8819,"ĠSimon":8820,"ujudkan":8821,"ĠJoss":8822,"ĠSystems":8823,"ĠKejuaraan":8824,"ĠEurope":8825,"ĠAntarktika":8826,"Ġmengakuisisi":8827,"arakteristik":8828,"ĠZubair":8829,"Ġpunca":8830,"Kal":8831,"Ob":8832,"Re":8833,"balik":8834,"iod":8835,"komp":8836,"oitasi":8837,"pes":8838,"rida":8839,"wilayah":8840,"enter":8841,"arbon":8842,"Ġpinjaman":8843,"Ġtangk":8844,"Ġbunuh":8845,"adasi":8846,"elam":8847,"elus":8848,"ĠPid":8849,"ĠPac":8850,"ĠPower":8851,"eseran":8852,"Ġli":8853,"Ġlong":8854,"olok":8855,"Ġterancam":8856,"uko":8857,"ĠBob":8858,"ĠBatang":8859,"Ġruntu":8860,"Ġriwayat":8861,"Ġkesi":8862,"ĠCandi":8863,"ĠHend":8864,"ĠLalu":8865,"Ġpengeb":8866,"Ġpemungutan":8867,"opoli":8868,"ĠPeristiwa":8869,"Ġakut":8870,"aft":8871,"artawan":8872,"Ġasas":8873,"Ġterlepas":8874,"Ġstatistik":8875,"ombongan":8876,"unggulan":8877,"Ġdinilai":8878,"tikel":8879,"ĠManajemen":8880,"Ġkontemporer":8881,"Ġsegmen":8882,"Ġhidung":8883,"ĠDaun":8884,"Ġpatung":8885,"elompokkan":8886,"Ġpedesaan":8887,"ĠPutri":8888,"Ġpenerbit":8889,"Ã¡n":8890,"ĠInfin":8891,"Ġbetina":8892,"Metode":8893,"Ġbasah":8894,"Ġeksekutif":8895,"Ġhanyalah":8896,"ĠSimalungun":8897,"Ġberinteraksi":8898,"Bagian":8899,"Fungsi":8900,"Keluarga":8901,"Mon":8902,"Riwayat":8903,"eed":8904,"ÑĤ":8905,"Ġmiskin":8906,"Ġtingkatan":8907,"akian":8908,"Ġbon":8909,"ador":8910,"ĠSuku":8911,"ĠPHP":8912,"Ġberagama":8913,"Ġbermanfaat":8914,"agon":8915,"ĠBola":8916,"Ġhangat":8917,"Ġmengontrol":8918,"ĠTang":8919,"ĠTun":8920,"ĠRencana":8921,"ĠCentral":8922,"ĠJalur":8923,"Ġmerug":8924,"oku":8925,"Ġfinansial":8926,"osin":8927,"Ġselada":8928,"oplas":8929,"Ġdikenakan":8930,"ĠDiper":8931,"ĠAmir":8932,"tury":8933,"Ġkesuk":8934,"Ġbersek":8935,"Ġkonservasi":8936,"Ġsenar":8937,"Ġspons":8938,"inium":8939,"ĠISO":8940,"Ġdemam":8941,"lish":8942,"Ġbernilai":8943,"Ġmengand":8944,"Ġacak":8945,"Ġ1938":8946,"ĠHealth":8947,"ĠBursa":8948,"Ġpemrosesan":8949,"Ġgugur":8950,"ĠSolo":8951,"Ġbenih":8952,"Ġmemperlihatkan":8953,"Orang":8954,"Ġtegangan":8955,"ĠDarwin":8956,"ĠSebelumnya":8957,"Ġanalog":8958,"yawarah":8959,"ĠHarvard":8960,"ĠRoyal":8961,"97":8962,"Austr":8963,"EL":8964,"Struktur":8965,"Windows":8966,"dit":8967,"fur":8968,"kamp":8969,"vei":8970,"aro":8971,"Ġtapol":8972,"Ġdisip":8973,"emis":8974,"amoto":8975,"onesi":8976,"ebas":8977,"ische":8978,"ĠSya":8979,"ĠSes":8980,"Ġmenular":8981,"Ġmenaklukkan":8982,"ĠKn":8983,"Ġmengajar":8984,"Ġjagung":8985,"ĠJack":8986,"Ġgul":8987,"Ġgro":8988,"Ġcadangan":8989,"Ġfed":8990,"ĠWina":8991,"Ġwar":8992,"ĠFI":8993,"icy":8994,"Ġvektor":8995,"Ġdiklasifikasi":8996,"Ġdisahkan":8997,"Ġdisukai":8998,"utuh":8999,"Ġpeladen":9000,"iff":9001,"Ġdimak":9002,"ĠChic":9003,"ĠMary":9004,"ĠBrun":9005,"raft":9006,"ofil":9007,"Ġdinasti":9008,"ĠMasjid":9009,"ufaktur":9010,"ĠThera":9011,"ervatif":9012,"ĠPlant":9013,"ĠMusic":9014,"ĠKapal":9015,"Ġpenyelenggaraan":9016,"ĠSciences":9017,"alifah":9018,"Ġklorida":9019,"inyur":9020,"Ġkekhawatiran":9021,"ĠSoeprijadi":9022,"Ġgravitasi":9023,"Amar":9024,"Faktor":9025,"UM":9026,"ciri":9027,"laim":9028,"yr":9029,"Ġpunya":9030,"Ġpakar":9031,"Ġbambu":9032,"Ġkac":9033,"Ġdiusulkan":9034,"Ġditay":9035,"ĠSut":9036,"ĠPantai":9037,"Ġpersaingan":9038,"ĠKari":9039,"Ġhepatitis":9040,"ĠDev":9041,"ĠDuta":9042,"ĠDusun":9043,"ĠTas":9044,"ĠCinta":9045,"ĠJuga":9046,"ĠHungaria":9047,"Ġfac":9048,"endela":9049,"Ġkepunahan":9050,"ĠVi":9051,"Ġpembuluh":9052,"Ġdipas":9053,"ĠAlat":9054,"ĠAlkitab":9055,"Ġkonser":9056,"Ġ72":9057,"Ġdihentikan":9058,"Ġdijumpai":9059,"Ġkoloni":9060,"erakkan":9061,"ĠPelabuhan":9062,"ĠBooks":9063,"Ġsiang":9064,"ĠSolok":9065,"Ġtegak":9066,"barui":9067,"ĠFacebook":9068,"ĠKonferensi":9069,"Ġcokelat":9070,"mathb":9071,"Ġbersaing":9072,"Ġkerjasama":9073,"Ġsoal":9074,"left":9075,"Ġnetral":9076,"ugoslavia":9077,"Ġditayangkan":9078,"%)":9079,"dr":9080,"je":9081,"pan":9082,"wood":9083,"zer":9084,"ening":9085,"ating":9086,"inkan":9087,"onegoro":9088,"Ġdanau":9089,"oreng":9090,"Ġlist":9091,"Ġlini":9092,"uring":9093,"Ġtermal":9094,"ĠMA":9095,"ĠAwalnya":9096,"ĠKamb":9097,"ĠKaz":9098,"ĠIP":9099,"ĠDewi":9100,"Ġmengur":9101,"edah":9102,"edel":9103,"iminasi":9104,"ĠRub":9105,"ĠCel":9106,"udin":9107,"ĠNilai":9108,"ĠLab":9109,"Ġcomm":9110,"Ġcincin":9111,"pert":9112,"icus":9113,"rane":9114,"Ġvaksinasi":9115,"Ġdibintangi":9116,"Ġditinggal":9117,"Ġkerabat":9118,"Ġterbanyak":9119,"igurasi":9120,"ĠArsip":9121,"Ġ42":9122,"migrasi":9123,"ĠAsh":9124,"Ġminum":9125,"Ġroda":9126,"Ġperlahan":9127,"Ġpasif":9128,"ĠAndr":9129,"Ġjangkauan":9130,"Ġnanop":9131,"rown":9132,"Ġnorma":9133,"ederhan":9134,"Ġreseptor":9135,"Setiap":9136,"Ġdisiplin":9137,"Amaranthus":9138,"%),":9139,")}":9140,"Gangguan":9141,"Konf":9142,"NT":9143,"RD":9144,"Teknologi":9145,"ble":9146,"kep":9147,"kom":9148,"Ġentitas":9149,"Ġmandi":9150,"attle":9151,"Ġtes":9152,"Ġbib":9153,"ikatan":9154,"ĠStaf":9155,"Ġmenandakan":9156,"Ġletak":9157,"Ġleher":9158,"umuskan":9159,"ĠAD":9160,"ĠBCA":9161,"ĠDoc":9162,"ĠTs":9163,"Ġjej":9164,"ede":9165,"Ġkey":9166,"ĠHidup":9167,"ĠInj":9168,"ĠGerman":9169,"ici":9170,"ĠPerj":9171,"Ġbias":9172,"Ġmenghormati":9173,"Ġsedimen":9174,"Ġekspor":9175,"Ġterpaksa":9176,"htm":9177,"Ġ1936":9178,"Ġintensif":9179,"Ġmahkota":9180,"box":9181,"ĠPuteri":9182,"atalog":9183,"ĠHolocaust":9184,"Ġpeperangan":9185,"Ġmengandalkan":9186,"Fakultas":9187,"Hz":9188,"Sat":9189,"dam":9190,"ght":9191,"sumber":9192,"van":9193,"Ġdada":9194,"aret":9195,"inar":9196,"Ġster":9197,"ahi":9198,"isy":9199,"ĠBit":9200,"ĠDay":9201,"Ġrad":9202,"Ġrupa":9203,"ĠHor":9204,"ĠLor":9205,"acillus":9206,"ĠFL":9207,"ĠFungsi":9208,"Ġmenyemb":9209,"angku":9210,"Ġitulah":9211,"ecah":9212,"Ġaktivis":9213,"ĠYugoslavia":9214,"ĠVideo":9215,"Ġmendalam":9216,"Ġterdekat":9217,"Ġkonsol":9218,"ancur":9219,"estarian":9220,"ualian":9221,"Ġeksklusif":9222,"ource":9223,"Ġhasilnya":9224,"Ġbergelar":9225,"1991":9226,"Ġpanen":9227,"cean":9228,"astian":9229,"ĠMinahasa":9230,"ĠMelalui":9231,"sirkan":9232,"Ġartis":9233,"ights":9234,"alihkan":9235,"ĠNusa":9236,"egradasi":9237,"Ġleluhur":9238,"Ġhidroksida":9239,"Perkembangan":9240,"Ġketakutan":9241,"Bahan":9242,"Kota":9243,"enin":9244,"aruskan":9245,"Ġsandi":9246,"Ġdioksida":9247,"eme":9248,"emaran":9249,"siapkan":9250,"ĠPin":9251,"Ġberacun":9252,"Ġterkandung":9253,"ĠAus":9254,"ĠImp":9255,"ĠDick":9256,"ĠTuan":9257,"Ġpenanda":9258,"udh":9259,"ĠHil":9260,"ĠLat":9261,"ĠLuk":9262,"isir":9263,"ision":9264,"usion":9265,"Ġ\"...":9266,"Ġpemisahan":9267,"Ġsepatu":9268,"Ġpertambangan":9269,"ungkap":9270,"Ġpelindung":9271,"ĠMarch":9272,"Ġkompet":9273,"aven":9274,"Ġindeks":9275,"atory":9276,"disebut":9277,"Ġdicatat":9278,"âĢĿ,":9279,"Ġbinatang":9280,"ĠAtlas":9281,"ĠSenyawa":9282,"Ġgeometri":9283,"ualifikasi":9284,"Ġdiferensi":9285,"ĠIntel":9286,"ĠDipl":9287,"omendasi":9288,"Ġpersiapan":9289,"Ġdiskusi":9290,"ĠUganda":9291,"Ġobligasi":9292,"Organisasi":9293,"Ġdiklasifikasikan":9294,"IK":9295,"RS":9296,"Sen":9297,"Tujuan":9298,"can":9299,"iam":9300,"jangka":9301,"Ġsilikon":9302,"Ġdiin":9303,"Ġdioperasikan":9304,"emikian":9305,"apur":9306,"ĠSpr":9307,"agara":9308,"uris":9309,"ĠMiss":9310,"ĠKai":9311,"ĠKast":9312,"ĠBerikut":9313,"Ġintu":9314,"irl":9315,"embus":9316,"Ġni":9317,"Ġnenek":9318,"ĠCarl":9319,"ego":9320,"ĠJemaat":9321,"Ġgl":9322,"ĠNav":9323,"ĠHill":9324,"ĠLama":9325,"ĠFranc":9326,"Ġmendominasi":9327,"Ġditahan":9328,"Ġalur":9329,"Ġastr":9330,"Ġasosiasi":9331,"Ġsentim":9332,"ucapan":9333,"Ġperspektif":9334,"Ġkehendak":9335,"Ġdemonstr":9336,"1990":9337,"Ġpasukannya":9338,"ĠSuriah":9339,"Ġrelevan":9340,"1988":9341,"ĠPascal":9342,"ĠDatabase":9343,"Ġlegenda":9344,"logan":9345,"ĠAtlantis":9346,"Ġcoklat":9347,"ĠBritish":9348,"gresif":9349,"Eur":9350,"JS":9351,"Kas":9352,"risten":9353,"sara":9354,"Ð²":9355,"Ġdu":9356,"Ġpangkat":9357,"Ġpangkalan":9358,"Ġsosi":9359,"Ġtamu":9360,"Ġbara":9361,"Ġdiizinkan":9362,"siran":9363,"onduktor":9364,"ilin":9365,"ĠSerb":9366,"agangkan":9367,"Ġterintegrasi":9368,"arium":9369,"ĠMata":9370,"Ġperadilan":9371,"ĠKhan":9372,"ĠKeluarga":9373,"ĠTam":9374,"ĠRumania":9375,"ĠNorm":9376,"ĠNatural":9377,"ĠHab":9378,"ĠLaks":9379,"ĠLima":9380,"Ġmeletus":9381,"Ġmelampaui":9382,"iction":9383,"Ġmenyesuaikan":9384,"Ġmenyarankan":9385,"Ġmenyertakan":9386,"Ġsekutu":9387,"Ġalum":9388,"Ġkeluaran":9389,"cher":9390,"Ġpromosi":9391,"ĠAlz":9392,"Ġ46":9393,"Ġdidominasi":9394,"Ġmenjawab":9395,"imbingan":9396,"Ġwakaf":9397,"ĠPengawas":9398,"erdas":9399,"Ġharian":9400,"Ġspesifikasi":9401,"ally":9402,"ĠPhy":9403,"Ġeutanasia":9404,"Ġpenggemar":9405,"Ġkewenangan":9406,"phia":9407,"Ġkabaret":9408,"ĠKuala":9409,"kapal":9410,"endekiawan":9411,"Ġmamalia":9412,"oleransi":9413,"ĠPerguruan":9414,"Ġpensiun":9415,"La":9416,"har":9417,"lahan":9418,"pos":9419,"syah":9420,"Ġusus":9421,"Ġutusan":9422,"Ġkok":9423,"adukan":9424,"eld":9425,"yaitu":9426,"urutan":9427,"ĠMasa":9428,"ĠKul":9429,"ungu":9430,"ĠIstana":9431,"ĠRay":9432,"ĠRujukan":9433,"uplikasi":9434,"ĠCas":9435,"udid":9436,"ĠNil":9437,"oka":9438,"esimal":9439,"acakan":9440,"ĠGod":9441,"Ġserial":9442,"opia":9443,"osiklin":9444,"ĠPerh":9445,"Ġdikendalikan":9446,"Ġdisesuaikan":9447,"Ġketegangan":9448,"Ġtetangga":9449,"Ġpras":9450,"Ġkeseimbangan":9451,"Ġmemperhatikan":9452,"Ġkedatangan":9453,"ĠTheory":9454,"ĠPemuda":9455,"Ġibadah":9456,"Ġstruktural":9457,"Ġskema":9458,"Ġkekuasaannya":9459,"porsi":9460,"ĠApabila":9461,"ĠAttlee":9462,"Pemilihan":9463,"sych":9464,"ĠAbdullah":9465,"Ġmenikmati":9466,"Ġmitra":9467,"ĠBerbagai":9468,"Ġbagus":9469,"ĠYoung":9470,"Ġpemuliaan":9471,"ĠVenesia":9472,"Ġpembelian":9473,"Ġkriminal":9474,"93":9475,"Ed":9476,"Kont":9477,"eet":9478,"kam":9479,"mm":9480,"ror":9481,"rick":9482,"Ġpam":9483,"sid":9484,"ĠPustaka":9485,"Ġlim":9486,"Ġliga":9487,"Ġlazim":9488,"ĠKimia":9489,"ĠKitab":9490,"ĠBend":9491,"Ġmenges":9492,"edera":9493,"imental":9494,"embar":9495,"Ġna":9496,"Ġgizi":9497,"ĠHawai":9498,"ogo":9499,"ĠOlahraga":9500,"intasan":9501,"Ġpembawa":9502,"Ġkelak":9503,"Ġdipisahkan":9504,"Ġberkomp":9505,"Ġterbakar":9506,"Ġterbunuh":9507,"ocr":9508,"Ġpersepsi":9509,"Ġmodifikasi":9510,"Ġ65":9511,"Ġ75":9512,"Ġdihitung":9513,"ustik":9514,"ense":9515,"Penyakit":9516,"Ġkolom":9517,"Ġintensitas":9518,"ĠBerk":9519,"ĠĠĠĠĠĠĠĠĠĠĠĠĠĠĠĊ":9520,"Ġsenior":9521,"ĠHistor":9522,"ĠBurung":9523,"ĠImam":9524,"ĠSriwijaya":9525,"ĠPurw":9526,"Ġrumus":9527,"ĠEconomic":9528,"Ġilegal":9529,"Ġpublikasi":9530,"International":9531,"ristenan":9532,"Dampak":9533,"MP":9534,"NET":9535,"Ta":9536,"cast":9537,"kov":9538,"mis":9539,"uitas":9540,"Ġamin":9541,"ĠØ§":9542,"anta":9543,"akm":9544,"Ġkultur":9545,"ĠĠĠĠĠĠ":9546,"adik":9547,"aph":9548,"ĠPuncak":9549,"itatif":9550,"uluki":9551,"Ġinovasi":9552,"Ġmemunc":9553,"Ġmenghadap":9554,"ĠTumbuhan":9555,"Ġjejak":9556,"Ġnew":9557,"ĠCour":9558,"ĠCIA":9559,"ĠNash":9560,"Ġmerd":9561,"ĠGab":9562,"âĢľ":9563,"grunge":9564,"ĠVene":9565,"Ġditangani":9566,"Ġditemui":9567,"Ġdilindungi":9568,"Ġaneurisma":9569,"implement":9570,"ific":9571,"Ġmempercepat":9572,"Ġdipertahankan":9573,"Ġ64":9574,"Ġberhak":9575,"ĠAsuka":9576,"Ġpestisida":9577,"ĠâĤ":9578,"Ġpopularitas":9579,"loyd":9580,"istian":9581,"Ġmenyeluruh":9582,"akupan":9583,"ĠSeattle":9584,"Ġpenerus":9585,"atuhi":9586,"alangi":9587,"ĠPutra":9588,"Ġprofil":9589,"Ġprofesor":9590,"Ġkewarganegaraan":9591,"Ġimpor":9592,"Ġpenyelesaian":9593,"ometrik":9594,"Ġdistrik":9595,"timbangan":9596,"Ġtempo":9597,"Ġusulan":9598,"ĠCEO":9599,"Ġpemakaman":9600,"Gereja":9601,"Ġkopi":9602,"Ġvertikal":9603,"adelphia":9604,"ĠAlzheimer":9605,"->":9606,"89":9607,"Eropa":9608,"Rek":9609,"she":9610,"tah":9611,"Ġali":9612,"Ġec":9613,"atai":9614,"Ġsawah":9615,"Ġtud":9616,"adw":9617,"apaian":9618,"ĠPri":9619,"aijan":9620,"esus":9621,"Ġmenunggu":9622,"olis":9623,"ĠKeber":9624,"ĠBug":9625,"Ġmemanggil":9626,"Ġhimpunan":9627,"tional":9628,"ĠDaniel":9629,"ĠTerl":9630,"rov":9631,"udera":9632,"ĠNu":9633,"ĠLac":9634,"Ġcek":9635,"Ġtahunnya":9636,"Ġwadah":9637,"osan":9638,"Ġpemeran":9639,"ĠOs":9640,"opor":9641,"ertifikasi":9642,"Ġdibebaskan":9643,"ĠYerusalem":9644,"Ġdilantik":9645,"eval":9646,"2023":9647,"Ġmenghapus":9648,"dial":9649,"terior":9650,"Ġbersangkutan":9651,"Ġkonsekuensi":9652,"Ġpasokan":9653,"Ġberdirinya":9654,"ekanisme":9655,"ombak":9656,"ĠZig":9657,"ĠAdipati":9658,"ĠPolisi":9659,"Ġjumlahnya":9660,"ĠEnergi":9661,"ĠKomando":9662,"Ġ1954":9663,"Ġindividual":9664,"resent":9665,"Ġmenyelamatkan":9666,"Ġterjemahan":9667,"amaha":9668,"Ġkenyataan":9669,"Ġpejuang":9670,"Ġmikroorganisme":9671,"Semua":9672,"Ġbaginda":9673,"----":9674,"ĠTwitter":9675,"ĠBlue":9676,"Ġheavy":9677,"Ġsayuran":9678,"ilsafat":9679,"ĠAngeles":9680,"ĠFried":9681,"Ġmengamati":9682,"ategorikan":9683,"Ġditinggalkan":9684,"61":9685,"67":9686,"={\\":9687,"Bab":9688,"KS":9689,"Ket":9690,"eon":9691,"memb":9692,"oul":9693,"sw":9694,"yth":9695,"}+":9696,"ËĪ":9697,"Ġdor":9698,"arangan":9699,"Ġpeta":9700,"Ġpseud":9701,"Ġsingkatan":9702,"Ġtembaga":9703,"akum":9704,"akiman":9705,"apis":9706,"Ġberedar":9707,"ĠMes":9708,"ĠMath":9709,"ulaan":9710,"Ġperikanan":9711,"ĠKir":9712,"ĠKondisi":9713,"ĠDib":9714,"Ġmengapa":9715,"Ġ120":9716,"Ġjel":9717,"Ġjemaat":9718,"Ġjanin":9719,"Ġgempa":9720,"anting":9721,"Ġpengunjung":9722,"Ġpengenalan":9723,"Ġmelekat":9724,"ict":9725,"intai":9726,"ongga":9727,"lear":9728,"Ġkerak":9729,"ches":9730,"chrane":9731,"tori":9732,"Ġmanual":9733,"ĠPresi":9734,"Ġdiresmikan":9735,"Ġstadion":9736,"ĠBell":9737,"fred":9738,"Perubahan":9739,"ensor":9740,"Ġkalimat":9741,"strak":9742,"ext":9743,"Ġujian":9744,"Ġintervensi":9745,"Ġkeberhasilan":9746,"ajibkan":9747,"Ġjawaban":9748,"enjang":9749,"ĠFront":9750,"ĠRecords":9751,"ĠPerbedaan":9752,"Ġemosional":9753,"usnahan":9754,"Ġpipa":9755,"Ġruntuh":9756,"Ik":9757,"ief":9758,"oja":9759,"vel":9760,"Ġidentifikasi":9761,"Ġdesktop":9762,"Ġmalah":9763,"Ġpart":9764,"Ġsadar":9765,"aser":9766,"Ġtumor":9767,"sim":9768,"onan":9769,"ĠPam":9770,"ĠPimpinan":9771,"ekusi":9772,"Ġberorientasi":9773,"ĠMol":9774,"ĠMID":9775,"ĠAut":9776,"Ġheter":9777,"tib":9778,"omon":9779,"Ġ1000":9780,"gaya":9781,"ĠRen":9782,"Ġnas":9783,"Ġkeanggotaan":9784,"ĠCorn":9785,"ĠInst":9786,"ĠGa":9787,"Ġpenggabungan":9788,"Ġdiken":9789,"intis":9790,"ĠVII":9791,"Ġpembuangan":9792,"Ġpembangkit":9793,"Ġditingkatkan":9794,"Ġaliansi":9795,"Ġketerg":9796,"Ġketerangan":9797,"impah":9798,"utuan":9799,"rey":9800,"Ġsedemikian":9801,"estarikan":9802,"ĠStadion":9803,"Ġberlawanan":9804,"awancara":9805,"Ġroti":9806,"mpulan":9807,"Ġreplikasi":9808,"Ġperluasan":9809,"ESCO":9810,"Ġkenaikan":9811,"Ġthat":9812,"ĠGreat":9813,"ĠBalai":9814,"ĠBerbeda":9815,"Ġdemokratis":9816,"ĠManagement":9817,"Ġkambing":9818,"ĠSisilia":9819,"Ġmerdeka":9820,"daiko":9821,"hu":9822,"Ð»":9823,"Ġol":9824,"Ġdas":9825,"Ġmayat":9826,"Ġmaksud":9827,"Ġbolak":9828,"Ġkain":9829,"Ġdigabungkan":9830,"Ġdiartikan":9831,"emin":9832,"ele":9833,"Ġlava":9834,"itah":9835,"ingatkan":9836,"ĠKut":9837,"ĠDam":9838,"Ġjer":9839,"Ġracun":9840,"ianus":9841,"andum":9842,"Ġpenis":9843,"Ġpenambangan":9844,"antaian":9845,"ĠWijaya":9846,"Ġmelioid":9847,"perusahaan":9848,"Ġpemeliharaan":9849,"Ġakal":9850,"ejo":9851,"Ġanark":9852,"Ġberkat":9853,"Ġberkeb":9854,"ĠAlban":9855,"aikkan":9856,"Ins":9857,"Int":9858,"Ġbertahun":9859,"Ġtren":9860,"time":9861,"Ġ800":9862,"disingkat":9863,"ĠSyarif":9864,"Ġtuberc":9865,"ference":9866,"ska":9867,"ohonan":9868,"Ġterjun":9869,"Ġberwenang":9870,"armak":9871,"Ġangkutan":9872,"Ġparameter":9873,"book":9874,"ĠVolume":9875,"Ġmuseum":9876,"ĠWars":9877,"Ġpengeluaran":9878,"ĠPhiladelphia":9879,"Kerajaan":9880,"ĠBusiness":9881,"ĠEngineering":9882,"ĠLouis":9883,"Ġimplementasi":9884,"ĠChicago":9885,"Ġketergantungan":9886,"Ġmelioidosis":9887,"Bidang":9888,"Gurun":9889,"IB":9890,"Kata":9891,"Kementerian":9892,"br":9893,"hum":9894,"leksi":9895,"pon":9896,"pend":9897,"rt":9898,"witz":9899,"antikan":9900,"Ġdet":9901,"Ġdev":9902,"Ġpi":9903,"alm":9904,"alanya":9905,"Ġsidik":9906,"Ġtir":9907,"untry":9908,"ĠSon":9909,"ĠSentral":9910,"ĠMill":9911,"ĠMesin":9912,"idin":9913,"Ġherb":9914,"Ġhotel":9915,"Ġmengemukakan":9916,"rough":9917,"Ġnol":9918,"ĠJambi":9919,"ĠNug":9920,"ĠNES":9921,"ĠHitam":9922,"olehan":9923,"ĠLo":9924,"Ġcandi":9925,"otlandia":9926,"Ġkarenanya":9927,"ĠYam":9928,"Ġsetinggi":9929,"Ġmendaftar":9930,"Ġmendesak":9931,"Ġsemula":9932,"Ġketerb":9933,"eksadana":9934,"oven":9935,"Ġkesamaan":9936,"jauh":9937,"ĠAliran":9938,"reak":9939,"Ġtanam":9940,"ocial":9941,"Inter":9942,"Ġgenosida":9943,"ĠRoman":9944,"ĠHinduisme":9945,"ĠBarb":9946,"Ġregulasi":9947,"Ġpecah":9948,"ĠSuatu":9949,"Ġtautan":9950,"Ġpangeran":9951,"Ġeksplisit":9952,"ĠPublishing":9953,"zuela":9954,"Ġtuberculosis":9955,"92":9956,"EM":9957,"Hid":9958,"Kej":9959,"Lap":9960,"World":9961,"dpl":9962,"lebih":9963,"mainan":9964,"rin":9965,"rag":9966,"Î¿":9967,"akapan":9968,"ady":9969,"adak":9970,"apuskan":9971,"ĠSay":9972,"Ġlumpur":9973,"utra":9974,"Ġterang":9975,"Ġperahu":9976,"ĠKim":9977,"ĠKre":9978,"ĠBuah":9979,"imande":9980,"ĠRem":9981,"anduk":9982,"Ġpenaklukan":9983,"Ġpenolakan":9984,"ĠJr":9985,"ĠJal":9986,"Ġmerancang":9987,"Ġcl":9988,"Ġcerdas":9989,"ĠGas":9990,"antang":9991,"ices":9992,"Ġkarang":9993,"Ġdikemukakan":9994,"Ġkelemb":9995,"Ġdilepaskan":9996,"ocol":9997,"ococ":9998,"lie":9999,"undar":10000,"ancah":10001,"Ġmenjelang":10002,"Ġanggotanya":10003,"ĠPolri":10004,"Penelitian":10005,"Ġrekomendasi":10006,"ĠMahasiswa":10007,"Ġbursa":10008,"ĠLeon":10009,"Ġmenyebutnya":10010,"Pemeran":10011,"ĠDepok":10012,"ĠConc":10013,"lora":10014,"iskinan":10015,"ĠPetra":10016,"Ġlarangan":10017,"ĠBatak":10018,"Ġmeyakini":10019,"ĠÂ±":10020,"zhab":10021,"Ġlempeng":10022,"ĠPMID":10023,"ĠCentre":10024,"Ġfilosofis":10025,"ĠVillani":10026,"91":10027,"BH":10028,"Biro":10029,"Han":10030,"Jumlah":10031,"KM":10032,"Po":10033,"TT":10034,"buku":10035,"ft":10036,"jikan":10037,"jawab":10038,"nik":10039,"Ðº":10040,"Ġ#":10041,"Ġmoyang":10042,"att":10043,"injau":10044,"alisme":10045,"Ġbelah":10046,"ĠPanjang":10047,"Ġmenanggapi":10048,"Ġlo":10049,"Ġberturut":10050,"ĠMand":10051,"ukang":10052,"Ġmemadai":10053,"Ġrun":10054,"andian":10055,"ĠControl":10056,"awati":10057,"ĠNon":10058,"ĠHand":10059,"okimia":10060,"Ġcedera":10061,"ĠEarth":10062,"Ġmenyatukan":10063,"Ġprok":10064,"ewaskan":10065,"ewenang":10066,"ĠAnang":10067,"manapun":10068,"Ġmenghitung":10069,"Ġsistematis":10070,"Ġdiduduki":10071,"Ġterkendali":10072,"Ġwilayahnya":10073,"ucing":10074,"ĠMeny":10075,"Ġ600":10076,"Pengembangan":10077,"Ġ1952":10078,"Ġ1933":10079,"ĠMetal":10080,"Ġberperang":10081,"Ġinsinyur":10082,"ĠMatematika":10083,"Ġpenyelidikan":10084,"ĠGeneral":10085,"ahlian":10086,"Ġmenempuh":10087,"Ġpotensial":10088,"sebelum":10089,"Ġfluor":10090,"Ġpuluhan":10091,"Ġkepadanya":10092,"Ġbabak":10093,"Ġmisteri":10094,"ĠAkhirnya":10095,"ĠService":10096,"Ġalgoritma":10097,"Ġtenggelam":10098,"acterium":10099,"Bl":10100,"EI":10101,"EO":10102,"EIT":10103,"Go":10104,"Sup":10105,"Tok":10106,"face":10107,"hib":10108,"mu":10109,"rad":10110,"rek":10111,"vey":10112,"Ã¦":10113,"anga":10114,"Ġsosok":10115,"Ġtingginya":10116,"Ġbor":10117,"Ġkasih":10118,"aminya":10119,"ĠPranala":10120,"olm":10121,"agasan":10122,"urg":10123,"usuk":10124,"ĠMakanan":10125,"Ġpertimbangan":10126,"Ġhancur":10127,"terutama":10128,"ĠGurun":10129,"isia":10130,"ĠWin":10131,"peratur":10132,"Ġwali":10133,"Ġwujud":10134,"ĠEast":10135,"Ġmenyebarkan":10136,"angkitkan":10137,"ĠĠĠĠĠĠĠĠĠĠĠĠĠĠĠĠĠĠĠĠĠĠĠĠĠĠĠ":10138,"Ġdiberlakukan":10139,"Ġdikalahkan":10140,"Ġketersediaan":10141,"Ġdipaksa":10142,"Ġpendeta":10143,"turkan":10144,"iger":10145,"Ġmanufaktur":10146,"Ġkebaikan":10147,"imbal":10148,"Ġ98":10149,"Ġperbandingan":10150,"Ġtelekomunikasi":10151,"Ġpemerintahannya":10152,"ĠKepolisian":10153,"Ġmakam":10154,"Ġ1951":10155,"Ġkolektif":10156,"Ġacid":10157,"Ġkorupsi":10158,"Ġinterpr":10159,"ekerjakan":10160,"ĠSenat":10161,"Ġfraksi":10162,"Ġkematiannya":10163,"Station":10164,"ĠMatahari":10165,"Ġcampur":10166,"khusus":10167,"Ġtegas":10168,"ĠForum":10169,"ĠInvestasi":10170,"ĠDhar":10171,"Ġdiabetes":10172,"Ġmemecahkan":10173,"Ġagresif":10174,"Ġmenyajikan":10175,"Ġrobot":10176,"Ġanjing":10177,"Italia":10178,"Ġkesuksesan":10179,"ĠHawaii":10180,"Bib":10181,"Lembaga":10182,"Res":10183,"Sur":10184,"bol":10185,"faktor":10186,"fiah":10187,"hid":10188,"hana":10189,"ning":10190,"ritik":10191,"uis":10192,"ÙĪ":10193,"ä¸":10194,"Ġputusan":10195,"Ġsesi":10196,"Ġtentu":10197,"Ġtenggara":10198,"amana":10199,"adin":10200,"sif":10201,"engarkan":10202,"Ġmenewaskan":10203,"aging":10204,"utkan":10205,"asim":10206,"Ġperamban":10207,"ĠKont":10208,"ĠBengk":10209,"ĠIde":10210,"Ġnatrium":10211,"Ġgar":10212,"ĠNick":10213,"Ġmerasakan":10214,"aint":10215,"ĠLampung":10216,"Ġsec":10217,"ĠEin":10218,"Ġproporsi":10219,"ĠPern":10220,"Ġkemiringan":10221,"Ġdisajikan":10222,"Ġasumsi":10223,"Ġpendahul":10224,"eksual":10225,"2022":10226,"ĠPrab":10227,"Ġkonstruk":10228,"Ġkomitmen":10229,"avati":10230,"Ġpermulaan":10231,"angsungan":10232,"embangun":10233,"Ġdihubungkan":10234,"Ġrumahnya":10235,"ĠKris":10236,"ĠSurakarta":10237,"Ġbermula":10238,"Ġbermakna":10239,"riks":10240,"1985":10241,"Ġsalinan":10242,"ĠResmi":10243,"ĠBook":10244,"ĠCommons":10245,"ĠGuide":10246,"Ġpenerbitan":10247,"ĠSatelit":10248,"ĠPublic":10249,"Kepala":10250,"Ã³n":10251,"Ġplastik":10252,"Ġbijih":10253,"Ġdiplomatik":10254,"Ġdiperbolehkan":10255,"Ġsirkuit":10256,"Ġmemunculkan":10257,"Buku":10258,"Dia":10259,"Definisi":10260,"Ep":10261,"Ilmu":10262,"PG":10263,"Pulau":10264,"ax":10265,"du":10266,"fl":10267,"pons":10268,"pha":10269,"produk":10270,"arnya":10271,"Ġpuc":10272,"Ġtri":10273,"Ġkentang":10274,"Ġkuasa":10275,"Ġdiolah":10276,"adwal":10277,"ilitas":10278,"Ġmenanam":10279,"Ġmeniru":10280,"olio":10281,"Ġberangkat":10282,"uro":10283,"ĠMaria":10284,"ule":10285,"ulangan":10286,"ulusan":10287,"ĠBP":10288,"ĠBin":10289,"abilan":10290,"ĠRaf":10291,"Ġinisi":10292,"Ġpeneg":10293,"Ġgol":10294,"Ġgambut":10295,"tris":10296,"ayangan":10297,"ayyah":10298,"Ġcr":10299,"Ġcelah":10300,"ĠWeda":10301,"ĠFC":10302,"ugaan":10303,"Ġprotes":10304,"Ġserikat":10305,"Ġkonversi":10306,"eck":10307,"ecuali":10308,"Ġkemen":10309,"Ġsemen":10310,"Ġkelapa":10311,"Ġberkualitas":10312,"daun":10313,"ucapkan":10314,"ĠMenengah":10315,"ague":10316,"Ġindustrial":10317,"Ġputaran":10318,"Ġtersusun":10319,"Ant":10320,"Ġreksa":10321,"yataannya":10322,"ĠBerjangka":10323,"^{-":10324,"ĠDewa":10325,"ĠApollo":10326,"ĠIbrani":10327,"Ġkomplek":10328,"enjangan":10329,"ĠCentaur":10330,"Presiden":10331,"Ġmenghadiri":10332,"oksin":10333,"aktifkan":10334,"Sekolah":10335,"Direktur":10336,"awarsa":10337,"olongkan":10338,"Konsep":10339,"Ġpemanfaatan":10340,"utipan":10341,"ĠWisnu":10342,"servatorium":10343,"ĠGKPS":10344,"Ġintegral":10345,"Ġfederal":10346,"ĠFIFA":10347,"Ġradikal":10348,"ĠVenezuela":10349,"implementasikan":10350,"Asia":10351,"Bis":10352,"Sch":10353,"film":10354,"foto":10355,"kins":10356,"uens":10357,"ĠÅ":10358,"Ġumpan":10359,"ars":10360,"alus":10361,"Ġturnamen":10362,"Ġblu":10363,"Ġbakal":10364,"Ġdilah":10365,"onment":10366,"ikulum":10367,"apar":10368,"ĠSai":10369,"ĠSeg":10370,"ĠSakit":10371,"ĠPag":10372,"etil":10373,"adaannya":10374,"urai":10375,"ĠMov":10376,"ulik":10377,"ĠKah":10378,"ĠKend":10379,"ungsinya":10380,"Ġhama":10381,"Ġhambatan":10382,"ĠDy":10383,"ĠTum":10384,"Ġ250":10385,"ĠRh":10386,"awe":10387,"awinan":10388,"egasi":10389,"ayangkan":10390,"ĠHus":10391,"ĠHir":10392,"atanan":10393,"ĠLabor":10394,"ĠLaporan":10395,"Ġfosil":10396,"oger":10397,"ampai":10398,"anggapan":10399,"Ġprogresif":10400,"ĠĠĠĠĠĠĠĠĠĠĠĠĠĠĠĠĠĠĠĠĠĠĠĠĠĠĠĠĠĠĠĠĊ":10401,"Ġdibatalkan":10402,"obot":10403,"lei":10404,"Ġkelel":10405,"Ġdisampaikan":10406,"Ġdipan":10407,"uncil":10408,"ĠChur":10409,"angsang":10410,"press":10411,"esidenan":10412,"ĠSepak":10413,"Ġteleskop":10414,"Ġdicetak":10415,"Ġ137":10416,"astro":10417,"atuhkan":10418,"Ġkoordinat":10419,"ĠPenyel":10420,"ephen":10421,"ĠFirst":10422,"Ġgrafik":10423,"ĠAwards":10424,"ĠUrusan":10425,"Ġkariernya":10426,"Ġunggas":10427,"Ġketerampilan":10428,"Ġsaudaranya":10429,"Ġmerugikan":10430,"62":10431,"Hubungan":10432,"HTML":10433,"Ign":10434,"Pdt":10435,"bul":10436,"cy":10437,"con":10438,"cos":10439,"lembaga":10440,"mit":10441,"rm":10442,"vasi":10443,"Ã±":10444,"Ġ*":10445,"anai":10446,"Ġdini":10447,"Ġmarah":10448,"Ġpahlawan":10449,"Ġtari":10450,"Ġbo":10451,"Ġbub":10452,"Ġditrans":10453,"ison":10454,"ikonduktor":10455,"ĠST":10456,"Ġmematikan":10457,"ĠTub":10458,"Ġdengannya":10459,"Ġjendela":10460,"Ġradar":10461,"Ġnar":10462,"Ġnark":10463,"ĠJean":10464,"aine":10465,"Ġcetak":10466,"ĠGib":10467,"Ġ1917":10468,"Ġsewa":10469,"entase":10470,"oteknologi":10471,"opter":10472,"integr":10473,"rie":10474,"Ġsekadar":10475,"ĠYosh":10476,"nie":10477,"ĠAnalisis":10478,"odeIgn":10479,"Ġharinya":10480,"Ġdirasakan":10481,"ucut":10482,"ĠSte":10483,"Ġanggur":10484,"ĠPengh":10485,"Ġkript":10486,"Ġbelahan":10487,"Ġbeliau":10488,"unggah":10489,"Ġtransp":10490,"ĠUtsman":10491,"Ġkontes":10492,"Ġalamat":10493,"ĠâĪŀ":10494,"Ġ1934":10495,"ocket":10496,"1989":10497,"cover":10498,"ĠCochrane":10499,"ĠSecurity":10500,"ĠKeduanya":10501,"ĠMeiji":10502,"ĠSkotlandia":10503,"Genus":10504,"Ġtikus":10505,"ĠMohammad":10506,"ĠFederal":10507,"vironment":10508,"Ġcacat":10509,"stalasi":10510,"Belanda":10511,"ĠTexas":10512,"ĠInfiniti":10513,"Ġamino":10514,"Ġdasawarsa":10515,"Ġkementerian":10516,"Ġdilahirkan":10517,"odeIgniter":10518,".),":10519,"83":10520,"Fitur":10521,"Keter":10522,"Sej":10523,"Yang":10524,"duh":10525,"kala":10526,"kuran":10527,"tod":10528,"Ġeng":10529,"enag":10530,"Ġpik":10531,"Ġpower":10532,"alel":10533,"Ġsum":10534,"Ġsirip":10535,"Ġdivisi":10536,"elm":10537,"ikawan":10538,"aib":10539,"Ġmeneliti":10540,"Ġmenampung":10541,"Ġluk":10542,"Ġlisan":10543,"ariota":10544,"ĠAplikasi":10545,"ulingkan":10546,"ukun":10547,"ĠBoh":10548,"Ġmemelihara":10549,"Ġhy":10550,"Ġhabis":10551,"ĠDesign":10552,"Ġmengind":10553,"Ġmenguji":10554,"Ġmenginginkan":10555,"roy":10556,"Ġrub":10557,"Ġpenal":10558,"Ġkeindahan":10559,"ĠCa":10560,"ĠHutan":10561,"ĠLink":10562,"ĠLive":10563,"Ġcendekiawan":10564,"Ġcakupan":10565,"ĠGusti":10566,"oshi":10567,"Ġselaku":10568,"Ġselektif":10569,"intar":10570,"Ġaku":10571,"Ġditemp":10572,"Ġkelemahan":10573,"chwitz":10574,"vern":10575,"Ġdipenuhi":10576,"Ġ34":10577,"Ġ37":10578,"Ġsejati":10579,"onstruksi":10580,"Ġsuaminya":10581,"jaz":10582,"ĠSeluruh":10583,"Ġmelakukannya":10584,"hani":10585,"ĠPengetahuan":10586,"Ġkehormatan":10587,"Ġberpeng":10588,"ersihkan":10589,"Ġberjuang":10590,"menerus":10591,"ives":10592,"Ġpenjaga":10593,"sikologi":10594,"ques":10595,"Ġantib":10596,"Ġskenario":10597,"Ġpribumi":10598,"ĠBlok":10599,"ĠPersatuan":10600,"rahman":10601,"ĠPortugal":10602,"Ġproduser":10603,"crip":10604,"Ġmagnet":10605,"ĠChemical":10606,"ĠFrancisco":10607,"Ġdiperdagangkan":10608,"Ġminimum":10609,"Cara":10610,"Hasil":10611,"PKI":10612,"SF":10613,"Script":10614,"Taman":10615,"bola":10616,"dia":10617,"gar":10618,"hr":10619,"kini":10620,"zy":10621,"ģ¡":10622,"Ġmdpl":10623,"Ġpakan":10624,"Ġstu":10625,"Ġdiagnosis":10626,"eluk":10627,"ĠSumb":10628,"ĠSerangan":10629,"Ġlolos":10630,"etto":10631,"olat":10632,"ĠMulai":10633,"ĠAff":10634,"ulihkan":10635,"ĠBlo":10636,"ides":10637,"Ġhas":10638,"ĠDeb":10639,"ĠDistrik":10640,"Ġjuara":10641,"imedia":10642,"embunyi":10643,"Ġpenamp":10644,"Ġkegunaan":10645,"ĠJaringan":10646,"ĠHewan":10647,"Ġcangk":10648,"isihan":10649,"Ġwartawan":10650,"ĠFaktor":10651,"otasi":10652,"verse":10653,"eved":10654,"Ġpelajar":10655,"Ġmanajer":10656,"Ġharfiah":10657,"este":10658,"Ġdidistribusikan":10659,"ernaan":10660,"Ġ85":10661,"Ġmengenali":10662,"ĠMalaya":10663,"Ġkolam":10664,"Ġlogistik":10665,"Ġterjual":10666,"aterai":10667,"egunaan":10668,"ĠErn":10669,"Ġpeluncur":10670,"ĠTechnics":10671,"Model":10672,"Ġtantalum":10673,"Ġkapitalis":10674,"Ġdihadiri":10675,"Ġrupiah":10676,"ĠEducation":10677,"akmuran":10678,"ococcus":10679,"EITs":10680,"IR":10681,"Kamp":10682,"OK":10683,"WF":10684,"dent":10685,"lak":10686,"suku":10687,"Ġ]":10688,"erna":10689,"Ġmuk":10690,"Ġpri":10691,"anger":10692,"unar":10693,"Ġdiawali":10694,"elapan":10695,"ilya":10696,"Ġlakukan":10697,"ets":10698,"etaan":10699,"Ġberencana":10700,"utakhir":10701,"Ġterasa":10702,"use":10703,"ularan":10704,"ultasi":10705,"ĠKDE":10706,"ĠBud":10707,"idu":10708,"ĠDer":10709,"ĠDKI":10710,"omal":10711,"Ġmengor":10712,"Ġmengajarkan":10713,"Ġmengawasi":10714,"ĠCyanogenMod":10715,"Ġgerbang":10716,"ĠNations":10717,"ĠLove":10718,"ĠLloyd":10719,"Ġpengamat":10720,"ĠFat":10721,"oss":10722,"gres":10723,"ĠYaman":10724,"Ġmendatang":10725,"Ġmenduplikasi":10726,"Ġmasak":10727,"Ġkelebihan":10728,"vert":10729,"Ġdipanggil":10730,"Ġpendanaan":10731,"Ġkesenian":10732,"reasi":10733,"unduran":10734,"ĠArth":10735,"ĠProtokol":10736,"Ġsesama":10737,"Ġsesudah":10738,"plan":10739,"ĠMenara":10740,"ĠStasiun":10741,"Ġberlokasi":10742,"Ġâģ¡":10743,"Ġpencernaan":10744,"ĠAku":10745,"Ġpanjangnya":10746,"ĠâĪ«":10747,"Ġperlakuan":10748,"enny":10749,"sekitar":10750,"ĠBlitar":10751,"Ġulama":10752,"infty":10753,"Ġrefer":10754,"Ġtablet":10755,"ĠFree":10756,"ĠPolitics":10757,"ĠUEFA":10758,"ĠPerpustakaan":10759,"Ġnanopartikel":10760,"ĠKastilia":10761,"Ġberkompetisi":10762,"400":10763,"Bentuk":10764,"CP":10765,"Con":10766,"Dua":10767,"Pi":10768,"SG":10769,"Virus":10770,"satu":10771,"uv":10772,"Ġajang":10773,"Ġpaham":10774,"Ġpangkal":10775,"aktivitas":10776,"unit":10777,"Ġbunyi":10778,"Ġkutub":10779,"amida":10780,"ikator":10781,"ĠPekerja":10782,"Ġmenud":10783,"ĠAB":10784,"ĠAst":10785,"ĠBut":10786,"ĠBahan":10787,"ĠBrig":10788,"eper":10789,"epung":10790,"abeth":10791,"Ġpenasihat":10792,"ihatan":10793,"Ġft":10794,"Ġmenyal":10795,"âĢ²":10796,"Ġpemusnahan":10797,"ĠOrig":10798,"Ġvisi":10799,"ector":10800,"Ġdikumpulkan":10801,"Ġdikategorikan":10802,"ĠPres":10803,"ĠPrabu":10804,"ĠPrasasti":10805,"avid":10806,"erbaijan":10807,"udahkan":10808,"Ġabout":10809,"Ġ95":10810,"Ġdihuni":10811,"Ġdihancurkan":10812,"Ġterpadu":10813,"Ġminoritas":10814,"Ġperkotaan":10815,"Ġberjangka":10816,"Ġmeneruskan":10817,"Ġgerak":10818,"Ġpenggunaannya":10819,"ĠSyam":10820,"Ġkolaborasi":10821,"Ġutang":10822,"Ġtubuhnya":10823,"Ġmenyelidiki":10824,"ĠBandara":10825,"Ġfrasa":10826,"biasanya":10827,"ĠDemokrasi":10828,"ĠConn":10829,"Ġpaduan":10830,"ĠGuinea":10831,"ĠMediter":10832,"Ġsisanya":10833,"ĠPDB":10834,"Ġpergeseran":10835,"Ġmembahayakan":10836,"Ġmagnesium":10837,"ĠWikimedia":10838,"Ġnotasi":10839,"ordinator":10840,"ĠLetnan":10841,"ĠUNESCO":10842,"Ġpenciptaan":10843,"inamika":10844,"ampions":10845,"Ġjejaring":10846,"ĠInstagram":10847,"Bar":10848,"Dis":10849,"Ini":10850,"Mah":10851,"Par":10852,"Produk":10853,"].":10854,"batas":10855,"din":10856,"lek":10857,"Ġimb":10858,"Ġungu":10859,"entif":10860,"Ġpus":10861,"alangan":10862,"Ġtawar":10863,"aire":10864,"Ġladang":10865,"Ġberujung":10866,"umusan":10867,"ĠMandiri":10868,"ulir":10869,"ĠBani":10870,"Ġmemanjang":10871,"idaya":10872,"ĠDC":10873,"Ġuntai":10874,"Ġrasional":10875,"iance":10876,"Ġkeahlian":10877,"egen":10878,"ĠJoko":10879,"Ġgadis":10880,"ĠNad":10881,"ĠGM":10882,"Ġfluk":10883,"Ġpenger":10884,"ĠWarisan":10885,"otida":10886,"ujur":10887,"Ġantrop":10888,"Ġditawarkan":10889,"Ġ38":10890,"masin":10891,"encer":10892,"liografi":10893,"ĠArj":10894,"Ġkompilasi":10895,"ĠZaman":10896,"ellite":10897,"fram":10898,"ĠAdministr":10899,"ources":10900,"ĠOrder":10901,"Ġisinya":10902,"Ġpenghasilan":10903,"peny":10904,"resentasi":10905,"pora":10906,"ogenik":10907,"ĠKebanyakan":10908,"ĠDemikian":10909,"ĠPetrus":10910,"ĠPier":10911,"Ġthr":10912,"rahim":10913,"Ġerosi":10914,"argetkan":10915,"Ġkonstitusional":10916,"Ġbeton":10917,"Ġrevolusioner":10918,"etrieved":10919,"Ġkapitalisme":10920,"ĠPlayStation":10921,"Ġpengecualian":10922,"Deputi":10923,"antumkan":10924,"ĠEmpat":10925,"ĠVictoria":10926,"ĠCardboard":10927,"ĠPhilosophy":10928,"ĠØ§ÙĦ":10929,"Bit":10930,"How":10931,"Kor":10932,"hog":10933,"wo":10934,"yakan":10935,"Î¹":10936,"erator":10937,"Ġsutradara":10938,"Ġtump":10939,"Ġdiuji":10940,"amad":10941,"Ġyakin":10942,"ĠSidang":10943,"asioner":10944,"ĠMu":10945,"ĠMir":10946,"Ġperund":10947,"ĠKH":10948,"ĠKoto":10949,"ĠIM":10950,"ĠDit":10951,"edudukan":10952,"Ġpenetapan":10953,"Ġ1900":10954,"Ġwawancara":10955,"Ġmembatalkan":10956,"Ġtidaklah":10957,"ipas":10958,"Ġmenyus":10959,"oster":10960,"Ġkonv":10961,"Ġdibeli":10962,"Ġdibubarkan":10963,"Ġkemiskinan":10964,"Ġberbatasan":10965,"asannya":10966,"Ġpembinaan":10967,"Ġbesarnya":10968,"Ġterbalik":10969,"Ġsejajar":10970,"ontan":10971,"ontak":10972,"Ġterdengar":10973,"entuh":10974,"ĠChampions":10975,"Ġkomedi":10976,"Ġpersek":10977,"ĠZi":10978,"Ġterpenting":10979,"lash":10980,"Ġmazhab":10981,"awatir":10982,"Ġistimewa":10983,"Ġlapis":10984,"Ġdoktrin":10985,"Ġsifatnya":10986,"1983":10987,"ĠCouncil":10988,"ĠSeiring":10989,"khold":10990,"ĠStudio":10991,"epakati":10992,"ixon":10993,"rasah":10994,"Ġintelijen":10995,"Ġeksperimental":10996,"ĠFederasi":10997,"Ġmengabaikan":10998,"Ġfleksi":10999,"Ġkontroversial":11000,"ativitas":11001,"mahera":11002,"onesian":11003,"Ġdimakamkan":11004,"Ġnasabah":11005,"ĠAlbania":11006,"Op":11007,"Perd":11008,"Sultan":11009,"hati":11010,"igrasi":11011,"mond":11012,"nas":11013,"oor":11014,"pun":11015,"sq":11016,"wig":11017,"Îº":11018,"ÏĤ":11019,"erapura":11020,"ats":11021,"eburan":11022,"ĠPon":11023,"ĠPajak":11024,"Ġline":11025,"Ġlampu":11026,"Ġlereng":11027,"ĠMie":11028,"ĠKod":11029,"ungro":11030,"Ġmemudahkan":11031,"Ġhaji":11032,"ĠDM":11033,"ĠDPD":11034,"Ġmengu":11035,"Ġmengundang":11036,"Ġmengonsumsi":11037,"Ġmengangkut":11038,"ĠTay":11039,"ĠTemp":11040,"Ġjahat":11041,"Ġradang":11042,"Ġkeunggulan":11043,"ĠNobel":11044,"Ġadaptasi":11045,"aco":11046,"Ġ1928":11047,"oge":11048,"anggih":11049,"hewan":11050,"ositori":11051,"Ġkepolisian":11052,"ĠYamaha":11053,"Ġmendasar":11054,"ĠAnom":11055,"Ġpelep":11056,"ĠPram":11057,"Ġmempersiapkan":11058,"ĠIsland":11059,"timologi":11060,"ĠHall":11061,"Ġdijuluki":11062,"Ġpenjelajah":11063,"Ġ1935":11064,"Ġgaji":11065,"Ġtahta":11066,"ĠJohnson":11067,"Ġbandara":11068,"IDS":11069,"ĠMoz":11070,"entian":11071,"Ġmolekuler":11072,"ĠEric":11073,"Ġlembut":11074,"Ekonomi":11075,"Konstitusi":11076,"Ġhistory":11077,"Ġpemanasan":11078,"sebagai":11079,"ĠChristian":11080,"Ġrealitas":11081,"Ġauth":11082,"Ġpidana":11083,"ĠAntara":11084,"ĠAlexander":11085,"ĠNasution":11086,"ĠStrategi":11087,"ĠDeklarasi":11088,"Ġprivat":11089,"ĠHidayatullah":11090,"Ġhormon":11091,"Ġtuduhan":11092,"integrasikan":11093,"kholderia":11094,"DR":11095,"Fr":11096,"Lagu":11097,"NH":11098,"National":11099,"SO":11100,"TS":11101,"dib":11102,"gua":11103,"rd":11104,"Ġdetail":11105,"Ġslogan":11106,"Ġbil":11107,"Ġbicara":11108,"Ġkaitan":11109,"eluler":11110,"ikum":11111,"apusan":11112,"ordial":11113,"ĠSipil":11114,"eto":11115,"agedi":11116,"utamakan":11117,"usk":11118,"Ġperayaan":11119,"ĠKak":11120,"ĠBest":11121,"ĠIA":11122,"omisin":11123,"Ġmenginfeksi":11124,"ediksi":11125,"ĠRot":11126,"ĠNap":11127,"ĠHerb":11128,"Ġmelingk":11129,"Ġmembandingkan":11130,"ĠFiat":11131,"osintesis":11132,"Ġdibuktikan":11133,"intik":11134,"uja":11135,"ĠVI":11136,"ĠVaksin":11137,"Ġmasjid":11138,"Ġdiskr":11139,"Ġdiserang":11140,"Ġatap":11141,"Ġasap":11142,"ĠAnth":11143,"Ġsuami":11144,"ontakan":11145,"Ġdimungkinkan":11146,"Ġkomentar":11147,"aksis":11148,"Ġpermais":11149,"ĠStone":11150,"Ġberharap":11151,"ĠSound":11152,"Ġzo":11153,"ĠAksi":11154,"ensus":11155,"Ġkalsium":11156,"iliasi":11157,"genre":11158,"Ġmenganut":11159,"ĠSyariah":11160,"Ġhubungannya":11161,"ĠTrib":11162,"urnalis":11163,"Ġtahapan":11164,"Ġjaminan":11165,"ĠUmar":11166,"argai":11167,"Ġrepublik":11168,"Ġreproduksi":11169,"incian":11170,"Ġpedoman":11171,"alonkan":11172,"Ġmuslim":11173,"solut":11174,"Ġbusur":11175,"Ġakademisi":11176,"Ġresistensi":11177,"Ġmeyak":11178,"ĠTrot":11179,"Ġpemulihan":11180,"Ġkepadatan":11181,"ĠLanguage":11182,"ikuid":11183,"opulerkan":11184,"rehensif":11185,"ĠAuschwitz":11186,"ĠBengkulu":11187,"DV":11188,"He":11189,"Kelompok":11190,"Ne":11191,"Sal":11192,"Tanda":11193,"Web":11194,"bal":11195,"juh":11196,"kek":11197,"komun":11198,"oes":11199,"och":11200,"pt":11201,"pas":11202,"ping":11203,"sem":11204,"Ã£":11205,"Ġ>":11206,"Ġqu":11207,"Ġmedi":11208,"Ġpor":11209,"Ġsumbu":11210,"Ġtaks":11211,"Ġtatanan":11212,"Ġbh":11213,"adoks":11214,"elasi":11215,"ĠSifat":11216,"olin":11217,"itt":11218,"umavati":11219,"ĠKud":11220,"ĠKelas":11221,"ĠBio":11222,"Ġinci":11223,"idi":11224,"idrat":11225,"Ġjenjang":11226,"roduction":11227,"Ġrawa":11228,"ĠRud":11229,"ĠRena":11230,"Ġpeninggalan":11231,"Ġnantinya":11232,"ĠNir":11233,"ĠHaji":11234,"ubis":11235,"ĠGem":11236,"Ġfusi":11237,"enth":11238,"ĠWanita":11239,"Ġwewenang":11240,"anggota":11241,"ĠPeriode":11242,"Ġdikritik":11243,"Ġmendeskripsikan":11244,"ejabat":11245,"Ġsemikonduktor":11246,"Ġalel":11247,"Ġkelaparan":11248,"Ġanim":11249,"tures":11250,"igur":11251,"Ġmanis":11252,"ugus":11253,"ifer":11254,"Ġpenyemb":11255,"Ġberdarah":11256,"versity":11257,"Ġpersatuan":11258,"ĠPenulis":11259,"Ġberputar":11260,"ordania":11261,"Ġmatriks":11262,"Ġtransformasi":11263,"ability":11264,"Ġperdata":11265,"ĠSurya":11266,"Menteri":11267,"ĠPanglima":11268,"ĠMinor":11269,"Ġparalel":11270,"Ġterbentuknya":11271,"Ġkoalisi":11272,"ĠKomunitas":11273,"Ġtembok":11274,"Ġlembah":11275,"Sekretariat":11276,"Ġpalsu":11277,"Ġnyaman":11278,"Manfaat":11279,"ezer":11280,"inese":11281,"estigasi":11282,"ĠÏĢ":11283,"Seek":11284,"ĠJacob":11285,"Ġumbi":11286,"ĠInjil":11287,"ĠMIDI":11288,"hogunan":11289,"81":11290,"Aplikasi":11291,"DI":11292,"Net":11293,"Teknik":11294,"UC":11295,"UK":11296,"Up":11297,"benda":11298,"ds":11299,"fitur":11300,"jurkan":11301,"oalan":11302,"xel":11303,"ylob":11304,"Ġ),":11305,"Ġmini":11306,"atum":11307,"Ġten":11308,"Ġtawanan":11309,"akibat":11310,"Ġdiv":11311,"elolaan":11312,"enger":11313,"eban":11314,"ission":11315,"orb":11316,"ĠSL":11317,"ĠSn":11318,"ĠSta":11319,"ĠSuci":11320,"ĠPari":11321,"ĠPekerjaan":11322,"Ġberevolusi":11323,"urian":11324,"asic":11325,"ĠAj":11326,"ulunya":11327,"Ġperumahan":11328,"ĠKac":11329,"ĠKali":11330,"ĠKey":11331,"Ġmemin":11332,"Ġhuman":11333,"ĠDian":11334,"Ġmengelilingi":11335,"Ġunt":11336,"Ġjazz":11337,"abau":11338,"ĠRetrieved":11339,"Ġpenangg":11340,"Ġpenarikan":11341,"ĠCop":11342,"ĠJer":11343,"ĠHas":11344,"ĠHotel":11345,"Ġfarmasi":11346,"ĠWHO":11347,"Ġmembiarkan":11348,"ĠInderapura":11349,"ĠPerencanaan":11350,"Ġdibakar":11351,"Ġdibuang":11352,"Ġkemunculan":11353,"Ġdikembalikan":11354,"niv":11355,"Ġdiserap":11356,"Ġ39":11357,"ifera":11358,"ĠArya":11359,"owongan":11360,"Ġtraktat":11361,"anksi":11362,"front":11363,"Ġbeli":11364,"engkung":11365,"Ġkalk":11366,"uff":11367,"Anak":11368,"Ġlogis":11369,"Ġ1937":11370,"Ġantigen":11371,"ĠExtra":11372,"Ġpetir":11373,"Ġdiperluas":11374,"biologi":11375,"ANG":11376,"ticle":11377,"ĠMonako":11378,"Ġepidemi":11379,"Ġbalapan":11380,"Ġhadapan":11381,"erusnya":11382,"ĠDhumavati":11383,"Ġekspansi":11384,"ĠAzerbaijan":11385,"Ġmaksimal":11386,"Agama":11387,"sics":11388,"ĠWidodo":11389,"Ġoptimal":11390,"Ġmutlak":11391,"ĠAstronom":11392,"ĠSerbia":11393,"/,":11394,"Gu":11395,"Har":11396,"Wil":11397,"bers":11398,"dangan":11399,"ms":11400,"uatu":11401,"yon":11402,"ÅĤ":11403,"Ïģ":11404,"Ø¨":11405,"Ġá":11406,"Ġelit":11407,"Ġdosa":11408,"Ġdangkal":11409,"Ġpap":11410,"Ġpekan":11411,"aster":11412,"Ġtent":11413,"Ġtutup":11414,"Ġtinjauan":11415,"Ġkancah":11416,"Ġkucing":11417,"Ġdiagram":11418,"elektr":11419,"iliran":11420,"ĠShe":11421,"ĠPL":11422,"ĠPublik":11423,"ĠPdt":11424,"Ġledak":11425,"Ġberisiko":11426,"ĠKot":11427,"ĠBBC":11428,"ĠTern":11429,"Ġjual":11430,"round":11431,"ianto":11432,"abarkan":11433,"Ġpenawaran":11434,"Ġnirk":11435,"ĠNy":11436,"ĠNeg":11437,"ĠHop":11438,"ĠGKI":11439,"Ġfasis":11440,"antah":11441,"ĠWall":11442,"Ġmembangkitkan":11443,"Ġmenyaksikan":11444,"Ġpemukul":11445,"Ġvi":11446,"Ġdiklaim":11447,"Ġaksara":11448,"Ġsekuens":11449,"afsiran":11450,"ujaan":11451,"Ġseterusnya":11452,"Ġditarik":11453,"1945":11454,"Ġkelainan":11455,"Ġpelaksana":11456,"Ġpelopor":11457,"Ġmenghilang":11458,"Ġterluka":11459,"Ġ55":11460,"ĠIstimewa":11461,"Ġpersonal":11462,"ombe":11463,"Ġtruk":11464,"ondok":11465,"Ġdihapus":11466,"Ġmatang":11467,"Ġdatabase":11468,"Ġindah":11469,"Ġdigolongkan":11470,"Ġdituturkan":11471,"krip":11472,"osisinya":11473,"ĠTradisi":11474,"skup":11475,"ĠReader":11476,"ĠUmayyah":11477,"ĠSenjata":11478,"Ġmewah":11479,"Ġdoa":11480,"Ġdoom":11481,"Ġkuil":11482,"ĠInvest":11483,"Ġsepakat":11484,"omassa":11485,"Ġmengarahkan":11486,"presikan":11487,"ĠBoston":11488,"ĠFlorida":11489,"ĠSeries":11490,"Ġmarkas":11491,"Ġmatematikawan":11492,"ombinasikan":11493,"inguistik":11494,"Ġdemonstrasi":11495,"Ġblues":11496,"Afr":11497,"EB":11498,"Etimologi":11499,"Produksi":11500,"Sin":11501,"contoh":11502,"rumah":11503,"sun":11504,"tanda":11505,"Ġdugaan":11506,"Ġmeja":11507,"Ġpintar":11508,"Ġsak":11509,"Ġsolo":11510,"asisme":11511,"aker":11512,"akia":11513,"sih":11514,"aplikasi":11515,"Ġmenembak":11516,"Ġlatihan":11517,"eti":11518,"ingrat":11519,"ĠĠĠĠĠĠĠĠĠĊ":11520,"ĠMr":11521,"ĠMisi":11522,"ĠAN":11523,"ĠAuth":11524,"ĠAwal":11525,"ĠBath":11526,"Ġmengas":11527,"ĠTod":11528,"ĠTamb":11529,"ĠTindakan":11530,"edd":11531,"ĠRa":11532,"ĠRib":11533,"ĠJi":11534,"Ġgambaran":11535,"ĠNan":11536,"ĠNixon":11537,"okasikan":11538,"okalis":11539,"okaus":11540,"uburan":11541,"ĠGua":11542,"Ġ1925":11543,"antel":11544,"oton":11545,"itudo":11546,"ips":11547,"ugawa":11548,"Ġseper":11549,"ople":11550,"ĠĠĠĠĠĠĠĠĠĠĠĠĠĠĠĠĠĠĠĠĠĠĠĠĠĠĠĠĠĠĊ":11551,"Ġakustik":11552,"ompa":11553,"ungkus":11554,"ungkapan":11555,"read":11556,"ocal":11557,"owl":11558,"Ġspektrum":11559,"uction":11560,"Perangkat":11561,"Ġterpusat":11562,"etermin":11563,"Ġtelinga":11564,"Ġperkawinan":11565,"Ġberjarak":11566,"Ġrekor":11567,"Ġoposisi":11568,"Ġtercantum":11569,"Ġimigran":11570,"ĠKedokteran":11571,"untuhan":11572,"Ġpedalaman":11573,"Ġsiklon":11574,"Ġamendemen":11575,"ĠEnglish":11576,"omotif":11577,"Ġendemik":11578,"ĠHolokaus":11579,"ĠFranklin":11580,"Ġdidapatkan":11581,"Universitas":11582,"Ġsandal":11583,"Ġelektro":11584,"Ġkompatibel":11585,"Ġmaskapai":11586,"Ġnasib":11587,"udidayakan":11588,"Ġdorongan":11589,"Ġdikenali":11590,"?\"":11591,"Kap":11592,"Med":11593,"NO":11594,"Ti":11595,"Video":11596,"],":11597,"jad":11598,"kode":11599,"lai":11600,"sasi":11601,"wujud":11602,"zine":11603,"å¤":11604,"Ġusah":11605,"anisme":11606,"ench":11607,"atr":11608,"unter":11609,"Ġbung":11610,"Ġbau":11611,"ematic":11612,"kantor":11613,"ikh":11614,"ĠSis":11615,"Ġlihat":11616,"aganda":11617,"ĠMuk":11618,"ĠAch":11619,"ĠAsian":11620,"ĠBila":11621,"ĠBadai":11622,"ĠIX":11623,"ĠDonald":11624,"ĠRasa":11625,"ĠRyan":11626,"Ġpenutur":11627,"ĠCross":11628,"Ġgim":11629,"Ġgandum":11630,"Ġcanggih":11631,"Ġ1924":11632,"Ġfaksi":11633,"ants":11634,"Ġseolah":11635,"ĠWat":11636,"ĠFall":11637,"indu":11638,"Ġdikelompokkan":11639,"obatkan":11640,"grup":11641,"Ġsetia":11642,"Ġmasakan":11643,"Ġpembal":11644,"Ġpembersi":11645,"Ġkeraton":11646,"Ġprolet":11647,"ontaminasi":11648,"ught":11649,"undangan":11650,"Ġmemperb":11651,"Ġkomisi":11652,"Ġspin":11653,"Ġspec":11654,"isau":11655,"Ġterkini":11656,"Ġpaspor":11657,"ĠPemain":11658,"ĠStandar":11659,"ĠStephen":11660,"Ġkhawatir":11661,"Ġbentuknya":11662,"ĠTime":11663,"ondo":11664,"Ġterpapar":11665,"ĠEnerg":11666,"ĠMall":11667,"Ġdituduh":11668,"ĠMasalah":11669,"ensasi":11670,"istic":11671,"ĠEkspedisi":11672,"Ġhidangan":11673,"ĠEdition":11674,"Ġgeologi":11675,"ĠDemocr":11676,"Ġkonfigurasi":11677,"ĠHein":11678,"here":11679,"Ġnegosiasi":11680,"1966":11681,"ĠSangha":11682,"ribut":11683,"uisisi":11684,"Ġmigrasi":11685,"ĠCETA":11686,"ustice":11687,"Ġmotivasi":11688,"Ġtemperatur":11689,"ĠElectron":11690,"Ġsawit":11691,"ĠYasmin":11692,"ĠColumbia":11693,"elusuri":11694,"ĠAndrew":11695,"Ġmenuduh":11696,"Ġpermaisuri":11697,"700":11698,"CodeIgniter":11699,"Desa":11700,"Ev":11701,"GA":11702,"Musik":11703,"Pal":11704,"Sing":11705,"Tipe":11706,"auna":11707,"bus":11708,"langkah":11709,"mula":11710,"rang":11711,"zation":11712,"}{\\":11713,"ÃĹ":11714,"ËĲ":11715,"arjo":11716,"Ġmain":11717,"Ġmutu":11718,"Ġpariwisata":11719,"Ġpotongan":11720,"Ġtag":11721,"Ġtomat":11722,"Ġtemuan":11723,"akala":11724,"Ġbaterai":11725,"Ġkapan":11726,"Ġkubah":11727,"Ġklan":11728,"Ġdiisi":11729,"Ġditimb":11730,"aduan":11731,"ebus":11732,"itaan":11733,"utch":11734,"ĠKuw":11735,"ĠKPU":11736,"uke":11737,"ĠBig":11738,"ĠBangunan":11739,"ĠBerg":11740,"idap":11741,"tiwa":11742,"Ġmengusir":11743,"Ġ118":11744,"Ġjutaan":11745,"Ġrempah":11746,"ĠRy":11747,"upuk":11748,"Ġpenamaan":11749,"udakan":11750,"Ġgran":11751,"Ġadv":11752,"ĠLud":11753,"Ġcor":11754,"ĠGames":11755,"Ġ1922":11756,"endum":11757,"ĠWaktu":11758,"ĠEli":11759,"ĠUj":11760,"Ġpemilih":11761,"angkabau":11762,"opak":11763,"esarkan":11764,"Ġkepr":11765,"Ġmendengarkan":11766,"Ġmasukan":11767,"Ġditembak":11768,"ohidrat":11769,"Ġdipasarkan":11770,"arahkan":11771,"ovan":11772,"Ġbiometrik":11773,"onto":11774,"entum":11775,"Ġmenggunakannya":11776,"Ġordo":11777,"ancing":11778,"avirus":11779,"ucian":11780,"ombia":11781,"Ġdihukum":11782,"enggung":11783,"Ġdigelar":11784,"Ġpencapaian":11785,"ĠAbb":11786,"Ġdeklarasi":11787,"Ġdepartemen":11788,"ensin":11789,"Ġefektivitas":11790,"Ġmenganjurkan":11791,"Ġpenghasil":11792,"arnaan":11793,"ĠTelevisi":11794,"ĠIbrahim":11795,"Ġterganggu":11796,"ĠPanama":11797,"ĠPeterson":11798,"ĠDavis":11799,"sistensi":11800,"Ġdewi":11801,"ĠScott":11802,"ĠKompas":11803,"ĠSarjana":11804,"ĠTroya":11805,"zoikum":11806,"Daerah":11807,"embalinya":11808,"ojust":11809,"Ġkesimpulan":11810,"mathbf":11811,"sebelumnya":11812,"Af":11813,"Jalur":11814,"Kegunaan":11815,"Pak":11816,"RO":11817,"bk":11818,"bentuk":11819,"down":11820,"hit":11821,"ming":11822,"med":11823,"oga":11824,"rologi":11825,"tensi":11826,"xy":11827,"Ã¢":11828,"Ġmac":11829,"Ġmaya":11830,"Ġmiring":11831,"athan":11832,"inson":11833,"akus":11834,"sical":11835,"ĠSamb":11836,"ĠSimp":11837,"ĠPE":11838,"Ġlan":11839,"olow":11840,"urahan":11841,"Ġterendah":11842,"ĠMam":11843,"ulah":11844,"Ġpered":11845,"ĠKara":11846,"ĠKid":11847,"epungan":11848,"Ġha":11849,"Ġhem":11850,"omagn":11851,"ĠRiau":11852,"ĠCand":11853,"ĠCulture":11854,"ĠGil":11855,"Ġfir":11856,"ĠWisata":11857,"Ġwork":11858,"ĠFood":11859,"ĠUskup":11860,"ĠOut":11861,"Ġkaret":11862,"optim":11863,"ective":11864,"Ġdikurangi":11865,"rive":11866,"amannya":11867,"afer":11868,"ĠYesus":11869,"ujif":11870,"Ġpembaruan":11871,"Ġkerucut":11872,"sau":11873,"ĠAmb":11874,"ĠAlf":11875,"umuman":11876,"dium":11877,"Ġkebangkitan":11878,"sitek":11879,"isasikan":11880,"Ġ41":11881,"Ġpenyerahan":11882,"Ġkomite":11883,"uclear":11884,"Ġberlayar":11885,"ĠPengurus":11886,"ofolio":11887,"ulistiwa":11888,"ĠISSN":11889,"Perjanjian":11890,"Ġseluruhnya":11891,"Ġteologi":11892,"Ġisolasi":11893,"145":11894,"Ġsejarahnya":11895,"Ġreklamasi":11896,"Ġnasionalis":11897,"ĠReaksi":11898,"ostasioner":11899,"iayai":11900,"ĠAppl":11901,"Ġeuk":11902,"organisir":11903,"ĠConference":11904,"ĠUmumnya":11905,"Ġkoordinasi":11906,"enjar":11907,"ĠCentury":11908,"ĠMaur":11909,"ĠBanjarmasin":11910,"Ġsurvei":11911,"ĠHakim":11912,"ĠDiponegoro":11913,"ĠKekristenan":11914,"Kemudian":11915,"ĠArchive":11916,"Ġpredator":11917,"Ġsingle":11918,"ĠAugust":11919,"Ġritme":11920,"addafi":11921,"adwalkan":11922,"ĠPrabowo":11923,"Ġlukisan":11924,"sqrt":11925,"Mul":11926,"NS":11927,"PO":11928,"Pin":11929,"Ser":11930,"UI":11931,"bank":11932,"hard":11933,"kada":11934,"pirasi":11935,"titik":11936,"uasan":11937,"Î½":11938,"Ġdosen":11939,"Ġsurut":11940,"emo":11941,"onium":11942,"orum":11943,"ĠSong":11944,"ĠSanto":11945,"utang":11946,"urig":11947,"asiat":11948,"ĠAR":11949,"ulasikan":11950,"Ġperanan":11951,"Ġpergantian":11952,"ĠKew":11953,"ĠBond":11954,"ĠIkan":11955,"ĠDef":11956,"ĠDokter":11957,"omod":11958,"ĠRD":11959,"Ġpenafsiran":11960,"ude":11961,"Ġgun":11962,"ĠNar":11963,"ĠNord":11964,"Ġ1919":11965,"Ġ1926":11966,"Ġseekor":11967,"perma":11968,"Ġmembuang":11969,"ĠEt":11970,"ĠEmas":11971,"ĠFu":11972,"otin":11973,"icon":11974,"usim":11975,"anjiro":11976,"ĠYamin":11977,"Ġpembunuh":11978,"Ġasisten":11979,"ĠAnaly":11980,"diam":11981,"Ġ44":11982,"Ġpenyusunan":11983,"Ġpenyesuaian":11984,"Ġagreg":11985,"Ġsenang":11986,"Ġsenapan":11987,"Ġdidorong":11988,"Ġdidesain":11989,"Ġ56":11990,"uce":11991,"Ġpersentase":11992,"ĠStandard":11993,"ortasi":11994,"illy":11995,"Ġ88":11996,"engku":11997,"ĠAccess":11998,"Ġsubur":11999,"ebrata":12000,"ĠKesatuan":12001,"Ġpanduan":12002,"Ġdrastis":12003,"Pemerintah":12004,"1982":12005,"count":12006,"Ġhier":12007,"Ġpsikedel":12008,"eritage":12009,"ĠLiberal":12010,"ĠOrganization":12011,"Ġdinamika":12012,"ĠBurkholderia":12013,"Ġpersenjata":12014,"Ġdikirimkan":12015,"Akhir":12016,"Sekretaris":12017,"ĠSmack":12018,"Ã¼r":12019,"Ġfotografer":12020,"ĠSukarno":12021,"Ġsulfat":12022,"bility":12023,"ĠAlliance":12024,"ĠLongga":12025,"Ġmotif":12026,"tainment":12027,"Ġempiris":12028,"empurnakan":12029,"ĠBrahman":12030,"Ġsensitif":12031,"Ġtangki":12032,"ĠTangerang":12033,"ĠKamboja":12034,"html":12035,"ĠChurch":12036,"Ġmeyakinkan":12037,"ujifilm":12038,"=\\":12039,"Data":12040,"DNA":12041,"Hingga":12042,"Layanan":12043,"Ok":12044,"Pan":12045,"Say":12046,"aing":12047,"hasil":12048,"ks":12049,"nes":12050,"nica":12051,"virus":12052,"Ġambang":12053,"Ġutuh":12054,"anus":12055,"eros":12056,"erimaan":12057,"atwa":12058,"ales":12059,"Ġteh":12060,"Ġtuanya":12061,"tulis":12062,"ikl":12063,"ĠSuara":12064,"agmen":12065,"utri":12066,"utto":12067,"urah":12068,"ĠMaz":12069,"Ġher":12070,"Ġhor":12071,"tia":12072,"ĠTentang":12073,"ĠTahap":12074,"ĠRod":12075,"Ġniat":12076,"tauan":12077,"ayanya":12078,"ĠHampir":12079,"ĠInstr":12080,"Ġcetakan":12081,"ĠGangguan":12082,"Ġ1921":12083,"Ġfund":12084,"Ġfestival":12085,"endang":12086,"ĠWood":12087,"Ġmembentang":12088,"anggang":12089,"Ġseragam":12090,"opro":12091,"opher":12092,"empur":12093,"Ġdikerjakan":12094,"artment":12095,"Ġmendi":12096,"1978":12097,"Ġpendakian":12098,"Ġpenyerangan":12099,"Ġkomprehensif":12100,"Ġsenilai":12101,"erbu":12102,"ĠIskand":12103,"Ġekst":12104,"format":12105,"Ġabsolut":12106,"Penj":12107,"loud":12108,"ĠMusa":12109,"elajar":12110,"arly":12111,"Ġtujuannya":12112,"Ġkoran":12113,"ĠFebruary":12114,"ĠQue":12115,"Ġkontras":12116,"1986":12117,"1987":12118,"ĠWilson":12119,"Ġmitos":12120,"ĠAyu":12121,"Ġpoint":12122,"Ġkakek":12123,"Ġdieksekusi":12124,"Ġmenutupi":12125,"ĠVirg":12126,"ĠStudy":12127,"Ġrokok":12128,"konsep":12129,"Ġliteratur":12130,"ĠJohann":12131,"Ġkacang":12132,"ĠPerjuangan":12133,"ĠFriedrich":12134,"Bibliografi":12135,"Ġkompleksitas":12136,"ĠMediterania":12137,"AC":12138,"BU":12139,"Car":12140,"Deskripsi":12141,"Gejala":12142,"Jan":12143,"LS":12144,"hukum":12145,"nard":12146,"ped":12147,"arge":12148,"Ġpadang":12149,"inas":12150,"Ġsamb":12151,"Ġsirk":12152,"unikan":12153,"Ġbandar":12154,"Ġbupati":12155,"ĠSeda":12156,"Ġlintasan":12157,"itec":12158,"usung":12159,"ĠMang":12160,"ĠMembangun":12161,"ulainya":12162,"ĠKay":12163,"Ġmemuji":12164,"Ġmemotong":12165,"Ġhoriz":12166,"tiga":12167,"Ġmengutip":12168,"Ġjas":12169,"Ġrom":12170,"Ġng":12171,"udahan":12172,"awang":12173,"ĠJl":12174,"ĠList":12175,"ĠLiv":12176,"Ġcucu":12177,"ĠGad":12178,"Ġfungsinya":12179,"entikasi":12180,"Ġpengab":12181,"Ġmeledak":12182,"odal":12183,"ipan":12184,"angguran":12185,"osfat":12186,"Ġpemind":12187,"ops":12188,"efak":12189,"osiasikan":12190,"ework":12191,"alaikat":12192,"stant":12193,"Ġantis":12194,"Ġasalnya":12195,"Ġberkedudukan":12196,"Ġbersatu":12197,"Ġmetod":12198,"Ġkonservatif":12199,"ĠEnt":12200,"Ġmenganalisis":12201,"Ġforum":12202,"Ġrekreasi":12203,"oyo":12204,"Ġkeberadaannya":12205,"ĠExcel":12206,"ects":12207,"Ġkamu":12208,"Ġrepresentasi":12209,"syaratan":12210,"1971":12211,"enjak":12212,"ĠMedic":12213,"program":12214,"khu":12215,"unyikan":12216,"Ġinstruksi":12217,"ĠBersenjata":12218,"Ġmenikahi":12219,"ĠWalter":12220,"American":12221,"Ġbersaudara":12222,"Ġteoretis":12223,"Ġprimordial":12224,"ĠStanford":12225,"acteria":12226,"ĠSpecies":12227,"ĠWesolow":12228,"perialisme":12229,"ĠWanua":12230,"ĠAthena":12231,"ĠLewis":12232,"Ġadaptif":12233,"Ġboneka":12234,"ederhanakan":12235,"Ġkeyboard":12236,"ĠNugini":12237,"Ġinterpretasi":12238,"todoks":12239,"Ġantibodi":12240,"ĠTrotsky":12241,"ĠWesolowska":12242,"600":12243,"800":12244,"Do":12245,"Ir":12246,"Karakteristik":12247,"OD":12248,"Pes":12249,"Peri":12250,"Sik":12251,"TO":12252,"cons":12253,"del":12254,"lv":12255,"ness":12256,"oz":12257,"oan":12258,"tz":12259,"vana":12260,"wah":12261,"Ġdatar":12262,"Ġmorf":12263,"atulistiwa":12264,"Ġsaksi":12265,"Ġsiber":12266,"Ġsanksi":12267,"Ġbu":12268,"Ġbeku":12269,"Ġdiare":12270,"amo":12271,"amis":12272,"elle":12273,"ikkhu":12274,"ĠSA":12275,"ĠSr":12276,"ĠSara":12277,"Ġlet":12278,"Ġberin":12279,"Ġberawal":12280,"Ġteras":12281,"umas":12282,"ĠMangk":12283,"ĠAji":12284,"ider":12285,"Ġsebaik":12286,"Ġrevisi":12287,"Ġragam":12288,"Ġpenekanan":12289,"ĠClas":12290,"ĠCiv":12291,"ĠJune":12292,"Ġgu":12293,"ĠInn":12294,"acunan":12295,"uble":12296,"Ġ1923":12297,"Ġ1905":12298,"entanan":12299,"Ġpengungsi":12300,"Ġmemberit":12301,"ostr":12302,"alikan":12303,"Ġproto":12304,"ensia":12305,"Ġvalid":12306,"arani":12307,"obacterium":12308,"Ġsemata":12309,"Ġsemenjak":12310,"Ġdisarankan":12311,"Ġberkom":12312,"ĠAlfred":12313,"forma":12314,"Ġpersel":12315,"ijing":12316,"Ġproduktif":12317,"Ġkehancuran":12318,"ankton":12319,"Peristiwa":12320,"Ġminosiklin":12321,"engketa":12322,"Ġâĭ":12323,"rome":12324,"Ġpanel":12325,"Ġterakhirnya":12326,"ĠDrs":12327,"ĠStruktur":12328,"okuskan":12329,"Ġgeostasioner":12330,"Ġfront":12331,"sekolah":12332,"ĠSamudera":12333,"Ġtugasnya":12334,"Ġinsulin":12335,"1979":12336,"ĠBarito":12337,"ĠKapol":12338,"Ġsahamnya":12339,"ship":12340,"Prasasti":12341,"ĠLaur":12342,"ĠTokugawa":12343,"Ġtekstur":12344,"Ġbayam":12345,"ĠSky":12346,"Ġtembakan":12347,"Ġgitaris":12348,"ĠKejadian":12349,"gawati":12350,"Ġwisatawan":12351,"Masalah":12352,"Ġplasma":12353,"Abd":12354,"Ġdirekam":12355,"Ġdirekomendasikan":12356,"ĠStanley":12357,"ĠSudan":12358,"Ġkanal":12359,"Ġpurba":12360,"Australia":12361,"resentasikan":12362,"Ġnarkoba":12363,")^{":12364,"Balai":12365,"GL":12366,"Jaringan":12367,"Lin":12368,"Port":12369,"aq":12370,"bulan":12371,"day":12372,"dua":12373,"jalan":12374,"ken":12375,"quar":12376,"tet":12377,"tunya":12378,"ÈĻ":12379,"ÙĲ":12380,"erence":12381,"Ġdeskripsi":12382,"Ġmol":12383,"atom":12384,"atinya":12385,"ald":12386,"alipun":12387,"Ġsarang":12388,"Ġsilang":12389,"Ġtarian":12390,"Ġdiarahkan":12391,"amik":12392,"amic":12393,"sistem":12394,"ebak":12395,"iko":12396,"ores":12397,"ĠSingk":12398,"ĠSiwa":12399,"ĠPahlawan":12400,"Ġmentrans":12401,"Ġmenemui":12402,"Ġmenembus":12403,"Ġlamp":12404,"olitan":12405,"Ġberst":12406,"Ġbereks":12407,"Ġberadaptasi":12408,"arisi":12409,"Ġperolehan":12410,"ĠKand":12411,"ukle":12412,"ĠBac":12413,"ĠBrown":12414,"iridae":12415,"Ġjurnalis":12416,"ehavi":12417,"iae":12418,"imir":12419,"ĠRadi":12420,"alahgunaan":12421,"Ġgluk":12422,"Ġganti":12423,"ayer":12424,"Ġmerata":12425,"Ġmerencanakan":12426,"Ġcel":12427,"apati":12428,"ĠGit":12429,"Ġfe":12430,"antas":12431,"Ġmenyusul":12432,"oser":12433,"âĢ³":12434,"intahkan":12435,"night":12436,"Ġpembah":12437,"Ġkelangsungan":12438,"Ġkeragaman":12439,"Ġketi":12440,"Ġmencabut":12441,"uturan":12442,"onso":12443,"uncing":12444,"tanyakan":12445,"Ġbersalah":12446,"Ġbersedia":12447,"Ġ47":12448,"ĠMarket":12449,"agazine":12450,"emenangan":12451,"Inf":12452,"Ġsetelahnya":12453,"aratkan":12454,"iapkan":12455,"Ġdihilangkan":12456,"ĠAdobe":12457,"Permainan":12458,"Ġrotasi":12459,"Ġteleg":12460,"ĠSpesi":12461,"ĠKomandan":12462,"Ġmenggerakkan":12463,"ĠAkh":12464,"Ġmenerus":12465,"ĠRepubl":12466,"osisian":12467,"ĠKabaret":12468,"ividu":12469,"hie":12470,"ervation":12471,"Ġkeberl":12472,"1980":12473,"1981":12474,"ĠMinangkabau":12475,"Ġmewujudkan":12476,"ĠMetro":12477,"Ġmiliknya":12478,"ĠRoutl":12479,"Ġpercakapan":12480,"ĠMadura":12481,"ĠWhit":12482,"Ġtiang":12483,"ospital":12484,"akhstan":12485,"Ġtunduk":12486,"ĠProtocol":12487,"Ġsingel":12488,"utonium":12489,"Ġoksidasi":12490,"Ġpolimerase":12491,"ĠPenerbangan":12492,"Ġfermentasi":12493,"ĠEstonia":12494,"ĠDickens":12495,"Europ":12496,"omallei":12497,"ylobacter":12498,"Afrika":12499,"Ġpersenjataan":12500,"ĠIskandar":12501,"ĠRoutledge":12502,"Alat":12503,"Kl":12504,"Maj":12505,"UR":12506,"gma":12507,"helm":12508,"ii":12509,"jabar":12510,"len":12511,"tator":12512,"yad":12513,"aras":12514,"init":12515,"initas":12516,"Ġtindak":12517,"akunya":12518,"emium":12519,"elayan":12520,"ĠSea":12521,"ĠPay":12522,"ĠPihak":12523,"ĠPohon":12524,"Ġbersik":12525,"agaan":12526,"uther":12527,"Ġtergabung":12528,"usuhan":12529,"ulsi":12530,"Ġperiod":12531,"ĠBre":12532,"ĠBanda":12533,"ĠBiz":12534,"Ġinspirasi":12535,"irahat":12536,"ĠTH":12537,"ĠTbk":12538,"Ġjuru":12539,"Ġrug":12540,"ĠRote":12541,"Ġnik":12542,"ĠCong":12543,"ĠCov":12544,"Ġges":12545,"ĠNabi":12546,"ĠHome":12547,"Ġmeresp":12548,"Ġcita":12549,"ĠGall":12550,"ĠGrig":12551,"ĠGold":12552,"Ġ1918":12553,"Ġ1912":12554,"ajanan":12555,"Ġmelodi":12556,"ogram":12557,"ĠEFF":12558,"ĠFoto":12559,"Ġmenyenangkan":12560,"Ġproton":12561,"Ġkemitraan":12562,"indler":12563,"obia":12564,"Ġsekretaris":12565,"ĠVR":12566,"Ġpembaca":12567,"Ġanime":12568,"Ġpendorong":12569,"Ġberkep":12570,"mani":12571,"ĠPrinsip":12572,"utanan":12573,"Ġatasnya":12574,"Ġkedalam":12575,"ĠMarg":12576,"ardo":12577,"Ġwaktunya":12578,"ersey":12579,"Ġproduktivitas":12580,"akuasi":12581,"Ġapot":12582,"ĠZona":12583,"timah":12584,"ĠPola":12585,"Ġpesaing":12586,"antuan":12587,"Ġdigit":12588,"ĠHalmahera":12589,"Ġtaktis":12590,"Ġdijadwalkan":12591,"oksid":12592,"acauan":12593,"ĠReich":12594,"Ġmulanya":12595,"Ġmonopoli":12596,"ĠMinyak":12597,"gereja":12598,"1973":12599,"ISBN":12600,"Ġmemantau":12601,"Ġperpindahan":12602,"ĠKongo":12603,"ultural":12604,"Ġkerusuhan":12605,"ĠKomputer":12606,"Ġsurya":12607,"Ġmenempel":12608,"ĠServer":12609,"Ġsilat":12610,"Ġbawahan":12611,"Ġmemprediksi":12612,"Ġnitrat":12613,"ĠProduksi":12614,"Ġevaluasi":12615,"Subbag":12616,"ladimir":12617,"Ġsintetis":12618,"ĠPlato":12619,"Ġnilam":12620,"estrial":12621,"Ġvegetasi":12622,"Kasus":12623,"Ġnirkabel":12624,"Ġusahanya":12625,"Awal":12626,"CC":12627,"GM":12628,"May":12629,"NG":12630,"Pod":12631,"Sm":12632,"\\{\\":12633,"budaya":12634,"dim":12635,"eing":12636,"garan":12637,"iasi":12638,"kali":12639,"non":12640,"nold":12641,"par":12642,"pol":12643,"Ġombak":12644,"erob":12645,"inus":12646,"alib":12647,"Ġtest":12648,"Ġtawaran":12649,"Ġkod":12650,"eline":12651,"engaja":12652,"isai":12653,"iklan":12654,"oria":12655,"Ġmenumb":12656,"olaborasi":12657,"ager":12658,"agikan":12659,"ĠManjiro":12660,"ĠAZ":12661,"ĠKusan":12662,"ĠKayu":12663,"ĠBeng":12664,"ĠBudi":12665,"ĠBunga":12666,"ĠTemb":12667,"Ġjurusan":12668,"ĠRS":12669,"ĠRoger":12670,"embilan":12671,"Ġpenanaman":12672,"ĠJabatan":12673,"ĠJustice":12674,"Ġgalur":12675,"ĠHarm":12676,"Ġmeriam":12677,"okument":12678,"aining":12679,"ĠLan":12680,"acar":12681,"Ġcak":12682,"Ġcom":12683,"ĠGat":12684,"ĠGaddafi":12685,"Ġpengajar":12686,"Ġpengurus":12687,"Ġmelatih":12688,"ogi":12689,"Ġwas":12690,"Ġmembebaskan":12691,"osal":12692,"ĠOri":12693,"empeng":12694,"ewaan":12695,"Ġdikelilingi":12696,"ĠYordania":12697,"ĠVisual":12698,"Ġpembiayaan":12699,"Ġmencalonkan":12700,"ĠAndi":12701,"duksi":12702,"Ġbiomassa":12703,"Ġdiperhatikan":12704,"Ġ43":12705,"Ġ48":12706,"Ġpersonel":12707,"eller":12708,"180":12709,"ĠAsteroid":12710,"Ġpesta":12711,"ĠDesain":12712,"Ġkomunisme":12713,"ensinya":12714,"Ġdicirikan":12715,"Ġpenjajahan":12716,"Ġ1932":12717,"Ġmasuknya":12718,"ĠGood":12719,"ĠGovern":12720,"rone":12721,"Ġperlengkapan":12722,"olly":12723,"ĠHarapan":12724,"enewa":12725,"oroti":12726,"Ġultr":12727,"Ġdisiarkan":12728,"esuai":12729,"Ġdinyanyikan":12730,"Ġmenyerukan":12731,"ĠPDF":12732,"ĠKolonel":12733,"Ġpewarna":12734,"vention":12735,"ĠKasus":12736,"Phone":12737,"ĠEpisode":12738,"Ġmaritim":12739,"Ġkarbohidrat":12740,"ĠWahid":12741,"Berbagai":12742,"Official":12743,"ĠDeepSeek":12744,"Robert":12745,"ĠPacific":12746,"Ġpseudomallei":12747,"Ġpendahulunya":12748,"ĠAstronomical":12749,"(\\":12750,"AF":12751,"Jerman":12752,"KA":12753,"Sim":12754,"ball":12755,"bukti":12756,"ease":12757,"sul":12758,"tengah":12759,"eras":12760,"angnya":12761,"Ġsm":12762,"aset":12763,"Ġback":12764,"Ġkum":12765,"Ġdiwak":12766,"emudi":12767,"elop":12768,"turan":12769,"ĠSig":12770,"ĠPlan":12771,"esaran":12772,"Ġlulusan":12773,"oland":12774,"Ġteratas":12775,"ĠMut":12776,"Ġperundang":12777,"Ġperunggu":12778,"idor":12779,"Ġmengel":12780,"eds":12781,"Ġrongga":12782,"ianya":12783,"abl":12784,"ĠRUU":12785,"Ġpenip":12786,"Ġkeenam":12787,"ĠJim":12788,"ĠHerman":12789,"ĠHeritage":12790,"Ġfin":12791,"entasan":12792,"Ġpengemb":12793,"Ġmenyangkut":12794,"Ġsertifikasi":12795,"Ġberbahan":12796,"ĠYupiter":12797,"Ġmendistribusikan":12798,"Ġatribut":12799,"Ġdipicu":12800,"Ġaneh":12801,"Ġsejalan":12802,"Ġbiak":12803,"Ġmengharuskan":12804,"Ġbersejarah":12805,"Ġ49":12806,"Ġdideskripsikan":12807,"ĠAgency":12808,"ĠPenn":12809,"ĠPengendalian":12810,"elly":12811,"Ġterpengaruh":12812,"ther":12813,"}}{":12814,"Ġtranskripsi":12815,"ĠMaster":12816,"spesies":12817,"Ã©r":12818,"oksisitas":12819,"ĠBerkel":12820,"Ġdoktor":12821,"ĠReagan":12822,"ĠApi":12823,"Ġmenuliskan":12824,"ĠIrian":12825,"ious":12826,"ĠCarol":12827,"ĠSaudara":12828,"ãĥ¼":12829,"Ġkarbonat":12830,"ĠScient":12831,"alifahan":12832,"Orbit":12833,"Ġsulung":12834,"Ġmagnitudo":12835,"ĠWhite":12836,"Ġtiada":12837,"Ġtiket":12838,"Pertempuran":12839,"usnahkan":12840,"ĠPerkembangan":12841,"buahan":12842,"oterapi":12843,"eorologi":12844,"Ġpanggul":12845,"ĠEntertainment":12846,"Ġkuantitatif":12847,"ĠTherav":12848,"Ġnaungan":12849,"ĠYamamoto":12850,"ĠTaylor":12851,"Periode":12852,".);":12853,"PE":12854,"Pat":12855,"RNA":12856,"Sifat":12857,"Walaupun":12858,"bau":12859,"cur":12860,"dle":12861,"dale":12862,"fak":12863,"mund":12864,"posi":12865,"ÙĴ":12866,"âĤ":12867,"Ġorientasi":12868,"erapa":12869,"Ġdefin":12870,"enarkan":12871,"enium":12872,"alinan":12873,"Ġsan":12874,"Ġtarif":12875,"Ġbedah":12876,"Ġkn":12877,"Ġkuar":12878,"Ġkurun":12879,"elombang":12880,"apt":12881,"ily":12882,"illah":12883,"ĠSI":12884,"ĠSib":12885,"ĠStor":12886,"ĠSug":12887,"ĠPa":12888,"ĠPopul":12889,"ĠPsych":12890,"ette":12891,"uthan":12892,"ĠMinggu":12893,"ĠKita":12894,"ĠKami":12895,"ĠBiro":12896,"ĠBisnis":12897,"irebon":12898,"Ġhamb":12899,"Ġhop":12900,"ĠID":12901,"ĠTapi":12902,"ĠJas":12903,"ĠJenewa":12904,"uho":12905,"ĠNed":12906,"ĠHugh":12907,"Ġmerumuskan":12908,"ĠLas":12909,"Ġsearah":12910,"Ġpengacara":12911,"Ġpengawas":12912,"ĠWarna":12913,"ĠUNI":12914,"ibus":12915,"Ġmenyir":12916,"head":12917,"Ġprob":12918,"Ġseputar":12919,"ĠOver":12920,"ĠOman":12921,"ĠOcean":12922,"anjikan":12923,"ecehan":12924,"indi":12925,"ĠYu":12926,"Ġall":12927,"Ġketimbang":12928,"torasi":12929,"Ġmenghalangi":12930,"Ġmanipulasi":12931,"Ġpolar":12932,"Ġdidalam":12933,"Ġspontan":12934,"Ġekstensi":12935,"Ġpersediaan":12936,"ilisan":12937,"Ġpencemaran":12938,"Ġdekoder":12939,"spek":12940,"Ġsatwa":12941,"ĠDeut":12942,"Ġdramat":12943,"ĠStreet":12944,"organik":12945,"ĠBoeing":12946,"Ġparasit":12947,"ĠAngkasa":12948,"Ġsyariah":12949,"ĠMedal":12950,"ĠAbdur":12951,"ĠMegawati":12952,"Ġdelegasi":12953,"Ġpleb":12954,"Ġpenyelenggara":12955,"Ġkenyataannya":12956,"Ġjatuhnya":12957,"larasikan":12958,"Ġujungnya":12959,"ĠBatara":12960,"Ġperalihan":12961,"Eks":12962,"antium":12963,"Kematian":12964,"ĠPoint":12965,"ĠMayor":12966,"Ġhibrida":12967,"ampingi":12968,"Ġspiral":12969,"ĠSampai":12970,"Ġprediksi":12971,"sterdam":12972,"Ġpemakaian":12973,"Gerakan":12974,"Islam":12975,"ĠGeorgia":12976,"Ġpanggilan":12977,"Ġpinggiran":12978,"ĠRamayana":12979,"Ġarkeologi":12980,"Ġpemasangan":12981,"Ġsukarela":12982,"Ġmengejar":12983,"ĠKarib":12984,"Ġberkebangsaan":12985,"Ġperundingan":12986,"Ġpelepasan":12987,"okumentasikan":12988,"Bakteri":12989,"Dok":12990,"Top":12991,"\\,":12992,"likan":12993,"oir":12994,"pihak":12995,"rist":12996,"tel":12997,"uit":12998,"yar":12999,"}-":13000,"á¸":13001,"enberg":13002,"inah":13003,"alihan":13004,"Ġtenang":13005,"akon":13006,"Ġbudi":13007,"Ġbundar":13008,"Ġkisi":13009,"Ġkawah":13010,"Ġdimas":13011,"elli":13012,"onversi":13013,"ikmal":13014,"aper":13015,"ĠSad":13016,"ĠSant":13017,"ĠPek":13018,"Ġlaba":13019,"etarian":13020,"ingati":13021,"Ġteror":13022,"Ġterper":13023,"ĠBany":13024,"ĠBerl":13025,"ĠBalik":13026,"ĠBambang":13027,"ĠButon":13028,"Ġmengolah":13029,"ĠTempat":13030,"ĠRektor":13031,"Ġnode":13032,"awijaya":13033,"egas":13034,"Ġcoli":13035,"Ġ1910":13036,"Ġsewaktu":13037,"isial":13038,"isida":13039,"Ġmemburuk":13040,"ipedia":13041,"Ġmenyatu":13042,"Ġpemandangan":13043,"Ġsepasang":13044,"ĠIndah":13045,"Ġdibudidayakan":13046,"ĠYud":13047,"stone":13048,"Ġalfa":13049,"Ġdisusul":13050,"Ġdilatih":13051,"impun":13052,"impor":13053,"ĠAnim":13054,"turn":13055,"Ġberkala":13056,"Ġberkolaborasi":13057,"evin":13058,"hadapan":13059,"Ġkedi":13060,"Ġdipertimbangkan":13061,"Ġdiperintahkan":13062,"Ġpenyerapan":13063,"Ġpolusi":13064,"Ġoral":13065,"Ġsangatlah":13066,"ustrasi":13067,"Ġpersoalan":13068,"Ġabstrak":13069,"ĠBromo":13070,"ofilia":13071,"erdeka":13072,"ellig":13073,"ĠPolicy":13074,"Ġmenunjukan":13075,"ĠEnvironment":13076,"izuho":13077,"Ġpencari":13078,"azir":13079,"ĠMerek":13080,"Ġgerilya":13081,"uraisy":13082,"ĠiPhone":13083,"entrisitas":13084,"Ġ1931":13085,"ĠStrept":13086,"askus":13087,"ĠHarry":13088,"ĠSaleh":13089,"ĠMoore":13090,"Ġnegaranya":13091,"ĠSaud":13092,"Prinsip":13093,"Ġperpecahan":13094,"Ġberakhirnya":13095,"ĠEngland":13096,"rowser":13097,"Ġbayangan":13098,"ĠProfil":13099,"silangan":13100,"kerajaan":13101,"ĠKampus":13102,"Ġbudidaya":13103,"abolisme":13104,"ĠJavaScript":13105,"Ġrumpun":13106,"ĠPublishers":13107,"ĠOpera":13108,"ĠPesawat":13109,"ographic":13110,"ibutor":13111,"Pangeran":13112,"ugerahi":13113,"Ġinisiatif":13114,"Ġtransparan":13115,"uthanasia":13116,"ikmalaya":13117,"110":13118,"Berk":13119,"Bakal":13120,"GS":13121,"Mend":13122,"Sed":13123,"cita":13124,"dera":13125,"jaga":13126,"kej":13127,"kajian":13128,"kupu":13129,"pat":13130,"pop":13131,"papan":13132,"sb":13133,"secara":13134,"yangan":13135,"zabeth":13136,"Ãł":13137,"Î²":13138,"á»":13139,"Ġå":13140,"enai":13141,"Ġposisinya":13142,"Ġpisau":13143,"alayak":13144,"Ġsun":13145,"Ġsite":13146,"Ġtungro":13147,"Ġbimbingan":13148,"Ġdiajarkan":13149,"sional":13150,"ebur":13151,"orangan":13152,"ĠSop":13153,"ĠSoftware":13154,"Ġlinguistik":13155,"ĠKini":13156,"ĠKegiatan":13157,"ĠBy":13158,"Ġinform":13159,"Ġinformation":13160,"Ġinstalasi":13161,"Ġmemuncak":13162,"ĠDub":13163,"ĠTen":13164,"ĠTanggal":13165,"ĠTBA":13166,"Ġseberapa":13167,"imeter":13168,"ĠRun":13169,"ĠRum":13170,"egel":13171,"Ġgiliran":13172,"taan":13173,"ĠHay":13174,"oki":13175,"oket":13176,"tera":13177,"ĠLetusan":13178,"ĠLembah":13179,"aci":13180,"Ġ1929":13181,"Ġpengumpulan":13182,"ĠWaru":13183,"Ġwijen":13184,"ĠFisika":13185,"odinamika":13186,"oskop":13187,"ĠOf":13188,"ĠPerc":13189,"ĠPerempuan":13190,"indar":13191,"Ġaksesi":13192,"ingkirkan":13193,"Ġberburu":13194,"Ġmendadak":13195,"Ġpemburu":13196,"Ġdisek":13197,"Ġdipenj":13198,"Ġdipotong":13199,"Ġkesenjangan":13200,"Ġharm":13201,"uaskan":13202,"Ġpolitis":13203,"Ġkekacauan":13204,"iniyah":13205,"Ġstatis":13206,"Ġark":13207,"Ġarca":13208,"Ġarsitek":13209,"Ġrestoran":13210,"Ġbertepatan":13211,"ijaksanaan":13212,"ĠStat":13213,"Ġkhalayak":13214,"erton":13215,"Ġstrain":13216,"ĠSports":13217,"Ġditumb":13218,"ĠKomisaris":13219,"ĠXV":13220,"Ġpenghubung":13221,"ĠTerp":13222,"ĠDeezer":13223,"Ġinteraktif":13224,"ĠCount":13225,"ault":13226,"Ġsyn":13227,"ĠMajalah":13228,"ĠPorifera":13229,"ĠModal":13230,"Ġterhitung":13231,"ĠProfesor":13232,"ĠDinas":13233,"Ġlandak":13234,"Masyarakat":13235,"ĠReformasi":13236,"ĠParty":13237,"KBP":13238,"Ġpulih":13239,"Ġpilot":13240,"Ġnyawa":13241,"Ġbutir":13242,"otret":13243,"aftaran":13244,"ĠTasikmalaya":13245,"ĠNashr":13246,"ĠKristus":13247,"ĠNirvana":13248,"Ġperselisihan":13249,"))":13250,"BT":13251,"Em":13252,"Hip":13253,"Rumah":13254,"SR":13255,"bangsa":13256,"dx":13257,"gg":13258,"light":13259,"mid":13260,"masa":13261,"oordinasi":13262,"rempah":13263,"uasi":13264,"erra":13265,"enuhan":13266,"Ġmad":13267,"Ġmantel":13268,"Ġstim":13269,"ahas":13270,"Ġbobot":13271,"Ġkawin":13272,"Ġkualifikasi":13273,"sisa":13274,"ilir":13275,"ĠPati":13276,"eki":13277,"Ġlag":13278,"olif":13279,"ĠMilan":13280,"ĠMpu":13281,"ĠAL":13282,"Ġperantara":13283,"arau":13284,"ĠKro":13285,"ĠBall":13286,"Ġhebat":13287,"ĠDal":13288,"ĠDarm":13289,"ĠDiction":13290,"ĠTR":13291,"ĠTem":13292,"Ġjanji":13293,"Ġjenaz":13294,"imalkan":13295,"Ġrinci":13296,"ĠRisiko":13297,"embung":13298,"Ġnum":13299,"Ġnav":13300,"Ġnominasi":13301,"Ġnapas":13302,"ĠCib":13303,"ĠCry":13304,"ĠCagar":13305,"ihir":13306,"ĠLes":13307,"ĠGan":13308,"ĠGet":13309,"ĠGard":13310,"ending":13311,"Ġmembersihkan":13312,"iput":13313,"opl":13314,"ĠIndonesian":13315,"Ġkongres":13316,"Ġvokalis":13317,"ĠVladimir":13318,"Ġdisengaja":13319,"Ġberkec":13320,"Ġbarisan":13321,"Ġpelarut":13322,"uncuran":13323,"tansi":13324,"encatan":13325,"Ġdimulainya":13326,"Ġdipergunakan":13327,"Ġdiperbarui":13328,"ardjo":13329,"Ġterlarut":13330,"Ġdidik":13331,"Ġpermohonan":13332,"plantasi":13333,"ariskan":13334,"tivar":13335,"ĠPeningkatan":13336,"ĠAdat":13337,"Ġaudi":13338,"ĠReport":13339,"mbi":13340,"ĠXML":13341,"ĠJanuary":13342,"Ġsubs":13343,"tobacillus":13344,"ĠIslamic":13345,"Ġmakalah":13346,"ongkat":13347,"ouch":13348,"Ġintegr":13349,"deeling":13350,"Proyek":13351,"Ġelektromagn":13352,"ĠExplor":13353,"askar":13354,"Ġdiperlakukan":13355,"Ġedition":13356,"ĠBritannica":13357,"Ġperkembangannya":13358,"ĠPembinaan":13359,"Ġperanti":13360,"Ġmusyawarah":13361,"1969":13362,"etuskan":13363,"Ġdominasi":13364,"ãĥ³":13365,"ĠFreder":13366,"ĠBhre":13367,"Ġpropaganda":13368,"ĠKejaksaan":13369,"ĠSatellite":13370,"ĠPearl":13371,"ealth":13372,"ĠEmir":13373,"yawaratan":13374,"ĠJoe":13375,"ĠEconomics":13376,"Ġpersidangan":13377,"ĠPolitical":13378,"Ġpanglima":13379,"ĠHamid":13380,"Ġalgoritme":13381,"Ġriil":13382,"Ġtrauma":13383,"ĠSuharto":13384,"ĠPrinceton":13385,"ĠAyahnya":13386,"Ġaluminium":13387,"kamtib":13388,"Hanzi":13389,"Ġreferendum":13390,"frontasi":13391,"ĠLudwig":13392,"Ġhorizontal":13393,"ĠGrignard":13394,"Ġdramatis":13395,"%).":13396,"''":13397,"DPR":13398,"EAN":13399,"Hist":13400,"KO":13401,"Keber":13402,"Lib":13403,"Prancis":13404,"Rp":13405,"WA":13406,"cle":13407,"hod":13408,"hutan":13409,"lun":13410,"nia":13411,"raham":13412,"sing":13413,"saat":13414,"vis":13415,"yeng":13416,"Ø¯":13417,"à¥":13418,"ĠÄ":13419,"Ġæ":13420,"enh":13421,"enni":13422,"Ġpage":13423,"Ġpagar":13424,"alen":13425,"ahr":13426,"Ġtingk":13427,"akaian":13428,"Ġkaku":13429,"Ġkandang":13430,"Ġkembar":13431,"sibility":13432,"Ġyuris":13433,"ebatkan":13434,"isu":13435,"ĠSari":13436,"ĠSony":13437,"ĠPun":13438,"ĠPus":13439,"Ġmenaikkan":13440,"Ġberta":13441,"Ġberapa":13442,"ingen":13443,"Ġtermin":13444,"usyawaratan":13445,"ĠMD":13446,"ĠMemb":13447,"ĠKehidupan":13448,"ĠBour":13449,"ĠDapat":13450,"Ġmengerjakan":13451,"ĠTat":13452,"ĠTol":13453,"Ġramah":13454,"Ġnaf":13455,"udik":13456,"Ġget":13457,"ĠNec":13458,"ays":13459,"Ġ1914":13460,"Ġ1915":13461,"Ġpengajaran":13462,"endi":13463,"ĠWind":13464,"Ġmelestarikan":13465,"ĠFPI":13466,"Ġmenyeber":13467,"Ġmenyiapkan":13468,"opt":13469,"ĠĠĠĠĠĠĠĠĠĠĠĠĠĠĠĠĠĠĠĠĠĠĠĠĠĠĠĠĠĠĠĠĠĠĊ":13470,"Ġdibaca":13471,"Ġdibiarkan":13472,"Ġkemirip":13473,"Ġkemarahan":13474,"omposisi":13475,"inggung":13476,"sten":13477,"ĠVista":13478,"Ġpembantaian":13479,"Ġaljabar":13480,"Ġdisepakati":13481,"Ġpendengar":13482,"ĠAmsterdam":13483,"Ġberkons":13484,"2025":13485,"Ġpelestarian":13486,"istemologi":13487,"die":13488,"Ġkebah":13489,"ĠChap":13490,"Ġberskala":13491,"Ġspek":13492,"Ġdirawat":13493,"plement":13494,"Ġekuitas":13495,"ĠPengguna":13496,"erald":13497,"urangnya":13498,"Ġindikator":13499,"Ġâī":13500,"Ġdinobatkan":13501,"Ġtext":13502,"aza":13503,"Ġkalian":13504,"Ġkalori":13505,"Anti":13506,"ergian":13507,"bankan":13508,"ĠKeanekaragaman":13509,"arning":13510,"skap":13511,"Ġberkembangnya":13512,"death":13513,"ĠAtom":13514,"ĠDaud":13515,"1984":13516,"ĠDeputi":13517,"Ġobjektif":13518,"1970":13519,"ĠSanta":13520,"ĠMarxis":13521,"ĠBeijing":13522,"Ġketujuh":13523,"Ġmenganggapnya":13524,"Ġlembap":13525,"Ġdifusi":13526,"ĠKolombia":13527,"Ġnukleotida":13528,"anggalawe":13529,"ĠSabtu":13530,"Grup":13531,"ĠPemberian":13532,"ĠJulian":13533,"burgh":13534,"ĠAntonio":13535,"ĠBillboard":13536,"Ġhektare":13537,"Ġmutlaknya":13538,"Matematika":13539,"Olimpiade":13540,"Ġoutput":13541,"Ġestetika":13542,"Ġligan":13543,"Ġbersekolah":13544,"Ġmenguraikan":13545,"Ġintuisi":13546,"ĠBugis":13547,"Ġketerbatasan":13548,"Ġmisterius":13549,"Ġkriptografi":13550,"Ġpenalaran":13551,"ĠArjuna":13552,"Ġauthors":13553,"Ġditimbulkan":13554,"ĠSedaap":13555,"Ah":13556,"GI":13557,"Jawa":13558,"Kur":13559,"Li":13560,"Me":13561,"Pember":13562,"Qur":13563,"Ref":13564,"but":13565,"col":13566,"kin":13567,"lihatan":13568,"ooh":13569,"rence":13570,"san":13571,"Ãº":13572,"Îµ":13573,"Ġilah":13574,"Ġingatan":13575,"eratif":13576,"Ġpaus":13577,"Ġsap":13578,"Ġsengketa":13579,"Ġtukang":13580,"unch":13581,"Ġbasal":13582,"Ġbanding":13583,"Ġdiisolasi":13584,"orian":13585,"ĠSora":13586,"ĠPra":13587,"Ġlep":13588,"etic":13589,"Ġberakibat":13590,"agas":13591,"ĠMX":13592,"ĠMek":13593,"ĠMike":13594,"ĠAyat":13595,"ĠArea":13596,"ules":13597,"Ġperannya":13598,"ĠKuningan":13599,"ukis":13600,"ukim":13601,"ukota":13602,"ĠBagai":13603,"ĠBot":13604,"tiap":13605,"Ġmengajak":13606,"ĠTari":13607,"ĠTugas":13608,"ĠTotal":13609,"edikasikan":13610,"ehat":13611,"ehana":13612,"ĠRad":13613,"Ġpenump":13614,"ĠCil":13615,"ĠHis":13616,"ĠHur":13617,"ĠLam":13618,"Ġcab":13619,"ĠGede":13620,"Ġfakultas":13621,"antun":13622,"endral":13623,"Ġmelengkung":13624,"perk":13625,"perimen":13626,"Ġwawasan":13627,"Ġworld":13628,"ĠFitur":13629,"otis":13630,"icaraan":13631,"angganan":13632,"heim":13633,"Ġpemujaan":13634,"opot":13635,"efisi":13636,"ĠIndian":13637,"Ġvs":13638,"ingkai":13639,"aff":13640,"Ġkelanjutan":13641,"chool":13642,"Ġpreferensi":13643,"erifikasi":13644,"tura":13645,"igital":13646,"ovirus":13647,"ification":13648,"ulaiman":13649,"Ġpenyiaran":13650,"Ġmenjatuhkan":13651,"Ġ52":13652,"Ġbertempur":13653,"ĠZe":13654,"Ġeksplorasi":13655,"ĠUnder":13656,"eralisasi":13657,"ellow":13658,"Ġprosesor":13659,"Ġterpenc":13660,"eteran":13661,"Ġroh":13662,"ĠMasing":13663,"Ġdicampur":13664,"Ġsubgenre":13665,"loid":13666,"ĠKhalifah":13667,"Ġpenduduknya":13668,"Ġkemampuannya":13669,"Ġpetunjuk":13670,"Ġimam":13671,"ĠPembentukan":13672,"ĠDepartment":13673,"Arab":13674,"Artikel":13675,"issan":13676,"ĠPanitia":13677,"ĠPaleo":13678,"ĠUSA":13679,"Ġkandung":13680,"Ġlegal":13681,"ĠÎ±":13682,"Ġdiperkuat":13683,"ĠBhutto":13684,"Penyebab":13685,"Ġfluida":13686,"https":13687,"ĠRevolution":13688,"ĠCapital":13689,"abrÃ©":13690,"ĠDelta":13691,"ĠRelations":13692,"Ġdianugerahi":13693,"Ġunggul":13694,"ladesh":13695,"aktikkan":13696,"Ġbotol":13697,"blem":13698,"Ġpantun":13699,"Ġkotoran":13700,"empurnaan":13701,"ĠHabib":13702,"chestra":13703,"Ġpucat":13704,"Ġprioritas":13705,"Ġimbalan":13706,"Ġmelingkar":13707,"Ã£o":13708,"ĠKuwait":13709,"ovanni":13710,"oprotein":13711,"!\"":13712,"150":13713,"521":13714,"FT":13715,"Kand":13716,"Meski":13717,"NC":13718,"Satu":13719,"Seorang":13720,"cer":13721,"ced":13722,"low":13723,"mudah":13724,"pin":13725,"tro":13726,"vestasi":13727,"world":13728,"xi":13729,"Ġdomba":13730,"inu":13731,"aliran":13732,"Ġsaran":13733,"Ġsolid":13734,"ahabatan":13735,"Ġkin":13736,"Ġkawat":13737,"Ġdianj":13738,"adili":13739,"iklim":13740,"apore":13741,"ĠSuz":13742,"ĠPic":13743,"Ġlit":13744,"Ġberantai":13745,"ĠMedi":13746,"ĠAcara":13747,"arab":13748,"ĠKia":13749,"ukulan":13750,"Ġmemajukan":13751,"Ġmemulihkan":13752,"ĠDI":13753,"ĠDil":13754,"ĠTua":13755,"ĠTanda":13756,"ĠTegal":13757,"Ġrap":13758,"ĠRF":13759,"ĠRap":13760,"ĠRai":13761,"ĠRach":13762,"anduan":13763,"Ġpenyair":13764,"ĠCerita":13765,"ĠContr":13766,"eger":13767,"ĠJeff":13768,"Ġglik":13769,"ĠNam":13770,"tren":13771,"ĠHart":13772,"ĠHarga":13773,"ĠHerm":13774,"ĠLain":13775,"ĠGuar":13776,"ĠGolongan":13777,"Ġpengangkatan":13778,"isimal":13779,"ĠWomen":13780,"Ġmelanda":13781,"Ġwajar":13782,"Ġmenyoroti":13783,"opati":13784,"ensive":13785,"ĠPerumahan":13786,"Ġkemasan":13787,"Ġkemerahan":13788,"Ġsekumpulan":13789,"ston":13790,"ĠVari":13791,"Ġditeliti":13792,"Ġkelenjar":13793,"Ġkeracunan":13794,"Ġmencuri":13795,"Ġdiproses":13796,"Ġprestasi":13797,"igius":13798,"toritas":13799,"uglas":13800,"airs":13801,"idupkan":13802,"Ġpenyerang":13803,"ancial":13804,"Ġterkontaminasi":13805,"Ġ51":13806,"Ġ180":13807,"Ġ1860":13808,"Ġarit":13809,"Ġberdekatan":13810,"ploitasi":13811,"ĠAge":13812,"ĠAgus":13813,"Ġpersebaran":13814,"ĠPenemuan":13815,"ombaan":13816,"ĠZo":13817,"Ġ700":13818,"iller":13819,"Perl":13820,"Ġperbudakan":13821,"Ġmenggulingkan":13822,"Ġdicabut":13823,"Ġpenghormatan":13824,"arikh":13825,"Ġfilum":13826,"Ġkimiawi":13827,"ĠPendekatan":13828,"rigasi":13829,"Meny":13830,"Pemerintahan":13831,"Ġmoneter":13832,"ĠTanpa":13833,"ĠSchindler":13834,"ĠKebebasan":13835,"ĠCla":13836,"ĠSamuel":13837,"Ġkurva":13838,"1960":13839,"deraf":13840,"Ġmenghadirkan":13841,"Ġbalasan":13842,"ĠEurojust":13843,"ĠTurk":13844,"Ġdiakibatkan":13845,"Ġplanetisimal":13846,"ĠPaulus":13847,"wald":13848,"ritic":13849,"ÃŃa":13850,"Ġpemantauan":13851,"sebuah":13852,"Ġkakak":13853,"ĠFlag":13854,"ĠCanada":13855,"Ġdihadapi":13856,"robat":13857,"ĠNias":13858,"ĠEksentrisitas":13859,"ĠFromm":13860,"ĠKazakhstan":13861,"ĠDamaskus":13862,"utakhiran":13863,"framerah":13864,"urigai":13865,"Ġberstatus":13866,"oliferasi":13867,"Ġdianjurkan":13868,"Der":13869,"David":13870,"Es":13871,"Ko":13872,"Media":13873,"Mesin":13874,"Mekanisme":13875,"PH":13876,"Rusia":13877,"Ruang":13878,"Suku":13879,"Tanggal":13880,"Us":13881,"Vol":13882,"bij":13883,"cc":13884,"dney":13885,"garia":13886,"his":13887,"jur":13888,"neg":13889,"otipe":13890,"rent":13891,"tama":13892,"vik":13893,"waan":13894,"wati":13895,"äº":13896,"Ġent":13897,"arutan":13898,"Ġmic":13899,"Ġputus":13900,"alog":13901,"Ġkuku":13902,"amid":13903,"silah":13904,"onisme":13905,"ikus":13906,"iksaan":13907,"iliter":13908,"ĠSip":13909,"ĠSering":13910,"ĠPA":13911,"ĠPekan":13912,"Ġlum":13913,"Ġlikuid":13914,"itiga":13915,"Ġberkantor":13916,"agiaan":13917,"arir":13918,"ĠMerdeka":13919,"ĠBebas":13920,"Ġinsp":13921,"Ġinstan":13922,"idel":13923,"epresentasikan":13924,"ĠDew":13925,"ĠDampak":13926,"ĠDefinisi":13927,"Ġmengutamakan":13928,"ĠTir":13929,"ĠTre":13930,"ĠTown":13931,"Ġunjuk":13932,"Ġratus":13933,"Ġrenang":13934,"Ġranting":13935,"ĠRTP":13936,"ĠRSS":13937,"ĠRights":13938,"ĠRanggalawe":13939,"andra":13940,"Ġpenentuan":13941,"Ġnelayan":13942,"ĠCH":13943,"ĠCam":13944,"ĠCob":13945,"ĠJat":13946,"ĠJaksa":13947,"trasi":13948,"ĠHaw":13949,"ĠHadiah":13950,"Ġcan":13951,"ĠGaya":13952,"ĠGejala":13953,"Ġfen":13954,"Ġflora":13955,"Ġpengendali":13956,"ĠWester":13957,"Ġmelimpah":13958,"ebutkan":13959,"ĠFinal":13960,"ĠUb":13961,"odor":13962,"Ġmenyerbu":13963,"anau":13964,"obat":13965,"amankan":13966,"ujum":13967,"Ġpembantu":13968,"urance":13969,"Ġkeramik":13970,"Ġdipr":13971,"Ġdiputar":13972,"Ġantiv":13973,"eve":13974,"Ġbiokimia":13975,"Ġmanif":13976,"Ġmemperpanjang":13977,"ĠChar":13978,"ĠChili":13979,"Ġpenyalahgunaan":13980,"Ġagung":13981,"anced":13982,"Ġpenggunanya":13983,"Ġabadi":13984,"Ġmodul":13985,"ortik":13986,"Ġ73":13987,"cient":13988,"Ġotonom":13989,"ĠXbox":13990,"ropolitan":13991,"romosi":13992,"ĠEksek":13993,"ĠQuraisy":13994,"Ġkamus":13995,"Ġtercapai":13996,"oneer":13997,"agnos":13998,"1964":13999,"sisme":14000,"Ġperpanjangan":14001,"ĠMadrid":14002,"Ġchip":14003,"Ġpuncaknya":14004,"ĠPasir":14005,"Ġsilinder":14006,"ĠWales":14007,"Komisi":14008,"ĠArtinya":14009,"ilding":14010,"rediksi":14011,"ĠHasilnya":14012,"olidasi":14013,"ĠPilkada":14014,"Ġmatematis":14015,"Ġpayung":14016,"Obat":14017,"oplasma":14018,"ĠBrunei":14019,"Ġdiferensial":14020,"Ġalias":14021,"ĠLaboratory":14022,"Ġsumsum":14023,"ĠKacirebon":14024,"ematics":14025,"ĠPETA":14026,"omodasi":14027,"Ġekstensif":14028,"ĠMedicine":14029,"ĠBizantium":14030,"oksidasi":14031,"ĠKaribia":14032,"ĠDictionary":14033,"ĠKacirebonan":14034,"Desain":14035,"Jangan":14036,"LED":14037,"Maka":14038,"Nilai":14039,"Nasir":14040,"OI":14041,"Paul":14042,"Tab":14043,"XX":14044,"bach":14045,"gl":14046,"ging":14047,"ias":14048,"pasar":14049,"penc":14050,"sari":14051,"Ġdec":14052,"Ġduta":14053,"Ġdulunya":14054,"enaan":14055,"Ġpod":14056,"Ġpartisipasi":14057,"Ġsari":14058,"Ġsoftware":14059,"akas":14060,"Ġkupu":14061,"Ġkusta":14062,"Ġdiatas":14063,"Ġdiangkut":14064,"emari":14065,"eless":14066,"tusi":14067,"ĠSAR":14068,"ĠSaint":14069,"ĠSulaiman":14070,"ĠPb":14071,"Ġmens":14072,"Ġlaku":14073,"Ġlintang":14074,"Ġlalat":14075,"etron":14076,"Ġberiklim":14077,"Ġteritorial":14078,"ĠMess":14079,"Ġperancangan":14080,"Ġpersilangan":14081,"ĠKuturan":14082,"Ġinov":14083,"Ġmemadukan":14084,"Ġhemat":14085,"ĠIBM":14086,"omial":14087,"omyc":14088,"omentum":14089,"Ġmengalihkan":14090,"ĠTour":14091,"ĠTomat":14092,"ĠTugu":14093,"Ġsebanding":14094,"Ġranah":14095,"Ġpenularan":14096,"Ġner":14097,"Ġnasihat":14098,"ĠJasa":14099,"ĠJPL":14100,"ĠJupiter":14101,"Ġgoreng":14102,"ĠHans":14103,"ĠHOK":14104,"ĠHabrÃ©":14105,"ĠLight":14106,"ĠLokasi":14107,"ĠGelar":14108,"Ġpengumuman":14109,"endra":14110,"Ġmeluruh":14111,"Ġmembas":14112,"ĠEle":14113,"ampuran":14114,"icarakan":14115,"opa":14116,"empar":14117,"Ġkemarau":14118,"Ġakum":14119,"Ġberbunga":14120,"ĠYale":14121,"1959":14122,"Ġkelopak":14123,"Ġkerang":14124,"Ġkerentanan":14125,"Ġdisemb":14126,"Ġpendinginan":14127,"ĠAlb":14128,"ĠAlooh":14129,"ilmuan":14130,"ĠArts":14131,"ĠChinese":14132,"Ġdiperintah":14133,"ĠMarsh":14134,"ĠMariniyah":14135,"Ġmetil":14136,"emenang":14137,"Ġ53":14138,"Ġgenerik":14139,"Ġproduknya":14140,"Ġbawahnya":14141,"ulisan":14142,"anka":14143,"onder":14144,"Ġdihapuskan":14145,"ĠISDV":14146,"izu":14147,"load":14148,"ĠSydney":14149,"ĠTrade":14150,"ĠSury":14151,"Ġacuan":14152,"Ġmerekomendasikan":14153,"elajahan":14154,"Ġmemasok":14155,"hiasan":14156,"ĠEka":14157,"penyakit":14158,"Ġsinus":14159,"Ġsinkr":14160,"ected":14161,"Ġsalju":14162,"ĠSeeman":14163,"Ġmonumen":14164,"ĠHarris":14165,"Ġbuahnya":14166,"umsikan":14167,"sylv":14168,"Ġkursus":14169,"Ġkurikulum":14170,"ĠMakkah":14171,"ports":14172,"ĠPatrick":14173,"Ġdialog":14174,"Profil":14175,"ĠAntigua":14176,"scombe":14177,"Ġberkurangnya":14178,"ĠRiver":14179,"ĠUpaya":14180,"ĠMission":14181,"STOR":14182,"Museum":14183,"ĠJonathan":14184,"ĠShinji":14185,"ĠFortinet":14186,"ĠPerlindungan":14187,"Ġgroup":14188,"Ġastronomi":14189,"Ġanarkis":14190,"ĠAdministration":14191,"Ġthrash":14192,"Ġlanskap":14193,"ĠAZT":14194,"elopori":14195,"ĠPennsylv":14196,"ĠTheravada":14197,"Ġmenyiratkan":14198,"Ġelektromagnetik":14199,"ĠPennsylvania":14200,"Aku":14201,"Bagi":14202,"Del":14203,"EK":14204,"Jalan":14205,"Lee":14206,"Memb":14207,"Open":14208,"Sar":14209,"WC":14210,"fida":14211,"hen":14212,"iq":14213,"js":14214,"jaran":14215,"mik":14216,"oen":14217,"pus":14218,"rem":14219,"xOM":14220,"ym":14221,"zon":14222,"}_{":14223,"áŀ":14224,"ãĢ":14225,"Ġungkapan":14226,"ere":14227,"Ġdendam":14228,"Ġdapur":14229,"ardi":14230,"Ġmons":14231,"Ġpujian":14232,"Ġsian":14233,"ahs":14234,"asp":14235,"Ġtengk":14236,"Ġbuang":14237,"Ġdiet":14238,"Ġditaf":14239,"Ġdiimplementasikan":14240,"aduk":14241,"sidi":14242,"elemen":14243,
[...]
